{
  "version": "1.0",
  "truncation": null,
  "padding": null,
  "added_tokens": [
    {
      "id": 0,
      "content": "[UNK]",
      "single_word": false,
      "lstrip": false,
      "rstrip": false,
      "normalized": false,
      "special": true
    },
    {
      "id": 1,
      "content": "[PAD]",
      "single_word": false,
      "lstrip": false,
      "rstrip": false,
      "normalized": false,
      "special": true
    },
    {
      "id": 2,
      "content": "[SOS]",
      "single_word": false,
      "lstrip": false,
      "rstrip": false,
      "normalized": false,
      "special": true
    },
    {
      "id": 3,
      "content": "[EOS]",
      "single_word": false,
      "lstrip": false,
      "rstrip": false,
      "normalized": false,
      "special": true
    }
  ],
  "normalizer": null,
  "pre_tokenizer": {
    "type": "ByteLevel",
    "add_prefix_space": true,
    "trim_offsets": true,
    "use_regex": true
  },
  "post_processor": null,
  "decoder": {
    "type": "ByteLevel",
    "add_prefix_space": true,
    "trim_offsets": true,
    "use_regex": true
  },
  "model": {
    "type": "BPE",
    "dropout": null,
    "unk_token": "[UNK]",
    "continuing_subword_prefix": null,
    "end_of_word_suffix": null,
    "fuse_unk": false,
    "byte_fallback": false,
    "ignore_merges": false,
    "vocab": {
      "[UNK]": 0,
      "[PAD]": 1,
      "[SOS]": 2,
      "[EOS]": 3,
      "!": 4,
      "\"": 5,
      "#": 6,
      "$": 7,
      "%": 8,
      "&": 9,
      "'": 10,
      "(": 11,
      ")": 12,
      "*": 13,
      "+": 14,
      ",": 15,
      "-": 16,
      ".": 17,
      "/": 18,
      "0": 19,
      "1": 20,
      "2": 21,
      "3": 22,
      "4": 23,
      "5": 24,
      "6": 25,
      "7": 26,
      "8": 27,
      "9": 28,
      ":": 29,
      ";": 30,
      "<": 31,
      "=": 32,
      ">": 33,
      "?": 34,
      "@": 35,
      "A": 36,
      "B": 37,
      "C": 38,
      "D": 39,
      "E": 40,
      "F": 41,
      "G": 42,
      "H": 43,
      "I": 44,
      "J": 45,
      "K": 46,
      "L": 47,
      "M": 48,
      "N": 49,
      "O": 50,
      "P": 51,
      "Q": 52,
      "R": 53,
      "S": 54,
      "T": 55,
      "U": 56,
      "V": 57,
      "W": 58,
      "X": 59,
      "Y": 60,
      "Z": 61,
      "[": 62,
      "\\": 63,
      "]": 64,
      "_": 65,
      "`": 66,
      "a": 67,
      "b": 68,
      "c": 69,
      "d": 70,
      "e": 71,
      "f": 72,
      "g": 73,
      "h": 74,
      "i": 75,
      "j": 76,
      "k": 77,
      "l": 78,
      "m": 79,
      "n": 80,
      "o": 81,
      "p": 82,
      "q": 83,
      "r": 84,
      "s": 85,
      "t": 86,
      "u": 87,
      "v": 88,
      "w": 89,
      "x": 90,
      "y": 91,
      "z": 92,
      "{": 93,
      "|": 94,
      "}": 95,
      "~": 96,
      "¢": 97,
      "£": 98,
      "¤": 99,
      "§": 100,
      "¨": 101,
      "©": 102,
      "ª": 103,
      "«": 104,
      "®": 105,
      "¯": 106,
      "°": 107,
      "±": 108,
      "²": 109,
      "³": 110,
      "´": 111,
      "µ": 112,
      "¶": 113,
      "·": 114,
      "¸": 115,
      "¹": 116,
      "¼": 117,
      "¾": 118,
      "¿": 119,
      "Â": 120,
      "Ã": 121,
      "à": 122,
      "â": 123,
      "Ċ": 124,
      "Ġ": 125,
      "Ģ": 126,
      "ģ": 127,
      "Ĥ": 128,
      "ĥ": 129,
      "ħ": 130,
      "Ĩ": 131,
      "ĩ": 132,
      "Ī": 133,
      "ī": 134,
      "Ĭ": 135,
      "ĭ": 136,
      "Į": 137,
      "į": 138,
      "İ": 139,
      "ı": 140,
      "Ĳ": 141,
      "ĳ": 142,
      "Ĵ": 143,
      "ĵ": 144,
      "ķ": 145,
      "ĸ": 146,
      "ĺ": 147,
      "Ļ": 148,
      "ļ": 149,
      "ľ": 150,
      "Ŀ": 151,
      "ŀ": 152,
      "Ł": 153,
      "ł": 154,
      "Ń": 155,
      "à®": 156,
      "à¯": 157,
      "à¯į": 158,
      "Ġà®": 159,
      "à¯ģ": 160,
      "à®¿": 161,
      "à®ķ": 162,
      "à®¤": 163,
      "à®¾": 164,
      "à®°": 165,
      "à®Ł": 166,
      "à®ª": 167,
      "à®®": 168,
      "à®©": 169,
      "à®²": 170,
      "à®±": 171,
      "à¯Ī": 172,
      "à®¯": 173,
      "à®³": 174,
      "à®µ": 175,
      "Ġà®ª": 176,
      "à®ķà®³": 177,
      "à¯ĩ": 178,
      "Ġà®ķ": 179,
      "à®ļ": 180,
      "Ġà®®": 181,
      "Ġà®ħ": 182,
      "à¯Ĩ": 183,
      "Ġà®¤": 184,
      "Ġà®µ": 185,
      "à®¨": 186,
      "à®£": 187,
      "Ġà®ļ": 188,
      "Ġà®ĩ": 189,
      "Ġà®¨": 190,
      "à®Ļ": 191,
      "Ġà®İ": 192,
      "à®´": 193,
      "à®ªà®Ł": 194,
      "Ġà®ī": 195,
      "à¯į.": 196,
      "à¯į,": 197,
      "à¯Ĥ": 198,
      "à¯Ģ": 199,
      "à¯ĭ": 200,
      "à¯Ĭ": 201,
      "à®µà®°": 202,
      "Ġà®Ĩ": 203,
      "Ġà®İà®©": 204,
      "à¯Ĩà®¾": 205,
      "à¯ĩà®¾": 206,
      "à¯ģ.": 207,
      "Ġà®Ĵ": 208,
      "à®µà®¤": 209,
      "Ġà®ĩà®°": 210,
      "à®ªà®¤": 211,
      "Ġà®ĩà®¨": 212,
      "Ġà®®à®±": 213,
      "à®Łà®¤": 214,
      "Ġà®ħà®¤": 215,
      "Ġà®ħà®®": 216,
      "à®¤à®²": 217,
      "à®¸": 218,
      "à®ķà®ª": 219,
      "à®ķà®®": 220,
      "Ġà®ķà®Ł": 221,
      "à®°à®ļ": 222,
      "à®°à®¤": 223,
      "Ġà®µà®°": 224,
      "à®Łà®©": 225,
      "Ġà®ħà®µà®°": 226,
      "à®±à®¤": 227,
      "à¯ģ,": 228,
      "à®¤à®¤": 229,
      "à®ķà®¤": 230,
      "à®©à®°": 231,
      "Ġà®Ĵà®°": 232,
      "à®³à®¤": 233,
      "Ġà®ĩà®¤": 234,
      "Ġà®ı": 235,
      "à®Łà®®": 236,
      "à®¯à®²": 237,
      "à®¯à®¤": 238,
      "Ġà®¨à®Ł": 239,
      "Ġà®ľ": 240,
      "Ġà®īà®³": 241,
      "Ġà®ħà®°à®ļ": 242,
      "à®ķà®°": 243,
      "à®ķà®µ": 244,
      "à®³à®°": 245,
      "Ġà®°": 246,
      "à®µà®©": 247,
      "à®·": 248,
      "à®°à®®": 249,
      "à®¤à®°": 250,
      "Ġ2": 251,
      "à®¯à®®": 252,
      "à®ľ": 253,
      "à®¤à®®": 254,
      "Ġ1": 255,
      "à®Łà®°": 256,
      "à®©à®¤": 257,
      "Ġà®İà®¤": 258,
      "à®Łà®Ļ": 259,
      "à®¤à®µ": 260,
      "Ġà®ħà®©": 261,
      "à®¤à®ª": 262,
      "Ġà®ħà®Ł": 263,
      "Ġà®Ĩà®ķ": 264,
      "Ġà®ļà®®": 265,
      "à®²à®¤": 266,
      "Ġà®¤à®²": 267,
      "à®¯à®°": 268,
      "à®¯à®©": 269,
      "Ġà®®à®ķ": 270,
      "Ġà®ħà®±": 271,
      "Ġà®®à®¤": 272,
      "Ġà®ıà®±": 273,
      "Ġà®ħà®³": 274,
      "à®²à®®": 275,
      "Ġà®īà®±": 276,
      "à®®à®°": 277,
      "Ġà®µà®´": 278,
      "Ġ(": 279,
      "Ġà®ķà®°": 280,
      "à®¯à®ķ": 281,
      "Ġà®īà®°": 282,
      "Ġà®ªà®²": 283,
      "à®ļà®°": 284,
      "00": 285,
      "Ġà®Ł": 286,
      "Ġà®ªà®Ł": 287,
      "à®¤à®©": 288,
      "à®µà®¤à®±": 289,
      "à®ªà®°": 290,
      "Ġà®Ĩà®£": 291,
      "Ġ\"": 292,
      "à®¿,": 293,
      "Ġà®¯": 294,
      "à®®à®¤": 295,
      "Ġà®ķà®£": 296,
      "Ġà®¤à®©": 297,
      "à®²à®ķ": 298,
      "à®°à®¤à®®à®°": 299,
      "Ġà®ħà®²": 300,
      "à®ŀ": 301,
      "à®¤à®ķ": 302,
      "Ġà®ªà®£": 303,
      "âĢ": 304,
      "à®µà®Ł": 305,
      "Ġà®ķà®²": 306,
      "Ġà®ªà®°": 307,
      "Ġà®ĩà®©": 308,
      "à®°à®£": 309,
      "à®¯à®ª": 310,
      "à¯į;": 311,
      "à®ļà®®": 312,
      "à®±à®©": 313,
      "à®µà®±": 314,
      "Ġà®ªà®ķ": 315,
      "Ġà®Ĭ": 316,
      "Ġ20": 317,
      "Ġà®Ĳ": 318,
      "à®¯à®±": 319,
      "Ġà®µà®ķ": 320,
      "Ġà®ĩà®²": 321,
      "Ġà®ªà®±": 322,
      "à®µà®®": 323,
      "Ġà®²": 324,
      "Ġà®ļà®°": 325,
      "Ġà®īà®£": 326,
      "à®ļà®¤": 327,
      "à®±à®ª": 328,
      "à®ķà®Ł": 329,
      "Ġà®ľà®©": 330,
      "à®Łà®ķ": 331,
      "Ġà®Ī": 332,
      "à®ķà®²": 333,
      "à®Łà®ª": 334,
      "Ġà®Ĵà®ª": 335,
      "Ġà®ħà®¨": 336,
      "à®¯à®Ļ": 337,
      "Ġ'": 338,
      "Ġà®İà®Ł": 339,
      "à¯Ī,": 340,
      "Ġà®ªà®¤": 341,
      "à®¿.": 342,
      "Ġà®ħà®ª": 343,
      "à®ķà®ķ": 344,
      "Ġà®Ĩà®¯": 345,
      "Ġà®ĩà®£": 346,
      "Ġà®¨à®Łà®µà®Ł": 347,
      "Ġà®Ĵà®©": 348,
      "Ġà®®à®©": 349,
      "à®®à®²": 350,
      "Ġà®ªà®Ļ": 351,
      "à®ķà®´": 352,
      "Ġà®ħà®µ": 353,
      "Ġà®µà®²": 354,
      "Ġà®µà®¨": 355,
      "à®®à®©": 356,
      "Ġà®µà®´à®Ļ": 357,
      "Ġà®ªà®¯à®©": 358,
      "à¯Ī.": 359,
      "Ġà®ħà®³à®µ": 360,
      "Ġà®¤à®Ļ": 361,
      "à®İ": 362,
      "à®³à®©": 363,
      "à®ļà®²": 364,
      "Ġà®¹": 365,
      "Ġà®®à®°": 366,
      "à®µà®²": 367,
      "Ġà®ĩà®Ł": 368,
      "à®ªà®¤à®±": 369,
      "Ġà®ĩà®¯à®ķ": 370,
      "ĠâĢ": 371,
      "Ġà®ļà®¨": 372,
      "à®°à®Ļ": 373,
      "Ġà®¨à®®": 374,
      "Ġà®¸": 375,
      "à®©à®®": 376,
      "Ġà®ªà®¯": 377,
      "Ġà®µà®³à®°": 378,
      "Ġà®Ĩà®°": 379,
      "à®Łà®²": 380,
      "à®¤à®°à®µ": 381,
      "Ġà®ħà®¤à®©": 382,
      "Ġ201": 383,
      "Ġà®īà®¤à®µ": 384,
      "Ġà®Ĩà®©": 385,
      "à®µà®ķ": 386,
      "à¯ĩ,": 387,
      "Ġà®ħà®´": 388,
      "à®³à®®": 389,
      "Ġà®¤à®Ł": 390,
      "à®±à®®": 391,
      "Ġ3": 392,
      "à®°à®ª": 393,
      "Ġà®¨à®Łà®¤": 394,
      "Ġà®ļà®Ł": 395,
      "à®ķà®Ļ": 396,
      "Ġà®ĩà®°à®£": 397,
      "à®¤à®Ļ": 398,
      "Ġà®ĩà®ª": 399,
      "Ġà®Īà®°": 400,
      "Ġà®¨à®²": 401,
      "à®¯à®µ": 402,
      "Ġà®ħà®µà®©": 403,
      "à®²à®µ": 404,
      "Ġà®ĵ": 405,
      "Ġà®īà®¯à®°": 406,
      "à®³à®µ": 407,
      "Ġà®īà®²à®ķ": 408,
      "à®ļà®ķà®®": 409,
      "Ġ19": 410,
      "Ġà®ļà®ķ": 411,
      "Ġà®®à®Ł": 412,
      "à®ªà®¨": 413,
      "Ġà®ķà®Łà®¨": 414,
      "Ġà®ħà®£": 415,
      "Ġà®¤à®¯": 416,
      "Ġà®Ĩà®¤à®°à®µ": 417,
      "Ġà®İà®£": 418,
      "Ġà®īà®Ł": 419,
      "Ġà®īà®Ļ": 420,
      "Ġà®İà®²": 421,
      "à®°à®°": 422,
      "Ġà®ħà®°": 423,
      "Ġà®¤à®±": 424,
      "à®ĩ": 425,
      "à®ļà®©": 426,
      "à¯į-": 427,
      "Ġà®İà®´": 428,
      "20": 429,
      "à®µà®ļ": 430,
      "à®ķà®©": 431,
      "Ġà®Ĵà®¤": 432,
      "à¯į\"": 433,
      "Ġà®¤à®®": 434,
      "à®¾,": 435,
      "à®±à®¨": 436,
      "à®Ĩ": 437,
      "Ġà®ļà®¤à®µ": 438,
      "Ġà®īà®¤": 439,
      "à®°à®µ": 440,
      "à®°à®ķ": 441,
      "à®°à®Ł": 442,
      "Ġà®ħà®ķ": 443,
      "Ġà®İà®¨": 444,
      "à®±à®µ": 445,
      "à®´à®ķ": 446,
      "à®ªà®£": 447,
      "à®²à®Ļ": 448,
      "à®µà®©à®Ļ": 449,
      "Ġà®ĩà®¸": 450,
      "à®±à®©à®°": 451,
      "Ġ5": 452,
      "à®¯à®°à®ļ": 453,
      "à®¤à®µà®°": 454,
      "à®¯à®µà®±": 455,
      "Ġà®ľà®©à®¨": 456,
      "Ġà®īà®Łà®©": 457,
      "à®ħ": 458,
      "à¯ģ;": 459,
      "à®ķà®µà®²": 460,
      "à®ķà®³à®¤": 461,
      "à®³à®©à®°": 462,
      "à®°à®£à®®": 463,
      "Ġà®Ĩà®ļ": 464,
      "Ġà®¤à®©à®¤": 465,
      "à¯į'": 466,
      "Ġ-": 467,
      "Ġà®ĩà®¤à®©": 468,
      "à®¤à®©à®°": 469,
      "Ġà®®à®£": 470,
      "Ġà®İà®°": 471,
      "Ġà®Ĩà®Ł": 472,
      "à®±à®ķ": 473,
      "à®ļà®Ļ": 474,
      "Ġà®¨à®ķà®°": 475,
      "à®ķà®£": 476,
      "Ġà®¤à®ķà®µà®²": 477,
      "à®ªà®®": 478,
      "Ġ4": 479,
      "à®ªà®²": 480,
      "Ġà®µà®Ļ": 481,
      "Ġà®¨à®®à®¤": 482,
      "à®ªà®©": 483,
      "Ġà®¤à®°": 484,
      "à®³à®ª": 485,
      "an": 486,
      "Ġà®īà®©": 487,
      "à®²à®°": 488,
      "000": 489,
      "à¯į:": 490,
      "à®£à®®": 491,
      "Ġà®ªà®Łà®¤": 492,
      "Ġà®ħà®Ļ": 493,
      "à®ªà®ķ": 494,
      "Ġà®Ĳà®°": 495,
      "Ġà®ħà®ļ": 496,
      "er": 497,
      "à®¤à®¨": 498,
      "Ġà®īà®²": 499,
      "à®ļà®ķ": 500,
      "19": 501,
      "à®¹": 502,
      "Ġà®µà®ļà®¤": 503,
      "Ġà®Ĩà®²": 504,
      "Ġà®²à®Ł": 505,
      "à®®à®ķ": 506,
      "à®µà®©à®®": 507,
      "à®©à®µ": 508,
      "à®ªà®µà®°": 509,
      "à®´à®¨": 510,
      "Ġ200": 511,
      "à®ķà®ļ": 512,
      "à®Łà®µ": 513,
      "Ġà®ĩà®µà®°": 514,
      "à®Łà®©à®°": 515,
      "Ġ6": 516,
      "Ġà®İà®Ļ": 517,
      "Ġà®·": 518,
      "Ġà®µà®Ł": 519,
      "à¯Ĥ.": 520,
      "à®µà®¨": 521,
      "Ġà®İà®©à®ķ": 522,
      "à®ªà®±": 523,
      "à®ŀà®°": 524,
      "Ġà®Ĵà®µ": 525,
      "Ġà®ħà®¤à®±": 526,
      "Ġà®ķà®²à®¨": 527,
      "Ġà®ĩà®±": 528,
      "Ġà®Ĩà®¤": 529,
      "à®£à®°": 530,
      "à¯į)": 531,
      "Ġà®¨à®²à®©": 532,
      "Ġ''": 533,
      "à®©à®£": 534,
      "Ġà®¨à®Łà®¨": 535,
      "Ġà®°à®¯": 536,
      "à¯ģ:": 537,
      "Ġà®īà®¯": 538,
      "Ġà®Ĵà®Ł": 539,
      "Ġà®ĩà®µ": 540,
      "âĢĿ": 541,
      "ĠC": 542,
      "Ġà®Īà®Ł": 543,
      "Ġ7": 544,
      "on": 545,
      "à®´à®²": 546,
      "Ġà®ĩà®Łà®®": 547,
      "à®ļà®°à®µ": 548,
      "ĠâĢľ": 549,
      "Ġà®ĩà®³": 550,
      "Ġà®İà®ª": 551,
      "ĠS": 552,
      "in": 553,
      "à®°à®©": 554,
      "Ġà®ĩà®Łà®¤": 555,
      "à®µà®°à®¤": 556,
      "Ġà®Ĩà®±": 557,
      "à®£à®¤": 558,
      "à®İà®¸": 559,
      "Ġà®ªà®´": 560,
      "à®°à®²": 561,
      "à®³à®ķ": 562,
      "ar": 563,
      "Ġà®ĩà®¤à®±": 564,
      "à¯ĩ.": 565,
      "Ġà®īà®£à®µ": 566,
      "à®Ĳ": 567,
      "Ġà®Ĩà®ª": 568,
      "à®²à®ª": 569,
      "Ġà®ļà®¤": 570,
      "à®ªà®Ļ": 571,
      "à®Łà®µà®°": 572,
      "Ġà®Ĩà®³": 573,
      "Ġà®īà®£à®°": 574,
      "à®ªà®µ": 575,
      "Ġà®¤à®³": 576,
      "Ġà®Ĭà®ķ": 577,
      "Ġà®¨à®©": 578,
      "à®£à®µà®°": 579,
      "à®±à®Ļ": 580,
      "à®±à®µà®°": 581,
      "à®£à®ª": 582,
      "Ġà®µà®°à®µ": 583,
      "Ġà®¤à®µ": 584,
      "Ġà®ķà®Łà®©": 585,
      "à®¯à®Ł": 586,
      "Ġà®ķà®£à®ķ": 587,
      "à®©à®ª": 588,
      "Ġà®ķà®´": 589,
      "Ġà®ĩà®²à®ķ": 590,
      "Ġà®¨à®°": 591,
      "ĠP": 592,
      "ĠâĢĵ": 593,
      "Ġà®ħà®µà®°à®¤": 594,
      "à®ªà®Łà®µ": 595,
      "à®µà®©à®¤": 596,
      "Ġ10": 597,
      "Ġà®ıà®©": 598,
      "Ġà®ªà®Łà®®": 599,
      "Ġà®ķà®®": 600,
      "Ġ8": 601,
      "Ġà®ķà®¤": 602,
      "Ġà®ļà®µ": 603,
      "Ġà®µà®£": 604,
      "Ġà®ļà®Ļ": 605,
      "Ġà®¤à®£": 606,
      "ĥà®ª": 607,
      "à¯ģ\"": 608,
      "..": 609,
      "Ġà®ıà®´": 610,
      "Ġà®®à®¨": 611,
      "al": 612,
      "en": 613,
      "Ġà®µà®³": 614,
      "à®²à®©": 615,
      "Ġà®īà®±à®µ": 616,
      "Ġà®ħà®µà®ļ": 617,
      "Ġ9": 618,
      "à®Łà®£": 619,
      "à®©à®µà®°": 620,
      "Ġà®µà®´à®ķ": 621,
      "Ġà®µà®Łà®ķ": 622,
      "à®©à®Ļ": 623,
      "Ġ2018": 624,
      "Ġà®¨à®£": 625,
      "à®´à®®": 626,
      "ĠA": 627,
      "Ġà®µà®°à®²": 628,
      "à®ķà®°à®µ": 629,
      "Ġ15": 630,
      "or": 631,
      "Ġà®ªà®¤à®µ": 632,
      "à®°à®¸": 633,
      "ti": 634,
      "Ġà®ķà®±": 635,
      "à®µà®²à®ķà®®": 636,
      "à®¨à®°": 637,
      "âĢĻ": 638,
      "Ġà®ĩà®²à®Ļ": 639,
      "Ġà®İà®µ": 640,
      "''": 641,
      "à®·à®©": 642,
      "Ġà®Ĵà®´": 643,
      "Ġà®ĩà®Ļ": 644,
      "Ġà®ķà®µ": 645,
      "à®µà®ª": 646,
      "à®±à®²": 647,
      "à®¯à®µà®°": 648,
      "à®¤à®Ł": 649,
      "ĠM": 650,
      "à®ķà®£à®ķ": 651,
      "Ġà®ªà®¯à®Ļ": 652,
      "Ġ2020": 653,
      "Ġà®ĩà®Łà®Ļ": 654,
      "à®ķà®°à®®": 655,
      "à®¤à®ªà®Ł": 656,
      "Ġà®ļà®ª": 657,
      "à®ªà®ª": 658,
      "es": 659,
      "Ġà®ħà®µà®±": 660,
      "Ġà®ķà®ª": 661,
      "Ġà®Ĩà®°à®®": 662,
      "à®¤à®°à®ª": 663,
      "Ġà®Ĭà®Ł": 664,
      "Ġà®Ĳà®¨": 665,
      "Ġà®İà®©à®µ": 666,
      "à®¾.": 667,
      "ĠB": 668,
      "Ġà®ĵà®¯": 669,
      "Ġ12": 670,
      "à®Ĩà®®": 671,
      "Ġà®ĩà®´": 672,
      "à®ľà®©": 673,
      "Ġà®İà®©à®¤": 674,
      "Ġà®®à®²": 675,
      "Ġà®ķà®Łà®²": 676,
      "à®¿:": 677,
      "Ġà®İà®ļ": 678,
      "Ġà®ĵà®°": 679,
      "Ġà®¤à®®à®¤": 680,
      "à®ĥà®ª": 681,
      "Ġà®ªà®³": 682,
      "Ġà®¤à®ķ": 683,
      "Ġà®Ĩà®®": 684,
      "à¯ĭ,": 685,
      "à®ķà®©à®µ": 686,
      "Ġà®İà®³": 687,
      "Ġà®Ĭà®´": 688,
      "à®ī": 689,
      "Ġà®ªà®ļ": 690,
      "ĠL": 691,
      "à¯Ī\"": 692,
      "à¯į.\"": 693,
      "Ġà®ĩà®ļ": 694,
      "Ġà®ıà®¤": 695,
      "Ġà®Ĩà®µ": 696,
      "Ġà®Ĳà®ķ": 697,
      "à®³à®Ļ": 698,
      "Ġà®ĩà®¯à®±": 699,
      "à¯įâĢĿ": 700,
      "Ġà®īà®ļ": 701,
      "--": 702,
      "Ġ199": 703,
      "Ġà®ķà®©": 704,
      "à®¯à®ķà®ķ": 705,
      "à®Ĩà®°": 706,
      "ĠâĢĺ": 707,
      "Ġà®īà®´": 708,
      "Ġà®ıà®ª": 709,
      "à¯į''": 710,
      "ĠI": 711,
      "Ġ11": 712,
      "Ġà®µà®¯à®¤": 713,
      "à®ļà®ķà®¤": 714,
      "Ġ2017": 715,
      "Ġà®°à®·": 716,
      "),": 717,
      "à®Ĵ": 718,
      "Ġà®ªà®¯à®£": 719,
      "Ġà®īà®®": 720,
      "Ġà®¤à®¨": 721,
      "à®¤à®ļ": 722,
      "Ġà®ªà®°à®¨": 723,
      "18": 724,
      "Ġà®µà®ļ": 725,
      "Ġà®µà®©": 726,
      "à®ı": 727,
      "Ġà®¨à®µ": 728,
      "à®Łà®³": 729,
      "à®İà®®": 730,
      "Ġà®¤à®µà®±": 731,
      "à®µà®¤à®©": 732,
      "à®¤à®ķà®®": 733,
      "Ġà®ªà®Łà®Ļ": 734,
      "ĠF": 735,
      "Ġ30": 736,
      "à®Łà®±": 737,
      "à®ļà®ª": 738,
      "ĠD": 739,
      "Ġà®ıà®°": 740,
      "Ġà®ķà®Łà®±": 741,
      "ĠN": 742,
      "à®İà®©": 743,
      "Ġà®ıà®ķ": 744,
      "à®ķà®±": 745,
      "Ġà®µà®²à®¤": 746,
      "Ġà®ĩà®µà®±": 747,
      "Ġà®ļà®®à®¤": 748,
      "ch": 749,
      "Ġ2019": 750,
      "Ġà®ĩà®¤à®°": 751,
      "Ġà®Ĭà®°": 752,
      "is": 753,
      "Ġà®ªà®©": 754,
      "Ġà®µà®±": 755,
      "à®£à®Ļ": 756,
      "Ġà®¨à®Łà®ķ": 757,
      "Ġà®İà®®": 758,
      "à®ĩà®¨": 759,
      "ĠT": 760,
      "à®¿'": 761,
      "Ġà®ĵà®Ł": 762,
      "Ġà®Ĭà®¤": 763,
      "ĠG": 764,
      "Ġ25": 765,
      "Ġà®¤à®°à®ª": 766,
      "à®¯à®ļ": 767,
      "Ġà®ħà®®à®²": 768,
      "à®®à®Ł": 769,
      "à®¯à®³": 770,
      "Ġà®ķà®µà®©à®®": 771,
      "ĠR": 772,
      "à®ľà®°": 773,
      "à¯į?": 774,
      "à®¤à®±": 775,
      "Ġà®īà®²à®ķà®®": 776,
      "Ġ18": 777,
      "Ġà®İà®ķ": 778,
      "à®µà®®à®©": 779,
      "à®®à®ª": 780,
      "à®µà®°à®Ļ": 781,
      "Ġà®¨à®ķ": 782,
      "Ġà®ľà®©à®Ļ": 783,
      "Ġà®īà®Łà®©à®Ł": 784,
      "à®¾?": 785,
      "à®ķà®³à®µ": 786,
      "Ġà®İà®¸": 787,
      "à®£à®¯": 788,
      "Ġ13": 789,
      "Ġà®ĩà®¯": 790,
      "Ġà®Ĭà®Łà®ķ": 791,
      "el": 792,
      "à®ªà®Łà®¤": 793,
      "à®°à®¤à®®": 794,
      "à¯Ī;": 795,
      "=\"": 796,
      "Ġ14": 797,
      "Ġà®Ĩà®¤à®°": 798,
      "Ġà®ķà®µà®²": 799,
      "Ġà®¨à®ķà®°à®Ļ": 800,
      "à®±à®ļ": 801,
      "Ġà®ķà®³": 802,
      "Ġ50": 803,
      "à®®à®±": 804,
      "Ġà®ħà®Łà®Ļ": 805,
      "à®²à®¸": 806,
      "à®¤à®©à®®": 807,
      "à®µà®²à®°": 808,
      "Ġà®ªà®¯à®£à®®": 809,
      "re": 810,
      "Ġà®ĩà®¯à®²": 811,
      "Ġà®Ĩà®¸": 812,
      "it": 813,
      "à®°à®´": 814,
      "ĠH": 815,
      "Ġà®ªà®´à®Ļ": 816,
      "à®ķà®¨": 817,
      "Ġà®ľà®ª": 818,
      "at": 819,
      "Ġà®Ĩà®ªà®¤": 820,
      "Ġ24": 821,
      "Ġà®īà®Łà®²": 822,
      "Ġà®ħà®ķà®±": 823,
      "Ġà®ļà®²": 824,
      "il": 825,
      "à®µà®Ļ": 826,
      "à®ªà®°à®ª": 827,
      "Ġà®ľà®©à®µà®°": 828,
      "ic": 829,
      "à®°à®³": 830,
      "à®®à®Ļ": 831,
      "Ġà®¤à®ª": 832,
      "Ġà®¨à®²à®¤": 833,
      "Ġà®Ĵà®³": 834,
      "Ġ17": 835,
      "Ġà®ħà®ŀ": 836,
      "Ġ100": 837,
      "Ġà®ħà®µà®³": 838,
      "Ġà®¨à®ªà®°": 839,
      "à®·à®°": 840,
      "Ġà®°à®ļ": 841,
      "à®¨à®ķà®°": 842,
      "à®®à®³à®µ": 843,
      "à®©à®²": 844,
      "Ġ16": 845,
      "Ġà®ªà®²à®°": 846,
      "Ġà®ĩà®®": 847,
      "à®µà®´": 848,
      "Ġà®¤à®³à®¤": 849,
      "Ġ,": 850,
      "à®³à®µà®°": 851,
      "à®ļà®¨": 852,
      "Ġà®īà®ª": 853,
      "tion": 854,
      "Ġà®¨à®µà®®": 855,
      "à¯ģ)": 856,
      "à®¤à®°à®®": 857,
      "om": 858,
      "Ġà®¹à®°": 859,
      "à¯į!": 860,
      "à¯ģ-": 861,
      "Ġ0": 862,
      "à®¿-": 863,
      "Ġà®ŀ": 864,
      "Ġà®¤à®°à®®": 865,
      "30": 866,
      "Ġ21": 867,
      "ĠE": 868,
      "à®©à®Ł": 869,
      "Ġà®ĩà®ķ": 870,
      "17": 871,
      "à®ļà®Ł": 872,
      "Ġà®ļà®°à®ķ": 873,
      "à®ªà®¤à®©": 874,
      "Ġà®®à®ķà®³": 875,
      "50": 876,
      "Ġà®Ĩà®´": 877,
      "ĠW": 878,
      "ĠU": 879,
      "ou": 880,
      "à®·à®¯à®Ļ": 881,
      "à®³à®Łà®ķ": 882,
      "à®¾-": 883,
      "à®Łà®©à®®": 884,
      "Ġà®ļà®ķà®²": 885,
      "Ġà®ªà®°à®µà®²": 886,
      "Ġà®®à®©à®¤": 887,
      "Ġà®ªà®²à®©": 888,
      "Ġ198": 889,
      "Ġà®Ĵà®²": 890,
      "Ġà®Ĩà®ķà®¸": 891,
      "Ġà®Ĭà®Łà®ķà®Ļ": 892,
      "à®¤à®ķà®¤": 893,
      "Ġà®īà®²à®ķà®¤": 894,
      "Ġà®¨à®®à®ķ": 895,
      "as": 896,
      "am": 897,
      "ww": 898,
      "à®Ĵà®°": 899,
      "Ġà®ªà®ŀ": 900,
      "Ġà®ħà®Łà®ķ": 901,
      "Ġà®ĩà®´à®ª": 902,
      "Ġà®®à®ļ": 903,
      "th": 904,
      "à®ªà®³": 905,
      "à®ľà®ªà®ķ": 906,
      "ol": 907,
      "Ġà®ĩà®°à®¤": 908,
      "Ġà®ľà®®": 909,
      "Ġà®ĩà®°à®Ł": 910,
      "Ġ:": 911,
      "Ġà®Ĵà®±": 912,
      "à®ªà®Łà®®": 913,
      "à®°à®£à®¤": 914,
      "à®Łà®ļ": 915,
      "Ġà®īà®©à®ķ": 916,
      "à®´à®ª": 917,
      "Ġà®ªà®£à®®": 918,
      "à®µà®³à®µ": 919,
      "Ġà®ªà®Łà®ª": 920,
      "à®¨à®Ł": 921,
      "Ġà®ĩà®¯à®Ļ": 922,
      "à®°à®µà®°": 923,
      "à®ªà®µà®Ļ": 924,
      "Ġ40": 925,
      "Ġà®ĩà®±à®ķ": 926,
      "à®¯à®ķà®¤": 927,
      "Ġà®Łà®©": 928,
      "ad": 929,
      "à®¤à®°à®¤": 930,
      "à®µà®³": 931,
      "Ġà®īà®²à®ķà®ª": 932,
      "\">": 933,
      "ter": 934,
      "ĠO": 935,
      "Ġ31": 936,
      "à®İà®²": 937,
      "Ġà®¨à®ķà®°à®¤": 938,
      "Ġà®ªà®°à®µ": 939,
      "à®ªà®Łà®ķ": 940,
      "ation": 941,
      "Ġà®¤à®³à®®": 942,
      "à®¿)": 943,
      "à¯ģ.\"": 944,
      "ri": 945,
      "à®®à®£": 946,
      "2018": 947,
      "Ġ22": 948,
      "à®ľà®¯": 949,
      "Ġà®ħà®®à®°": 950,
      "à®°à®¨": 951,
      "Ġà®ħà®µà®ļà®°": 952,
      "Ġà®ĩà®´à®¨": 953,
      "à¯įâĢĻ": 954,
      "Ġà®¤à®©à®ķ": 955,
      "à®©à®ķ": 956,
      "à®±à®µà®©": 957,
      "Ġ202": 958,
      "Ġà®ªà®¯à®£à®¤": 959,
      "Ġà®ħà®°à®Ļ": 960,
      "à®ħà®®": 961,
      "à®µà®£": 962,
      "of": 963,
      "``": 964,
      "à®£à®µ": 965,
      "Ġà®°à®¤": 966,
      "à®µà®°à®®": 967,
      "à¯ĩà®¾,": 968,
      "ĠK": 969,
      "à®·à®®": 970,
      "and": 971,
      "ĠJ": 972,
      "à®¤à®³": 973,
      "te": 974,
      "Ġà®ļà®£": 975,
      "le": 976,
      "Ġà®µà®³à®®": 977,
      "Ġà®¨à®Łà®ª": 978,
      "Ġ2016": 979,
      "Ġà®İà®µà®°": 980,
      "à¯ģ''": 981,
      "à®³à®²": 982,
      "Ġà®¤à®³à®ªà®¤": 983,
      "Ġà®Ĩà®´à®®": 984,
      "à®°à®£à®Ļ": 985,
      "di": 986,
      "Ġ26": 987,
      "à®ªà®Łà®²": 988,
      "Ġ60": 989,
      "Ġà®ĩà®³à®®": 990,
      "à®µà®°à®ª": 991,
      "Ġ--": 992,
      "à®ĵ": 993,
      "à®ļà®ķà®°": 994,
      "Ġ197": 995,
      "à®¤à®°à®°": 996,
      "10": 997,
      "Ġà®®à®ķà®¤": 998,
      "ce": 999,
      "Ġà®ªà®²à®®": 1000,
      "Ġ23": 1001,
      "ing": 1002,
      "ig": 1003,
      "et": 1004,
      "à®¤à®´": 1005,
      "Ġà®ĩà®±à®Ļ": 1006,
      "Ġ28": 1007,
      "Ġà®¤à®°à®¤": 1008,
      "à®¤à®³à®¤": 1009,
      "un": 1010,
      "Ġà®ķà®µà®©": 1011,
      "us": 1012,
      "Ġà®¨à®¤": 1013,
      "à®ħà®¤": 1014,
      "Ġà®ĥà®ª": 1015,
      "Ġà®ªà®°à®ª": 1016,
      "Ġà®ķà®µà®©à®¤": 1017,
      "Ġà®¤à®¤": 1018,
      "Ġà®¤à®ļ": 1019,
      "Ġà®ķà®©à®µ": 1020,
      "à®¯à®²à®®": 1021,
      "ur": 1022,
      "à®¾'": 1023,
      "à®®à®¨": 1024,
      "à®±à®µà®±": 1025,
      "à®ļà®¯à®®": 1026,
      "Ġ27": 1027,
      "Ġà®°à®ľ": 1028,
      "à®ķà®©à®Ļ": 1029,
      "à®Ī": 1030,
      "à®¤à®¤à®±": 1031,
      "Ġof": 1032,
      "Ġà®īà®®à®¤": 1033,
      "à¯ĩà®¾.": 1034,
      "Ġà®ĩà®°à®µ": 1035,
      "Ġà®ļà®©": 1036,
      "à®¤à®µà®©": 1037,
      "Ġà®īà®ķ": 1038,
      "Ġà®Ĭà®´à®²": 1039,
      "à®£à®©": 1040,
      "à®¯à®ķà®®": 1041,
      "Ġà®¤à®ķà®ª": 1042,
      "ent": 1043,
      "Ġà®µà®³à®Ļ": 1044,
      "à®ļà®µ": 1045,
      "à®ªà®µà®®": 1046,
      "à®´à®°": 1047,
      "Ġà®ķà®Łà®®": 1048,
      "à®¯à®²à®°": 1049,
      "à®ĩà®¤": 1050,
      "à®°à®¯": 1051,
      "ĠIn": 1052,
      "Ġà®®à®ķà®©": 1053,
      "Ġà®ªà®°à®¸": 1054,
      "à®¤à®°à®Ļ": 1055,
      "ed": 1056,
      "Ġà®Ĩà®¨": 1057,
      "à®ħà®°à®ļ": 1058,
      "à®ªà®ļ": 1059,
      "Ġà®ıà®µ": 1060,
      "à®Łà®£à®¤": 1061,
      "à®²à®¨": 1062,
      "os": 1063,
      "Ġ&": 1064,
      "11": 1065,
      "Ġà®ķà®Łà®¤": 1066,
      "Ġà®İà®©à®ª": 1067,
      "Ġà®ķà®Ļ": 1068,
      "à®£à®ķ": 1069,
      "Ġ29": 1070,
      "Ġà®ľà®©à®¤": 1071,
      "...": 1072,
      "Ġà®İà®®à®¤": 1073,
      "à®¤à®²à®®": 1074,
      "à®©à®°à®²": 1075,
      "à®®à®®": 1076,
      "Ġà®ªà®£à®¤": 1077,
      "Ġà®®à®Łà®Ļ": 1078,
      "Ġà®µà®°à®®": 1079,
      "im": 1080,
      "à¯ģ'": 1081,
      "à®µà®²à®ķ": 1082,
      "Ġ196": 1083,
      "ov": 1084,
      "à®¯à®¨": 1085,
      "Ġà®īà®³à®µ": 1086,
      "Ġà®īà®²à®ķà®³": 1087,
      "Ġà®ªà®²à®µ": 1088,
      "à®¨à®ªà®°": 1089,
      "à®²à®Ł": 1090,
      "à®±à®¤à®±": 1091,
      "à®Łà®¤à®±": 1092,
      "Ġf": 1093,
      "Ġà®ļà®±": 1094,
      "Ġà®Ĭà®°à®ķ": 1095,
      "Ġ<": 1096,
      "à®©à®¨": 1097,
      "à®ļà®©à®¤": 1098,
      "à®²à®ķà®Ł": 1099,
      "15": 1100,
      "Ġà®¤à®°à®µ": 1101,
      "ra": 1102,
      "Ġà®®à®´": 1103,
      "Ġà®ħà®¸": 1104,
      "Ġà®ĩà®°à®ķà®ļ": 1105,
      "200": 1106,
      "à¯Ģ.": 1107,
      "à®¤à®³à®®": 1108,
      "Ġà®ĩà®©à®µ": 1109,
      "Ġ70": 1110,
      "à®¯à®²à®ķà®®": 1111,
      "de": 1112,
      "à®ļà®©à®®": 1113,
      "Ġ2014": 1114,
      "Ġà®ħà®°à®ª": 1115,
      "à¯ģâĢĿ": 1116,
      "Ġà®ĩà®±à®¨": 1117,
      "à®ªà®µà®¤": 1118,
      "à®ªà®Łà®Ļ": 1119,
      "Ġà®ķà®µà®°": 1120,
      "Ġà®Ĩà®²à®¯à®¤": 1121,
      "Ġà®°à®µ": 1122,
      "à®·à®¯à®®": 1123,
      "Ġ2002": 1124,
      "Ġà®ªà®²à®¤": 1125,
      "16": 1126,
      "à®Łà®£à®Ļ": 1127,
      "à®ªà®¯à®Ļ": 1128,
      "Ġà®ħà®ķà®¤": 1129,
      "Ġs": 1130,
      "à®©à®©": 1131,
      "Ġà®¤à®ķà®°": 1132,
      "Ġà®īà®¨": 1133,
      "à®ķà®¤à®°": 1134,
      "à¯Į": 1135,
      "Ġà®ķà®®à®²": 1136,
      "12": 1137,
      "à®ªà®¯": 1138,
      "Ġà®¨à®ķà®°à®®": 1139,
      "à®ķà®µà®°": 1140,
      "à®¯à®¸": 1141,
      "Ġà®®à®°à®ª": 1142,
      "Ġà®µà®®": 1143,
      "Ġà®µà®°à®ª": 1144,
      "à¯Ī'": 1145,
      "à®ľà®¸": 1146,
      "Ġà®Ĭà®Łà®ķà®¤": 1147,
      "à®ªà®°à®®": 1148,
      "qu": 1149,
      "Ġà®ªà®´à®®": 1150,
      "à®µà®²à®ķà®¤": 1151,
      "Ġà®ķà®´à®ķà®®": 1152,
      "à®ĩà®²": 1153,
      "Ġà®ĩà®µà®©": 1154,
      "Ġà®ĩà®±à®ª": 1155,
      "à¯į),": 1156,
      "à®·à®¤": 1157,
      "2020": 1158,
      "em": 1159,
      "à®ĥ": 1160,
      "Ġà®ķà®ļ": 1161,
      "à®£à®±": 1162,
      "ers": 1163,
      "Ġà®ķà®´à®ķà®¤": 1164,
      "à®®à®¯à®®": 1165,
      "à®¯à®¤à®©": 1166,
      "à®¯à®ķà®©": 1167,
      "ang": 1168,
      "à¯Ī)": 1169,
      "à®ķà®´à®ķà®¤": 1170,
      "à¯Ī''": 1171,
      "Ġà®ħà®ľ": 1172,
      "Ġ75": 1173,
      "à®²à®ļ": 1174,
      "Ġà®ĩà®¯à®¨": 1175,
      "à®´à®±": 1176,
      "id": 1177,
      "à®°à®®à®³": 1178,
      "Ġ2000": 1179,
      "ag": 1180,
      "sp": 1181,
      "Ġ2003": 1182,
      "Ġà®īà®ªà®ķà®°": 1183,
      "à®·à®¯à®¤": 1184,
      "25": 1185,
      "à®ķà®Łà®²": 1186,
      "Ġ194": 1187,
      "ĠV": 1188,
      "Ġà®¨à®ļ": 1189,
      "à®Łà®µà®©": 1190,
      "Ġà®ªà®µ": 1191,
      "Ġ2015": 1192,
      "www": 1193,
      "à®¤à®¯": 1194,
      "Ġ35": 1195,
      "Ġ2004": 1196,
      "Ġà®·à®°": 1197,
      "Ġà®¤à®³à®Ļ": 1198,
      "à®¿\"": 1199,
      "à®Łà®²à®Ļ": 1200,
      "ht": 1201,
      "Ġà®°à®®": 1202,
      "21": 1203,
      "à®²à®³": 1204,
      "Ġà®ļà®®à®°à®ļ": 1205,
      "à®±à®Ł": 1206,
      "Ġà®ľà®µ": 1207,
      "à®µà®ļà®¤": 1208,
      "he": 1209,
      "Ġ80": 1210,
      "oc": 1211,
      "à®¯à®³à®µ": 1212,
      "à®ĩà®©": 1213,
      "Ġ2001": 1214,
      "à®¤à®ķà®°": 1215,
      "Ġà®ªà®Łà®ķ": 1216,
      "à®°à®µà®¤": 1217,
      "Ġ$": 1218,
      "à®Łà®²à®¤": 1219,
      "Ġà®Ĭà®°à®Łà®Ļ": 1220,
      "op": 1221,
      "à¯ĭ?": 1222,
      "à®¯à®¤à®±": 1223,
      "Ġ500": 1224,
      "Ġ2022": 1225,
      "Ġà®ĩà®°à®¯": 1226,
      "à®ļà®©à®Ļ": 1227,
      "à®¤à®©à®Ļ": 1228,
      "à®Łà®£à®®": 1229,
      "Ġà®ªà®¤à®ª": 1230,
      "Ġà®ªà®²à®ª": 1231,
      "14": 1232,
      "Ġà®ĩà®°à®Ļ": 1233,
      "Ġà®²à®£": 1234,
      "ont": 1235,
      "à®ħà®©": 1236,
      "Ġà®īà®ķà®¨": 1237,
      "ul": 1238,
      "à®¤à®³à®µ": 1239,
      "Ġà®ħà®´à®ķ": 1240,
      "ac": 1241,
      "à®ķà®ªà®Ł": 1242,
      "Ġà®ļà®®à®°": 1243,
      "à®°à®ķà®Łà®©à®®": 1244,
      "Ġ``": 1245,
      "Ġ[": 1246,
      "à®Łà®ķà®©": 1247,
      "à¯ģ?": 1248,
      "Ġà®®à®¹": 1249,
      "Ġà®ªà®¤à®Ł": 1250,
      "Ġ90": 1251,
      "Ġà®īà®°à®Ļ": 1252,
      "2017": 1253,
      "PA": 1254,
      "à®±à®°": 1255,
      "Ġ2007": 1256,
      "Ġà®µà®¸": 1257,
      "à¯į...": 1258,
      "05": 1259,
      "Ġà®¨à®©à®µ": 1260,
      "Ġà®ļà®®à®®": 1261,
      "ĠâĢĿ": 1262,
      "ay": 1263,
      "à®ķà®®à®¤": 1264,
      "Ġà®ļà®ŀ": 1265,
      "Ġà®Ĩà®¯à®¤": 1266,
      "Ġà®ľà®²": 1267,
      "à®¯à®®à®Ł": 1268,
      "2019": 1269,
      "ws": 1270,
      "à®²à®°à®ļ": 1271,
      "Ġ150": 1272,
      "à®ļà®ķà®Ļ": 1273,
      "à®ķà®´à®ķ": 1274,
      "à®µà®²à®ķà®Ļ": 1275,
      "ĠCh": 1276,
      "Ġà®Ĭà®Łà®ķà®®": 1277,
      "à®ķà®´à®ķà®®": 1278,
      "à®£à®®à®Ł": 1279,
      "Ġà®®à®©à®¨": 1280,
      "CR": 1281,
      "à®¤à®²à®¤": 1282,
      "Ġà®ħà®Łà®²": 1283,
      "à®®à®£à®®": 1284,
      "500": 1285,
      "tr": 1286,
      "IA": 1287,
      "Ġà®¤à®³à®°": 1288,
      "à®ķà®®à®³": 1289,
      "Ġ2006": 1290,
      "Ġà®īà®ªà®ķà®°à®£à®Ļ": 1291,
      "Ġ*": 1292,
      "Ġl": 1293,
      "ut": 1294,
      "ie": 1295,
      "à®¤à®°à®©": 1296,
      "Ġà®Ĩà®ķà®µ": 1297,
      "Ġà®Ĩà®¤à®°à®µà®³": 1298,
      "ĠĠ": 1299,
      "à®µà®µ": 1300,
      "PD": 1301,
      "à®ªà®ķà®¤": 1302,
      "ib": 1303,
      "Ġand": 1304,
      "Ġà®īà®®à®ķ": 1305,
      "03": 1306,
      "Ġà®İà®ŀ": 1307,
      "Ġà®Ĩà®Ļ": 1308,
      "ro": 1309,
      "ran": 1310,
      "à®¤à®¯à®¤": 1311,
      "Ġà®ªà®¨": 1312,
      "à®·à®µ": 1313,
      "à®¤à®°à®ķ": 1314,
      "Ġà®ªà®¯à®©à®Ł": 1315,
      "à®İà®¤": 1316,
      "Ġ1990": 1317,
      "Ġ195": 1318,
      "à®®à®ķà®©": 1319,
      "Ġà®Ĩà®µà®£à®Ļ": 1320,
      "à®ķà®´à®ķà®Ļ": 1321,
      "à®ªà®´": 1322,
      "Ġà®ªà®´à®ķ": 1323,
      "art": 1324,
      "à®±à®ŀ": 1325,
      "à®ħà®µà®°": 1326,
      "à®Łà®¯à®¤": 1327,
      "à®¤à®¤à®©": 1328,
      "Ġà®ļà®®à®¯à®®": 1329,
      "Ġà®ķà®Łà®µ": 1330,
      "Ġ2008": 1331,
      "à¯Ī-": 1332,
      "Ġà®İà®¯": 1333,
      "Ġà®īà®¯à®°à®Ł": 1334,
      "Ġ2005": 1335,
      "Ġà®ħà®±à®ķ": 1336,
      "à®Łà®¨": 1337,
      "Ġà®¤à®Łà®µ": 1338,
      "à¯Ģ-": 1339,
      "ĠZ": 1340,
      "à®¤à®¸": 1341,
      "à®ľà®®": 1342,
      "ab": 1343,
      "à®Łà®¤à®©": 1344,
      "Ġ45": 1345,
      "04": 1346,
      "ion": 1347,
      "à®¤à®©à®¤": 1348,
      "à®¤à®µà®³": 1349,
      "Ġà®ĩà®²à®Ł": 1350,
      "à®Ĩà®¯": 1351,
      "à®Īà®°": 1352,
      "um": 1353,
      "à®Łà®ªà®Ł": 1354,
      "à®ĩà®°": 1355,
      "ot": 1356,
      "à®ķà®¸": 1357,
      "à®®à®¤à®®": 1358,
      "24": 1359,
      "ec": 1360,
      "Ġà®ķà®¤à®µ": 1361,
      "Ġà®ıà®®": 1362,
      "à®ĥà®ķ": 1363,
      "Ġà®±": 1364,
      "à®²à®¯": 1365,
      "Ġà®ĩà®¤à®´": 1366,
      "Ġ300": 1367,
      "ir": 1368,
      "Ġà®ªà®¸": 1369,
      "13": 1370,
      "à®¨à®µ": 1371,
      "à®µà®°à®µ": 1372,
      "Ġ37": 1373,
      "ational": 1374,
      "Ġ.": 1375,
      "à¯ĩ;": 1376,
      "à¯į--": 1377,
      "Ã©": 1378,
      "Ġà®©": 1379,
      "Ġà®İà®ĥà®ķ": 1380,
      "à®¯à®£": 1381,
      "ĠLe": 1382,
      "----": 1383,
      "IB": 1384,
      "Ġà®ħà®µà®ļà®°à®ķ": 1385,
      "ard": 1386,
      "29": 1387,
      "à®Łà®®à®©": 1388,
      "à®ľà®ķ": 1389,
      "Ġwww": 1390,
      "Ġà®¨à®²à®®": 1391,
      "à¯į',": 1392,
      "ĠHe": 1393,
      "Ġ65": 1394,
      "ters": 1395,
      "à®Łà®©à®ª": 1396,
      "WS": 1397,
      "à®±à®ªà®Ł": 1398,
      "à®¯à®°à®Ļ": 1399,
      "à®Ĩà®µà®¤": 1400,
      "ine": 1401,
      "à®£à®²": 1402,
      "à®ķà®Łà®µà®©": 1403,
      "Ġà®ķà®©à®Ł": 1404,
      "23": 1405,
      "Ġà®ªà®¯à®ª": 1406,
      "ĠCP": 1407,
      "40": 1408,
      "Ġà®ĩà®²à®µà®ļ": 1409,
      "ist": 1410,
      "Ġà®µà®³à®¤": 1411,
      "ĠNe": 1412,
      "à®¿à¯į": 1413,
      "à®ªà®³à®®": 1414,
      "à¯į,\"": 1415,
      "à®°à®®à®ļ": 1416,
      "à®İà®ĥà®ª": 1417,
      "tic": 1418,
      "à¯Ī.\"": 1419,
      "Ġp": 1420,
      "Ġà®¤à®ķà®©": 1421,
      "à®¨à®®": 1422,
      "Ġà®ļà®°à®¤": 1423,
      "Ġà®®à®°à®£à®®": 1424,
      "Ġà®¹à®®": 1425,
      "60": 1426,
      "à®¤à®ķà®Ļ": 1427,
      "à®²à®µà®°": 1428,
      "CI": 1429,
      "à®İà®ª": 1430,
      "Ġà®ħà®ªà®°": 1431,
      "à®ªà®²à®ª": 1432,
      "ĠPS": 1433,
      "span": 1434,
      "à®µà®ķà®Ļ": 1435,
      "Ġà®Ĩà®µà®£à®®": 1436,
      "à®¹à®°": 1437,
      "ĠSt": 1438,
      "Ġà®®à®°à®£": 1439,
      "Ġà®®à®°à®£à®¤": 1440,
      "Ġà®ĩà®°à®ķ": 1441,
      "Ġ1980": 1442,
      "à¯ģ!": 1443,
      "à®©à®ªà®Ł": 1444,
      "à®ķà®³à®©": 1445,
      "Ġà®µà®¤": 1446,
      "Ġà®Ĩà®µà®°": 1447,
      "28": 1448,
      "à®¯à®¤à®³à®¤": 1449,
      "Ġà®Łà®ª": 1450,
      "Ġà®®à®©à®®": 1451,
      "Ġà®ıà®±à®¤": 1452,
      "à®ľà®¯à®ķ": 1453,
      "à®ķà®¯": 1454,
      "à®ªà®°à®Ļ": 1455,
      "ze": 1456,
      "à¯ĩ!": 1457,
      "Ġà®ļà®°à®£": 1458,
      "GT": 1459,
      "à®²à®±": 1460,
      "à¯Ī:": 1461,
      "ap": 1462,
      "à®µà®ļà®®": 1463,
      "Ġà®µà®¯à®²": 1464,
      "à®ļà®²à®ª": 1465,
      "Ġà®¤à®°à®Ļ": 1466,
      "Ġ33": 1467,
      "ow": 1468,
      "Ġà®¤à®ŀ": 1469,
      "Ġà®°à®ķ": 1470,
      "Ġà®ļà®®à®¯à®¤": 1471,
      "Ġà®İà®±": 1472,
      "ST": 1473,
      "font": 1474,
      "à®°à®ªà®²à®®": 1475,
      "Ġ400": 1476,
      "Ġà®®à®©à®ª": 1477,
      "06": 1478,
      "ĠCIA": 1479,
      "the": 1480,
      "EP": 1481,
      "ĠY": 1482,
      "Ġà®ªà®°à®®": 1483,
      "33": 1484,
      "à®Łà®¯à®®": 1485,
      "Ġc": 1486,
      "Ġà®ķà®·": 1487,
      "à®ķà®°à®¤": 1488,
      "Ġà®ħà®µà®¤": 1489,
      "à®²à®¤à®©à®¤": 1490,
      "à¯į\",": 1491,
      "Ġ1999": 1492,
      "Ġlang": 1493,
      "26": 1494,
      "la": 1495,
      "SA": 1496,
      ".\"": 1497,
      "09": 1498,
      "Ġà®²à®ķ": 1499,
      "à®©à®¸": 1500,
      "à®²à®£": 1501,
      "à®²à®ķà®ķ": 1502,
      "ĠPIB": 1503,
      "quar": 1504,
      "à®ķà®°à®©": 1505,
      "à®Łà®µà®£": 1506,
      "ity": 1507,
      "à®ħà®Ł": 1508,
      "07": 1509,
      "à®²à®µà®°à®®": 1510,
      "Ġà®ªà®¤à®ķ": 1511,
      "Ġà®ķà®µà®ļ": 1512,
      "Ġ36": 1513,
      "Ġà®ĩà®µà®°à®¤": 1514,
      "27": 1515,
      "Ġà®ªà®£à®µ": 1516,
      "omm": 1517,
      "dia": 1518,
      "ĠHead": 1519,
      "80": 1520,
      "Ġà®¤à®®à®ķ": 1521,
      "ĠRe": 1522,
      "ial": 1523,
      "à®ĩà®Łà®¤": 1524,
      "à®ķà®Łà®¨": 1525,
      "quarters": 1526,
      "ĠHeadquarters": 1527,
      "à®¤à®ķà®µà®²": 1528,
      "Ġà®®à®¯à®®": 1529,
      "Ġà®ªà®°à®¤": 1530,
      "org": 1531,
      "Ġà®¤à®ķà®©à®ªà®²": 1532,
      "Ġà®ħà®¯à®²": 1533,
      "à®©à®ļ": 1534,
      "ak": 1535,
      "à®©à®µà®©": 1536,
      "Ġà®¤à®´": 1537,
      "à®Łà®©à®¤": 1538,
      "DP": 1539,
      "ĠCGT": 1540,
      "ess": 1541,
      "ĠLCR": 1542,
      "iv": 1543,
      "Ġà®ħà®²à®Ļ": 1544,
      "Ġà®ªà®£à®ª": 1545,
      "ign": 1546,
      "à®±à®´": 1547,
      "à®ļà®¸": 1548,
      "Ġ34": 1549,
      "à®ļà®¯": 1550,
      "à®·à®Ļ": 1551,
      "ii": 1552,
      "Ġà®ķà®²à®ķ": 1553,
      "Ġ38": 1554,
      "Ġthe": 1555,
      "à®µà®³à®¤": 1556,
      "75": 1557,
      "ber": 1558,
      "Ġal": 1559,
      "22": 1560,
      "Ġà®µà®°à®ķ": 1561,
      "95": 1562,
      "Ġ48": 1563,
      "IC": 1564,
      "à®°à®ķà®¤": 1565,
      "Ġà®ĩà®©à®¤": 1566,
      ".)": 1567,
      "à®Łà®Ł": 1568,
      "Ġà®ıà®ļ": 1569,
      "Ġà®ķà®²à®Ļ": 1570,
      "Ġà®Ĳà®®": 1571,
      "à®ľà®¤à®¨": 1572,
      "à®°à®ªà®²": 1573,
      "TE": 1574,
      "ah": 1575,
      "nic": 1576,
      "à®²à®°à®Ļ": 1577,
      "Ġà®īà®°à®¤": 1578,
      "Ġà®ªà®£à®ķ": 1579,
      "ĠWS": 1580,
      "45": 1581,
      "à®³à®µà®©": 1582,
      "Ġà®Ĩà®µà®¤": 1583,
      "Ġà®ıà®Ł": 1584,
      "Ġà®ªà®¯à®¨": 1585,
      "ail": 1586,
      "à¯ģ),": 1587,
      "Ġà®Ĭà®±": 1588,
      "à®ħà®ª": 1589,
      "Ġ125": 1590,
      "ĠDe": 1591,
      "Ġfor": 1592,
      "les": 1593,
      "à®®à®¯": 1594,
      "à®Ĩà®ķ": 1595,
      "à¯ģ--": 1596,
      "à®±à®¨à®ķà®°": 1597,
      "Ġà®ĵà®°à®³à®µ": 1598,
      "35": 1599,
      "gov": 1600,
      "à®¤à®£": 1601,
      "à®£à®¯à®®": 1602,
      "à®ķà®Łà®µ": 1603,
      ").": 1604,
      "à®°à®ĥà®ª": 1605,
      "à®°à®®à®Ł": 1606,
      "97": 1607,
      "In": 1608,
      "Ġà®ħà®°à®£": 1609,
      "Ġà®Ĩà®¤à®²": 1610,
      "ĠWSWS": 1611,
      "à®Łà®µà®Ł": 1612,
      "à®ªà®£à®®": 1613,
      "Ġ2009": 1614,
      "ĠAl": 1615,
      "à®¾âĢĿ": 1616,
      "Ġà®ĩà®´à®ķ": 1617,
      "à®¿;": 1618,
      "à®ªà®¯à®©": 1619,
      "Ġà®ªà®ª": 1620,
      "Ġà®ħà®µà®ķ": 1621,
      "MP": 1622,
      "sch": 1623,
      "Ġà®İà®µà®©": 1624,
      "à®©à®ļà®°": 1625,
      "à®¨à®Łà®¤": 1626,
      "à®²à®µà®´": 1627,
      "à®ķà®Łà®©": 1628,
      "à®®à®¸": 1629,
      "à®·à®²": 1630,
      "à®°à®®à®¤": 1631,
      "à®ħà®²": 1632,
      "Ġà®®à®²à®°": 1633,
      "Ġà®®à®±à®¨": 1634,
      "Ġ32": 1635,
      "Ġ250": 1636,
      "od": 1637,
      "à®¤à®¯à®®": 1638,
      "Ġà®ªà®¯à®®": 1639,
      "Ġà®¨à®±": 1640,
      "à®°à®®à®£": 1641,
      "Ġà®Ĩà®©à®¨": 1642,
      "ia": 1643,
      "Ġà®¤à®°à®ķ": 1644,
      "Ġà®ħà®¤à®©à®¤": 1645,
      "ace": 1646,
      "Ġà®¤à®³à®µ": 1647,
      "Ġà®Ĳà®ļ": 1648,
      "à®¯à®µà®´": 1649,
      "all": 1650,
      "man": 1651,
      "à®Łà®²à®®": 1652,
      "Ġà®ķà®ļà®ª": 1653,
      "Ġà®¨à®Łà®®": 1654,
      "Ġà®īà®ľ": 1655,
      "à®ľà®¯à®®": 1656,
      "à®ªà®ķà®²": 1657,
      "à®³à®ļ": 1658,
      "à®³à®Łà®Ļ": 1659,
      "au": 1660,
      "Ġà®ħà®¯à®°": 1661,
      "Ġà®ĩà®£à®ķ": 1662,
      "Ġ1998": 1663,
      "tu": 1664,
      "Ġ)": 1665,
      "à®ķà®©à®¤": 1666,
      "à®¯à®¤à®°": 1667,
      "Ġà®Ĳà®¯": 1668,
      "end": 1669,
      "à®°à®®à®®": 1670,
      "à®¾)": 1671,
      "à®¯à®©à®®": 1672,
      "Ġà®ĵà®ª": 1673,
      "Ġ42": 1674,
      "Ġà®īà®ªà®¯": 1675,
      "Ġà®Ĩà®ļà®°": 1676,
      "Ġà®ļà®®à®¨": 1677,
      "31": 1678,
      "à®²à®¯à®¤": 1679,
      "Ġ1000": 1680,
      "Ġà®ªà®²à®ķ": 1681,
      "Ġà®µà®£à®ķ": 1682,
      "à¯ĩ'": 1683,
      "à®İà®ļ": 1684,
      "ill": 1685,
      "SP": 1686,
      "à®ķà®©à®®": 1687,
      "à®µà®¯à®¤": 1688,
      "Ġà®ªà®ķà®²": 1689,
      "Ġà®·à®Ļ": 1690,
      "70": 1691,
      "hi": 1692,
      "Ġ2013": 1693,
      "Ġ55": 1694,
      "Ġà®ħà®ķà®®à®¤": 1695,
      "à®¯à®®à®±": 1696,
      "Ġà®ªà®¯à®©à®³": 1697,
      "à®ķà®²à®®": 1698,
      "à®ªà®µà®©": 1699,
      "à®¯à®¤à®³à®®": 1700,
      "Ġà®Ĳà®¸": 1701,
      "Ġà®ħà®¹": 1702,
      "01": 1703,
      "à¯ĪâĢĿ": 1704,
      "à®¯à®ļà®ķ": 1705,
      "st": 1706,
      "à®¯à®µà®©": 1707,
      "à®¤à®µà®±": 1708,
      "à®ĩà®ª": 1709,
      "Ġà®īà®¯à®°à®¤": 1710,
      "our": 1711,
      "à®İà®Ļ": 1712,
      "à®³à®®à®¯à®®": 1713,
      "</": 1714,
      "DU": 1715,
      "à®Łà®©à®Ļ": 1716,
      "44": 1717,
      "EA": 1718,
      "à®ªà®³à®¤": 1719,
      "Ġà®µà®°à®¤": 1720,
      "à®¯à®ķà®ª": 1721,
      "à®ªà®Łà®ª": 1722,
      "à®īà®²à®ķ": 1723,
      "ĠâĢĺâĢĻ": 1724,
      "Ġà®µà®ļà®©à®®": 1725,
      "BC": 1726,
      "à®©à®ŀ": 1727,
      "Ġà®°à®ª": 1728,
      "Ġ1991": 1729,
      "Ġ1970": 1730,
      "à¯į(": 1731,
      "Ġà®ħà®ķà®°": 1732,
      "99": 1733,
      "Ġà®ķà®£à®µà®°": 1734,
      "Ġà®īà®¯à®°à®®": 1735,
      "85": 1736,
      "Ġh": 1737,
      "Ġà®®à®Ļ": 1738,
      "Ġà®¨à®¯à®©": 1739,
      "to": 1740,
      "Ġà®ªà®°à®ªà®°à®ª": 1741,
      "à®ľà®©à®¨": 1742,
      "à®īà®±": 1743,
      "TA": 1744,
      "à®©à®±": 1745,
      "GB": 1746,
      "à¯ģâĢĻ": 1747,
      "Ġà®ħà®µà®°à®µà®°": 1748,
      "Ġ2010": 1749,
      "Ġ600": 1750,
      "AS": 1751,
      "ach": 1752,
      "âĢĮ": 1753,
      "ĠSEP": 1754,
      "tern": 1755,
      "08": 1756,
      "av": 1757,
      "ne": 1758,
      "Ġà®īà®ªà®¤": 1759,
      "à®ķà®µà®ļà®Ļ": 1760,
      "ell": 1761,
      "ment": 1762,
      "Ġin": 1763,
      "ank": 1764,
      "ork": 1765,
      "à®®à®ļ": 1766,
      "Ġà®ıà®²": 1767,
      "Ġà®®à®°à®ªà®£": 1768,
      "ate": 1769,
      "38": 1770,
      "JP": 1771,
      "se": 1772,
      "à¯į....": 1773,
      "à®ľà®©à®Ļ": 1774,
      "Ġà®¤à®µà®£": 1775,
      "ĠUn": 1776,
      "à®¾âĢĻ": 1777,
      "ĠFran": 1778,
      "og": 1779,
      "Ġà®ĩà®°à®ļ": 1780,
      "Ġ39": 1781,
      "à¯į\".": 1782,
      "Ġ130": 1783,
      "36": 1784,
      "ize": 1785,
      "Ġd": 1786,
      "Ġà®µà®¯": 1787,
      "Ġà®¨à®·": 1788,
      "à®´à®Ļ": 1789,
      "ub": 1790,
      "ue": 1791,
      "Ġb": 1792,
      "à®ķà®ľ": 1793,
      "Ġà®ķà®©à®®": 1794,
      "à®Łà®®à®³": 1795,
      "à®°à®®à®©": 1796,
      "à®²à®¤à®©à®®": 1797,
      "CF": 1798,
      "à®°à®·": 1799,
      "à®ļà®¤à®µ": 1800,
      "Ġà®ĩà®²à®µà®ļà®®": 1801,
      "IF": 1802,
      "à®ķà®µà®©": 1803,
      "à®¯à®µà®¨": 1804,
      "à®´à®ķà®¤": 1805,
      "à®ķà®®à®±": 1806,
      "Ġà®¯à®¤": 1807,
      "NA": 1808,
      "à®ķà®³à®ª": 1809,
      "Ġà®®à®°à®Ļ": 1810,
      "Ġà®Ĩà®ĥà®ª": 1811,
      "Ġà®ªà®²à®µà®±": 1812,
      "à®¿.)": 1813,
      "Ġà®ĩà®£à®Ļ": 1814,
      "oun": 1815,
      "Ġà®Ĩà®·": 1816,
      "thers": 1817,
      "imes": 1818,
      "ean": 1819,
      "à®Ĭ": 1820,
      "à®ªà®¸": 1821,
      "Ġà®ªà®µà®©": 1822,
      "Ġà®ķà®³à®¤": 1823,
      "Ġà®Ĩà®©à®¤": 1824,
      "Ġà®Īà®ļ": 1825,
      "à®ħà®¨": 1826,
      "à®īà®³": 1827,
      "47": 1828,
      "à®µà®°à®©": 1829,
      "Ġà®ªà®±à®µ": 1830,
      "Ġà®ľà®©à®®": 1831,
      "ĠComm": 1832,
      "ai": 1833,
      "à®ªà®©à®¤": 1834,
      "Ġà®¤à®¯à®ķ": 1835,
      "Ġà®īà®²à®ķà®³à®µ": 1836,
      "02": 1837,
      "ob": 1838,
      "à®¾:": 1839,
      "à®ķà®Łà®µà®°": 1840,
      "à®ĩà®¸": 1841,
      "MA": 1842,
      "ff": 1843,
      "Ġw": 1844,
      "Ġm": 1845,
      "Ġà®ħà®²à®ķ": 1846,
      "ĠOthers": 1847,
      "EN": 1848,
      "ich": 1849,
      "Ġ49": 1850,
      "ĠSPD": 1851,
      "Ġà®µà®£à®Ļ": 1852,
      "37": 1853,
      "à®ķà®Łà®¤": 1854,
      "Ġà®¨à®ª": 1855,
      "....": 1856,
      "ĠAn": 1857,
      "100": 1858,
      "ian": 1859,
      "à®°à®¹": 1860,
      "à®²à®µà®°à®ª": 1861,
      "à®³à®±": 1862,
      "à®µà®ŀ": 1863,
      "à®ļà®ļ": 1864,
      "Ġà®¤à®¯à®µ": 1865,
      "à®¨à®²": 1866,
      "Ġà®¹à®Ł": 1867,
      "48": 1868,
      "DE": 1869,
      "Ġ1930": 1870,
      "à¯į``": 1871,
      "Ġà®Łà®ļ": 1872,
      "à®Ĳà®Ł": 1873,
      "Ġalign": 1874,
      "à®³à®©à®®": 1875,
      "57": 1876,
      "90": 1877,
      "II": 1878,
      "ram": 1879,
      "à®¤à®³à®Ļ": 1880,
      "à®°à®ªà®Ł": 1881,
      "à®²à®µà®±": 1882,
      "Ġ1995": 1883,
      "ĠUMP": 1884,
      "à¯įâĢĻâĢĻ": 1885,
      "à®ªà®ķà®®": 1886,
      "à®µà®²à®¤": 1887,
      "Ġà®®à®¤à®¤": 1888,
      "Ġà®®à®±à®ķ": 1889,
      "Ġà®ķà®Łà®ķ": 1890,
      "à®·à®ķ": 1891,
      "à®Ĩà®£": 1892,
      "à®°à®ķà®Łà®©à®ª": 1893,
      "ĠFor": 1894,
      "CP": 1895,
      "à®ļà®²à®ķ": 1896,
      "Ġà®ħà®²à®Ł": 1897,
      "Ġface": 1898,
      "EC": 1899,
      "ee": 1900,
      "à®¨à®®à®¤": 1901,
      "à®°à®®à®Ļ": 1902,
      "Ġà®ıà®±à®ķ": 1903,
      "pib": 1904,
      "Ġ47": 1905,
      "âĢĺ": 1906,
      "à®Ĳà®°": 1907,
      "ĠPr": 1908,
      "Ġ91": 1909,
      "uc": 1910,
      "à®Łà®¯à®Ļ": 1911,
      "Ġà®ķà®ľ": 1912,
      "Ġà®ıà®²à®®": 1913,
      "Ġà®ĵà®µ": 1914,
      "az": 1915,
      "à®°à®µà®®": 1916,
      "Ġà®ķà®¯": 1917,
      "Ġà®®à®®": 1918,
      "à®°à®®à®±": 1919,
      "à®ļà®®à®¯à®®": 1920,
      "Ġà®ªà®±à®ķ": 1921,
      "Ġà®ªà®±à®¨": 1922,
      "Ġ700": 1923,
      "à®Ĳà®ª": 1924,
      "39": 1925,
      "46": 1926,
      "à®µà®³à®®": 1927,
      "Ġà®ªà®Łà®µ": 1928,
      "Ġ46": 1929,
      "TTE": 1930,
      "à¯Ĩà®¾.": 1931,
      "à®¯à®®à®©à®®": 1932,
      "à®²à®¤à®©": 1933,
      "ond": 1934,
      "Ġ1989": 1935,
      "ight": 1936,
      "Ġà®ļà®®à®°à®ļà®®": 1937,
      "ĠNew": 1938,
      "Ġn": 1939,
      "à®¤à®©à®©": 1940,
      "à®ķà®Łà®µà®¤": 1941,
      "Ġà®¹à®©": 1942,
      "Ġà®¤à®°à®µà®°": 1943,
      "ĠAs": 1944,
      "ord": 1945,
      "Ġ1997": 1946,
      "tp": 1947,
      "à®°à®ŀ": 1948,
      "à®¯à®ķà®°": 1949,
      "Ġ2030": 1950,
      "Ġ58": 1951,
      "à®ħà®±": 1952,
      "ĠSch": 1953,
      "IS": 1954,
      "Ġà®Ĩà®µà®²": 1955,
      "Ġà®®à®©à®ļ": 1956,
      "à®īà®¤": 1957,
      "AR": 1958,
      "à®¿âĢĿ": 1959,
      "à®³à®ªà®Ł": 1960,
      "Ġà®ħà®ķà®ª": 1961,
      "Ġà®µà®Łà®®": 1962,
      "à®ŀà®©": 1963,
      "CS": 1964,
      "Ġà®ħà®¯": 1965,
      "Ġà®ļà®ļ": 1966,
      "Ġà®¨à®¨": 1967,
      "ĠMar": 1968,
      "ref": 1969,
      "eit": 1970,
      "pp": 1971,
      "ve": 1972,
      "à®¿''": 1973,
      "à®²à®ķà®®": 1974,
      "Ġà®ıà®ľ": 1975,
      "Ġ2011": 1976,
      "Ġà®īà®²à®ķà®ļ": 1977,
      "Ġ51": 1978,
      "ĠThe": 1979,
      "ys": 1980,
      "Ã¨": 1981,
      "à®®à®µ": 1982,
      "Ġà®µà®©à®¤": 1983,
      "Ġà®ıà®¨": 1984,
      "Ġà®İà®¤à®±": 1985,
      "//": 1986,
      "à®¿âĢĻ": 1987,
      "à®Łà®ķà®®": 1988,
      "Ġà®īà®¸": 1989,
      "à®¯à®°à®³à®µ": 1990,
      "---": 1991,
      "://": 1992,
      "à®Łà®ķà®¤": 1993,
      "à®ļà®£": 1994,
      "Ġà®°à®¹": 1995,
      "Ġà®°à®ķà®ļ": 1996,
      "ĠâĢ¢": 1997,
      "Ġ1960": 1998,
      "http": 1999,
      "34": 2000,
      "98": 2001,
      "oh": 2002,
      "à¯Ī!": 2003,
      "Ġà®İà®ľà®®": 2004,
      "est": 2005,
      "Ġsize": 2006,
      "Ġà®ĥ": 2007,
      "à®°à®°à®ļ": 2008,
      "à®®à®Łà®Ļ": 2009,
      "à®¯à®ķà®µ": 2010,
      "Ġ01": 2011,
      "77": 2012,
      "ain": 2013,
      "Ġà®®à®¤à®®": 2014,
      "à®´à®©à®©": 2015,
      "à®¯à®¤à®³": 2016,
      "ĠSh": 2017,
      "Ġ+": 2018,
      "Ġà®²à®Ļ": 2019,
      "Ġà®®à®°à®ķ": 2020,
      "à®ħà®°": 2021,
      "Ġ64": 2022,
      "ung": 2023,
      "Ġà®ıà®²à®¤": 2024,
      "ence": 2025,
      "iss": 2026,
      "Ġde": 2027,
      "à®®à®£à®¤": 2028,
      "Ġà®ĩà®©à®ª": 2029,
      "à®ļà®®à®Ł": 2030,
      "ans": 2031,
      "ĠSp": 2032,
      "Ġ800": 2033,
      "PP": 2034,
      "à®³à®¤à®±": 2035,
      "âĢľ": 2036,
      "Ġ85": 2037,
      "Ġà®Ĩà®µà®£à®¤": 2038,
      "à¯ĩ-": 2039,
      "Ġà®ħà®°à®®à®©": 2040,
      "à®´à®©": 2041,
      "à¯ĭ-": 2042,
      "à®°à®¤à®¤": 2043,
      "à®ľà®ª": 2044,
      "Ġà®ķà®²à®µ": 2045,
      "Ġà®ħà®µà®¨à®®": 2046,
      "à®Ĩà®©": 2047,
      "Ġ44": 2048,
      "Ġà®ļà®®à®©": 2049,
      "Ġ56": 2050,
      "Ġhref": 2051,
      "Ġà®ĩà®Łà®°": 2052,
      "Ġà®ĵà®ķ": 2053,
      "ort": 2054,
      "und": 2055,
      "91": 2056,
      "à®ªà®ķà®°à®®": 2057,
      "à®ļà®°à®ļ": 2058,
      "Ġà®īà®Łà®±": 2059,
      "IM": 2060,
      "Ġà®µà®©à®ª": 2061,
      "Ġà®ĩà®¯à®©": 2062,
      "Ġà®İà®ĥà®ª": 2063,
      "à¯į.)": 2064,
      "Ġà®ªà®°à®²": 2065,
      "à®µà®®à®´": 2066,
      "ĠĠĠĠ": 2067,
      "ID": 2068,
      "à¯į).": 2069,
      "Ġ2021": 2070,
      "ost": 2071,
      "ticles": 2072,
      "IR": 2073,
      "à®Łà®ªà®¤": 2074,
      "à®ªà®³à®µ": 2075,
      "à®¯à®ªà®Ł": 2076,
      "Ġà®īà®Łà®¨": 2077,
      "Ġà®ħà®µà®ļà®°à®®": 2078,
      "ack": 2079,
      "com": 2080,
      "han": 2081,
      "à¯ĩ?": 2082,
      "Ġà®ħà®©à®²": 2083,
      "Ġ2012": 2084,
      "sche": 2085,
      "ternational": 2086,
      "76": 2087,
      "à®ªà®°à®¤": 2088,
      "Ġà®ıà®ŀ": 2089,
      "à®¤à®®à®Ł": 2090,
      "Ġ120": 2091,
      "à®°à®£à®ª": 2092,
      "Ġ63": 2093,
      "articles": 2094,
      "ĠTimes": 2095,
      "96": 2096,
      "aw": 2097,
      "à®°à®ķà®Ļ": 2098,
      "à®µà®ķà®°": 2099,
      "Ġà®ıà®ķà®ª": 2100,
      "Ġà®ķà®´à®ķà®Ļ": 2101,
      "ĠBJP": 2102,
      "Ġà®Ĩà®µà®£à®®à®±": 2103,
      "56": 2104,
      "ud": 2105,
      "à®ªà®µà®±": 2106,
      "à¯ĪâĢĻ": 2107,
      "à¯ģ...": 2108,
      "à®·à®ª": 2109,
      "Ġà®¹à®µ": 2110,
      "à®īà®¤à®µ": 2111,
      "AC": 2112,
      "à¯į.''": 2113,
      "Ġ52": 2114,
      "à®·à®©à®²": 2115,
      "Ġà®ļà®®à®°à®ļà®¤": 2116,
      "à®Łà®µà®±": 2117,
      "Ġà®®à®°à®¤": 2118,
      "à¯ģ,\"": 2119,
      "Ġà®Łà®ľà®©": 2120,
      "eration": 2121,
      "à®¤à®ķà®ª": 2122,
      "à®¾!": 2123,
      "Ġà®®à®¯": 2124,
      "Ġà®¹à®ļ": 2125,
      "ant": 2126,
      "Ġ68": 2127,
      "Ġà®ħà®µà®ļà®°à®ļ": 2128,
      "Ġà®ļà®£à®²": 2129,
      "à®µà®³à®°": 2130,
      "à®ķà®³à®®": 2131,
      "Ġà®¤à®¯à®Ļ": 2132,
      "Ġ54": 2133,
      "arty": 2134,
      "CL": 2135,
      "à®²à®²": 2136,
      "Ġ43": 2137,
      "mer": 2138,
      "à¯į]": 2139,
      "à®Łà®°à®ļ": 2140,
      "Ġà®µà®©à®®": 2141,
      "à®¯à®®à®°": 2142,
      "Ġà®ĵà®ļ": 2143,
      "à®ĩà®²à®Ļ": 2144,
      "à®¿',": 2145,
      "CO": 2146,
      "PS": 2147,
      "ge": 2148,
      "ok": 2149,
      "à®°à®ľ": 2150,
      "à®¿!": 2151,
      "à®³à®¯à®®": 2152,
      "Ġà®¨à®ķà®²": 2153,
      "à¯į..": 2154,
      "Ġà®ĩà®¤à®¯à®¤": 2155,
      "Ġà®ĩà®©à®®": 2156,
      "à®Ĩà®ª": 2157,
      "Ġà®Ĭà®°à®ķà®ª": 2158,
      "88": 2159,
      "92": 2160,
      "à®Łà®¯à®ķ": 2161,
      "Ġà®Łà®¯à®¸": 2162,
      "Ġà®ĩà®³à®µà®°": 2163,
      "Ġ1996": 2164,
      "if": 2165,
      "ier": 2166,
      "Ġà®ĩà®ķà®´": 2167,
      "à®Łà®ķà®Ļ": 2168,
      "ĠâĢĻ": 2169,
      "Ġ74": 2170,
      "66": 2171,
      "DA": 2172,
      "à®°à®ļà®Ļ": 2173,
      "Ġà®ªà®²à®¤à®°à®ª": 2174,
      "à®Łà®µà®ļà®®": 2175,
      "PM": 2176,
      "sti": 2177,
      "à®³à®¸": 2178,
      "Ġà®ķà®¨": 2179,
      "Ġà®ķà®´à®ķ": 2180,
      "à¯į.'": 2181,
      "Ġà®ªà®¯à®©à®±": 2182,
      "à®ĩà®°à®£": 2183,
      "à®ħà®µ": 2184,
      "ĠAr": 2185,
      "ice": 2186,
      "wsws": 2187,
      "94": 2188,
      "uv": 2189,
      "à®ķà®²à®¤": 2190,
      "à®±à®ľ": 2191,
      "Ġà®µà®¤à®¨": 2192,
      "à®İà®¨": 2193,
      "erv": 2194,
      "Ġ67": 2195,
      "Ġà®µà®ļà®©à®¤": 2196,
      "ement": 2197,
      "har": 2198,
      "Ġà®ħà®µà®©à®µà®©": 2199,
      "à®Ĩà®Ł": 2200,
      "Ġ57": 2201,
      "ern": 2202,
      "ĠMon": 2203,
      "ass": 2204,
      "htm": 2205,
      "32": 2206,
      "AT": 2207,
      "ik": 2208,
      "à®¤à®Łà®Ļ": 2209,
      "Ġ41": 2210,
      "eral": 2211,
      "ĠGM": 2212,
      "ĠPSG": 2213,
      "à®Łà®¸": 2214,
      "à®¯à®°à®¤": 2215,
      "Ġà®ļà®®à®ļ": 2216,
      "Ġà®ļà®®à®ļà®®": 2217,
      "Ġà®ħà®µà®®à®¤": 2218,
      "Ġà®µà®°à®µà®´": 2219,
      "ĠLTTE": 2220,
      "Ġ1994": 2221,
      "ĠIndia": 2222,
      "ear": 2223,
      "à®¿.,": 2224,
      "Ġ62": 2225,
      "ĠSc": 2226,
      "ocial": 2227,
      "sk": 2228,
      "à®©à®¤à®²": 2229,
      "Ġà®ĩà®©à®Ļ": 2230,
      "Ġà®¹à®ľ": 2231,
      "ĠRo": 2232,
      "AW": 2233,
      "à®©à®µà®±": 2234,
      "Ġà®¨à®Łà®©à®®": 2235,
      "à®Łà®°à®ª": 2236,
      "à®ķà®²à®ª": 2237,
      "Ġà®ĩà®³à®¨": 2238,
      "ĠParty": 2239,
      "à¯ģ\",": 2240,
      "stitu": 2241,
      "55": 2242,
      "ER": 2243,
      "ph": 2244,
      "ty": 2245,
      "à®Łà®³à®µ": 2246,
      "à®ªà®²à®¤": 2247,
      "Ġà®İà®©à®¤à®°": 2248,
      "à®¯à®ķà®Ļ": 2249,
      "à®ªà®°à®©": 2250,
      "Ġà®Ĳà®İà®©": 2251,
      "à®ªà®©à®µ": 2252,
      "ĠPM": 2253,
      "ĠGu": 2254,
      "ĠQ": 2255,
      "à®ªà®©à®®": 2256,
      "à®®à®©à®¤": 2257,
      "Ġà®ķà®©à®°": 2258,
      "Ġà®®à®µ": 2259,
      "Ġà®ħà®µà®®": 2260,
      "à®¸à®²": 2261,
      "à®¯à®²à®±": 2262,
      "à®¨à®ķà®°à®Ļ": 2263,
      "ĠZeit": 2264,
      "Ã¼": 2265,
      "Ġà®¤à®Łà®Ļ": 2266,
      "Ġà®Ĳà®¯à®¤": 2267,
      "à®°à®ķà®Łà®©à®¤": 2268,
      "Ġà®ħà®ķà®²à®®": 2269,
      "ens": 2270,
      "Ġà®ªà®¯à®£à®Ļ": 2271,
      "Ġà®ļà®°à®£à®Ł": 2272,
      "NC": 2273,
      "for": 2274,
      "à®²à®µà®°à®¤": 2275,
      "Ġà®ķà®³à®®": 2276,
      "Ġà®ľà®ķ": 2277,
      "Ġà®¤à®²à®Ļ": 2278,
      "à¯į'.": 2279,
      "Ġ95": 2280,
      "Ġà®µà®ļà®¨": 2281,
      ")-": 2282,
      "à®²à®ķà®¤": 2283,
      "à®ľà®©à®®": 2284,
      "à®ľà®©à®ªà®²": 2285,
      "amil": 2286,
      "41": 2287,
      "67": 2288,
      "NP": 2289,
      "aul": 2290,
      "à®£à®ļ": 2291,
      "à®¤à®°à®ķà®¤": 2292,
      "Ġ73": 2293,
      "ĠAF": 2294,
      "à®Ĵà®µ": 2295,
      "eb": 2296,
      "à®³à®¯à®¤": 2297,
      "Ġà®ªà®®": 2298,
      "à®ļà®±": 2299,
      "Ġà®īà®Łà®®": 2300,
      "Ġ1993": 2301,
      "ĠNPA": 2302,
      "'s": 2303,
      "65": 2304,
      "à®ķà®Łà®®": 2305,
      "à®¯à®£à®©": 2306,
      "à®İà®£": 2307,
      "Ġ59": 2308,
      "ana": 2309,
      "à®Ĵà®¤": 2310,
      "ĠEn": 2311,
      "300": 2312,
      "ati": 2313,
      "odi": 2314,
      "Ġà®®à®ŀ": 2315,
      "Ġà®Ĩà®ļà®©à®Ļ": 2316,
      "à®°à®ļà®©": 2317,
      "Ġà®µà®´à®®": 2318,
      "Ġà®¤à®°à®¨": 2319,
      "Ġà®·à®ķ": 2320,
      "ĠPar": 2321,
      "à®īà®£": 2322,
      "ĠJean": 2323,
      "html": 2324,
      "Ġdi": 2325,
      "à®¤à®®à®±": 2326,
      "à®¤à®µà®ķ": 2327,
      "Ġà®ļà®®à®¯à®Ļ": 2328,
      "à®©à®®à®¯à®®": 2329,
      "à®īà®Ļ": 2330,
      "ĠCPM": 2331,
      "SS": 2332,
      "à®©à®ªà®²": 2333,
      "à®²à®¨à®Ł": 2334,
      "Ġà®¤à®Łà®®": 2335,
      "à¯į.âĢĿ": 2336,
      "Ġà®Ĩà®ķà®ķ": 2337,
      "Ġ1950": 2338,
      "86": 2339,
      "87": 2340,
      "DF": 2341,
      "cy": 2342,
      "à®°à®ķà®®": 2343,
      "à®µà®¸": 2344,
      "à®µà®ķà®®": 2345,
      "Ġà®ĩà®Łà®ª": 2346,
      "à®´à®µ": 2347,
      "à®¯à®®à®²": 2348,
      "Ġà®ķà®°à®Ļ": 2349,
      "Ġ53": 2350,
      "ĠMet": 2351,
      "SPD": 2352,
      "gel": 2353,
      "me": 2354,
      "à®µà®®à®±": 2355,
      "à®ĩà®Ł": 2356,
      "à®Ĩà®¤": 2357,
      "Ġ72": 2358,
      "ĠUPA": 2359,
      "Ġ1983": 2360,
      "Ġ1947": 2361,
      "ry": 2362,
      "Ġà®ªà®ķà®¤": 2363,
      "à®´à®¤": 2364,
      "Ġà®ľà®µà®Ł": 2365,
      "à®ľà®ļ": 2366,
      "Ġà®Ĳà®¤à®°": 2367,
      "Ġà®Īà®µ": 2368,
      "à®īà®°": 2369,
      "Ġà®µà®±à®Ł": 2370,
      "Ġ2025": 2371,
      "à®Łà®¯": 2372,
      "à®Łà®ķà®°": 2373,
      "Ġà®ªà®ķà®µ": 2374,
      "Ġà®µà®ŀ": 2375,
      "Ġà®µà®ļà®®": 2376,
      "à®£à®¯à®¤": 2377,
      "Ġà®ĵà®²": 2378,
      "ĠCon": 2379,
      "Ġ1992": 2380,
      "BI": 2381,
      "CDU": 2382,
      "à®¯à®´": 2383,
      "à®£à®Ł": 2384,
      "à®´à®ķà®®": 2385,
      "Ġà®īà®°à®®": 2386,
      "Ġà®®à®¤à®ļ": 2387,
      "Ġà®Ĳà®Ł": 2388,
      "Ġ61": 2389,
      "Ġà®ªà®¯à®£à®ļ": 2390,
      "ĠRes": 2391,
      "ash": 2392,
      "84": 2393,
      "Ġà®ħà®Łà®°": 2394,
      "Ġà®ĩà®²à®¤": 2395,
      "à®©à®°à®®": 2396,
      "Ġà®ħà®°à®ļà®°": 2397,
      "à®ķà®°à®Ļ": 2398,
      "à®ªà®©à®Ļ": 2399,
      "Ġà®ħà®ļà®Ł": 2400,
      "Ġto": 2401,
      "à®°à®±": 2402,
      "à®®à®ķà®³": 2403,
      "à®³à®³à®µ": 2404,
      "Ġà®ıà®ķà®®": 2405,
      "Ġà®Ĭà®ļ": 2406,
      "à®Ĩà®ļ": 2407,
      "82": 2408,
      "IT": 2409,
      "ton": 2410,
      "à¯Ī--": 2411,
      "Ġà®ķà®®à®°": 2412,
      "à¯ĭ!": 2413,
      "Ġà®ľà®°": 2414,
      "Ġà®Ĳà®ª": 2415,
      "ĠSte": 2416,
      "ĠIG": 2417,
      "à®ıà®ª": 2418,
      "Ã¨re": 2419,
      "Ġà®ĩà®³à®µà®°à®ļà®°": 2420,
      "==": 2421,
      "nb": 2422,
      "ris": 2423,
      "à®©à®¤à®®": 2424,
      "Ġà®ªà®¹": 2425,
      "à®ļà®³": 2426,
      "Ġà®īà®ªà®°": 2427,
      "Ġà®Ĵà®ļ": 2428,
      "Ġà®°à®ĥà®ª": 2429,
      "à®Ĩà®²": 2430,
      "Ġ66": 2431,
      "à¯ģ:-": 2432,
      "Ġ1948": 2433,
      "National": 2434,
      "ax": 2435,
      "io": 2436,
      "land": 2437,
      "ren": 2438,
      "à®¿?": 2439,
      "Ġà®ļà®Łà®²à®Ļ": 2440,
      "Ġà®²à®¤": 2441,
      "ĠIA": 2442,
      "ĠOuv": 2443,
      "stitute": 2444,
      "à¯įâĢĮ": 2445,
      "à®¯à®°à®®": 2446,
      "à®µà®ķà®¤": 2447,
      "à®µà®²à®®": 2448,
      "Ġà®®à®¤à®ķ": 2449,
      "Ġà®Ĳà®Ĳà®Ł": 2450,
      "anc": 2451,
      "ism": 2452,
      "ĠUN": 2453,
      "JU": 2454,
      "ct": 2455,
      "ler": 2456,
      "shtml": 2457,
      "à®¿),": 2458,
      "Ġà®Ĩà®ľà®°": 2459,
      "Ġà®¹à®Ļ": 2460,
      "à®ħà®ķ": 2461,
      "à®ħà®£": 2462,
      "ĠCDU": 2463,
      "ĠBo": 2464,
      "ust": 2465,
      "Ġà®®à®°à®£à®®à®Ł": 2466,
      "ĠOuvri": 2467,
      "59": 2468,
      "oy": 2469,
      "à®±à®³": 2470,
      "à®³à®¨": 2471,
      "arend": 2472,
      "Ġ98": 2473,
      "ĠBr": 2474,
      "à®¨à®Łà®µà®Ł": 2475,
      "à®ªà®¯à®£à®®": 2476,
      "à®¾;": 2477,
      "à®ªà®²à®®": 2478,
      "à¯Ī?": 2479,
      "à®¯à®ŀ": 2480,
      "à¯ĩ\"": 2481,
      "Ġà®Ĩà®ªà®°": 2482,
      "Ġà®Ĵà®¯": 2483,
      "à®²à®ķà®²": 2484,
      "à®±à®®à®Ł": 2485,
      "à®ªà®¨à®²à®¤": 2486,
      "ance": 2487,
      "ĠCol": 2488,
      "à¯įâĢĿ.": 2489,
      "ade": 2490,
      "42": 2491,
      "43": 2492,
      "400": 2493,
      "700": 2494,
      "ly": 2495,
      "ary": 2496,
      "ast": 2497,
      "ĠInternational": 2498,
      "ĠNews": 2499,
      "49": 2500,
      "vel": 2501,
      "Ġà®ħà®ªà®¤": 2502,
      "Ġ(\"": 2503,
      "Ġà®ķà®²à®ª": 2504,
      "Ġà®ķà®²à®ķà®®": 2505,
      "Ġà®ĵà®®à®©": 2506,
      "ĠCO": 2507,
      "STIF": 2508,
      "Ġà®ķà®µà®ļà®Ļ": 2509,
      "Ġà®ķà®©à®°à®ķ": 2510,
      "JUSTIF": 2511,
      "JUSTIFY": 2512,
      "ha": 2513,
      "up": 2514,
      "à®®à®¤à®ª": 2515,
      "Ġà®ªà®µà®²": 2516,
      "à®ļà®ªà®ķ": 2517,
      "à®£à®®à®²": 2518,
      "Ġà®ĩà®°à®¤à®Ļ": 2519,
      "à®Łà®°à®²": 2520,
      "Ġà®īà®¤à®Ł": 2521,
      "Ġ96": 2522,
      "Ġ99": 2523,
      "Ġà®ľà®µà®¹à®°": 2524,
      "nbsp": 2525,
      "89": 2526,
      "à®°à®ķà®°": 2527,
      "à®²à®®à®±": 2528,
      "Ġà®Ĭà®©à®®": 2529,
      "ater": 2530,
      "81": 2531,
      "con": 2532,
      "Ġà®ķà®°à®®": 2533,
      "à®µà®°à®²": 2534,
      "Ġà®Ĵà®ķ": 2535,
      "à®Łà®°à®µ": 2536,
      "Ġà®īà®¤à®¯": 2537,
      "ĠAb": 2538,
      "ĠEU": 2539,
      "ĠUAW": 2540,
      "ĠIAEA": 2541,
      "MS": 2542,
      "à®°à®ªà®°": 2543,
      "à®®à®¤à®¤": 2544,
      "à®²à®Łà®Ļ": 2545,
      "à®¤à®ķà®ķ": 2546,
      "Ġà®īà®²à®ķà®¨": 2547,
      "à®Ĳà®ļ": 2548,
      "Ġ1968": 2549,
      "ission": 2550,
      "Ġdir": 2551,
      "ev": 2552,
      "ois": 2553,
      "tamil": 2554,
      "à®±à®³à®µ": 2555,
      "Ġà®ªà®¯à®¤": 2556,
      "à®¨à®²à®©": 2557,
      "Ġà®ļà®Łà®Ļ": 2558,
      "à®ķà®®à®Ł": 2559,
      "Ġà®°à®Ł": 2560,
      "Ġà®ļà®®à®¯": 2561,
      "à®°à®£à®ªà®²": 2562,
      "Ġ77": 2563,
      "ong": 2564,
      "ĠLa": 2565,
      "ĠTh": 2566,
      "%)": 2567,
      "83": 2568,
      "ES": 2569,
      "RI": 2570,
      "Ġt": 2571,
      "à®Łà®Łà®Ļ": 2572,
      "à®±à®±": 2573,
      "à¯Ĩ.": 2574,
      "à®ľà®¯à®¤": 2575,
      "à®µà®Łà®ķ": 2576,
      "à®°à®ªà®²à®ª": 2577,
      "à®ħà®ļ": 2578,
      "ĠBBC": 2579,
      "ĠâĢĺâĢĺ": 2580,
      "ĠTr": 2581,
      "Ġ1971": 2582,
      "\")": 2583,
      "iti": 2584,
      "yn": 2585,
      "ĠX": 2586,
      "Ġa": 2587,
      "à®¾\"": 2588,
      "à®Łà®Łà®¤": 2589,
      "Ġà®®à®ķà®°": 2590,
      "Ġà®®à®°à®®": 2591,
      "à®ªà®¤à®ķ": 2592,
      "Ġà®ªà®²à®µà®ķ": 2593,
      "Ġà®ªà®¤à®±": 2594,
      "Ġ71": 2595,
      "ĠAg": 2596,
      "à®Ĵà®´": 2597,
      "Ġà®ļà®ķà®²à®µ": 2598,
      "ĠInstitute": 2599,
      "que": 2600,
      "ock": 2601,
      "utsche": 2602,
      "eg": 2603,
      "Ġv": 2604,
      "à®µà®©à®°": 2605,
      "à®¨à®ķà®°à®®": 2606,
      "Ġà®İà®®à®ķ": 2607,
      "Ġà®īà®·": 2608,
      "à¯Ģ,": 2609,
      "à®ªà®°à®¨": 2610,
      "à®İà®©à®¤": 2611,
      "2016": 2612,
      "à®ĵà®¯": 2613,
      "IG": 2614,
      "ip": 2615,
      "ire": 2616,
      "à®³à®©à®¤": 2617,
      "à®Łà®¤à®²": 2618,
      "à®¤à®²à®Ļ": 2619,
      "Ġà®ıà®¯": 2620,
      "à®¤à®ķà®Ł": 2621,
      "Ġà®¹à®ķ": 2622,
      "Ġà®Ĩà®°à®µ": 2623,
      "Ġà®īà®¤à®±": 2624,
      "ann": 2625,
      "Ġ76": 2626,
      "Ġ160": 2627,
      "Ġ1979": 2628,
      "FP": 2629,
      "Ġe": 2630,
      "à®ķà®³à®±": 2631,
      "Ġà®Ĵà®¸": 2632,
      "à®µà®©à®¨": 2633,
      "à®ĩà®Ļ": 2634,
      "ĠPT": 2635,
      "ĠPe": 2636,
      "à®Ĵà®©": 2637,
      "ĠEl": 2638,
      "oup": 2639,
      "utte": 2640,
      "ĠCommun": 2641,
      "CT": 2642,
      "ED": 2643,
      "IV": 2644,
      "à®¤à®Łà®¤": 2645,
      "à®µà®£à®Ļ": 2646,
      "à¯Ĥ,": 2647,
      "à®µà®°à®ķ": 2648,
      "à®°à®ļà®ª": 2649,
      "à®¤à®®à®¤": 2650,
      "à®²à®®à®©": 2651,
      "Ġà®īà®²à®ķà®ķ": 2652,
      "à®ħà®´": 2653,
      "ĠSocial": 2654,
      "ĠBl": 2655,
      "à®īà®¯": 2656,
      "Ġà®Ĩà®µà®£à®ª": 2657,
      "ĠII": 2658,
      "ĠGen": 2659,
      "ited": 2660,
      "emoc": 2661,
      "ĠZeitung": 2662,
      "600": 2663,
      "72": 2664,
      "79": 2665,
      "ood": 2666,
      "à®¯à®īà®¤à®µ": 2667,
      "Ġà®ħà®ľà®¯": 2668,
      "à¯ģ....": 2669,
      "Ġà®ķà®Łà®ª": 2670,
      "âĢ¢": 2671,
      "Ġà®Īà®ķ": 2672,
      "Ġà®®à®©à®Ļ": 2673,
      "Ġà®ĵà®®": 2674,
      "Ġà®ħà®°à®µ": 2675,
      "ĠCS": 2676,
      "omp": 2677,
      "64": 2678,
      "800": 2679,
      "ution": 2680,
      "à®²à®ļà®¨": 2681,
      "Ġà®®à®¤à®µ": 2682,
      "à®¸à®©": 2683,
      "Ġà®ļà®°à®µà®£": 2684,
      "Ġ78": 2685,
      "ĠPro": 2686,
      "Ġà®ħà®µà®ļà®°à®¤": 2687,
      "à®¾.)": 2688,
      "à®µà®´à®Ļ": 2689,
      "Ġ1956": 2690,
      "52": 2691,
      "ug": 2692,
      "Ġon": 2693,
      "à®¤à®ŀ": 2694,
      "à®°à®µà®©": 2695,
      "Ġà®µà®ļà®©à®Ļ": 2696,
      "Ġà®ĩà®³à®µ": 2697,
      "Ġà®¨à®°à®®": 2698,
      "Ġà®°à®ŀ": 2699,
      "Ġà®¤à®²à®®": 2700,
      "à®¯à®©à®Ļ": 2701,
      "Ġ-----": 2702,
      "Ġ450": 2703,
      "Ġ82": 2704,
      "à®īà®Łà®©": 2705,
      "Ġ1967": 2706,
      "à®ªà®´à®Ļ": 2707,
      "ĠMonde": 2708,
      "54": 2709,
      "HA": 2710,
      "uk": 2711,
      "à®²à®ľ": 2712,
      "Ġà®ĩà®·": 2713,
      "Ġà®Ĩà®Łà®®": 2714,
      "à¯ģ..": 2715,
      "à®ĩà®£": 2716,
      "ĠPCF": 2717,
      "ĠMan": 2718,
      "à¯įâĢĿ,": 2719,
      "à®¾?\"": 2720,
      "Ġà®ªà®²à®©à®³": 2721,
      "amp": 2722,
      "tem": 2723,
      "bert": 2724,
      "ltr": 2725,
      "à®±à®¯": 2726,
      "Ġà®ªà®¤à®©": 2727,
      "à®ķà®³à®°": 2728,
      "Ġà®Ĳà®µà®°": 2729,
      "Ġà®īà®£à®°à®ª": 2730,
      "à®¹à®©": 2731,
      "Ġ900": 2732,
      "à®Ĵà®¯": 2733,
      "ite": 2734,
      "ĠAFL": 2735,
      "DS": 2736,
      "The": 2737,
      "res": 2738,
      "Ġà®ķà®°à®¤": 2739,
      "à®¯à®©à®µ": 2740,
      "Ġ350": 2741,
      "à®ĩà®±": 2742,
      "ĠCor": 2743,
      "à®īà®²": 2744,
      "Ġ1988": 2745,
      "Ġ2024": 2746,
      "%-": 2747,
      "iz": 2748,
      "à®¨à®²à®®": 2749,
      "Ġà®¨à®Łà®©": 2750,
      "Ġà®°à®£": 2751,
      "62": 2752,
      "BS": 2753,
      "MF": 2754,
      "NS": 2755,
      "TM": 2756,
      "ix": 2757,
      "ric": 2758,
      "à®µà®¯à®®": 2759,
      "Ġà®®à®°à®£à®Ļ": 2760,
      "à®¨à®ķà®°à®¤": 2761,
      "à¯į.,": 2762,
      "à®ķà®µà®ļà®®": 2763,
      "à®¯à®®à®©à®¤": 2764,
      "à®ħà®³à®µ": 2765,
      "à®Ĳà®ķ": 2766,
      "ĠGe": 2767,
      "dian": 2768,
      "age": 2769,
      "ott": 2770,
      "iii": 2771,
      "Ġà®ħà®¹à®®à®¤": 2772,
      "meric": 2773,
      "bo": 2774,
      "Ġà®µà®µ": 2775,
      "à®·à®©à®°": 2776,
      "à®ļà®°à®ķà®¤": 2777,
      "Ġ5000": 2778,
      "ind": 2779,
      "ĠBank": 2780,
      "à¯į''.": 2781,
      "ĠFin": 2782,
      "CIO": 2783,
      "68": 2784,
      "73": 2785,
      "US": 2786,
      "af": 2787,
      "ies": 2788,
      "lic": 2789,
      "Ġà®¨à®³": 2790,
      "à®¤à®²à®°": 2791,
      "à®©à®¤à®±": 2792,
      "à¯ģ\".": 2793,
      "ĠDemoc": 2794,
      "Ġà®ĩà®¯à®²à®µ": 2795,
      "Ġ1981": 2796,
      "Ġ1964": 2797,
      "ĠMetall": 2798,
      "DR": 2799,
      "aj": 2800,
      "Ġ...": 2801,
      "à®ªà®´à®®": 2802,
      "à®¯à®©à®°": 2803,
      "Ġà®®à®¯à®ķ": 2804,
      "à¯ĭ'": 2805,
      "à®³à®°à®µà®®": 2806,
      "aro": 2807,
      "ĠLutte": 2808,
      "ĠNational": 2809,
      "2003": 2810,
      "India": 2811,
      "ĠOuvriÃ¨re": 2812,
      "âĢ¢âĢ¢": 2813,
      "61": 2814,
      "74": 2815,
      "FI": 2816,
      "Un": 2817,
      "mail": 2818,
      "à®³à®Ł": 2819,
      "Ġà®µà®©à®µ": 2820,
      "Ġà®ľà®²à®¤": 2821,
      "à®®à®°à®Ļ": 2822,
      "Ġà®ķà®°à®£": 2823,
      "à®ªà®£à®¤": 2824,
      "erg": 2825,
      "ĠCo": 2826,
      "ĠCoun": 2827,
      "ĠAS": 2828,
      "ĠAd": 2829,
      "olution": 2830,
      "Ġà®Ĩà®´à®®à®Ł": 2831,
      "iegel": 2832,
      "ohn": 2833,
      "arendram": 2834,
      "63": 2835,
      "AP": 2836,
      "pr": 2837,
      "à®©à®¯": 2838,
      "à®²à®ķà®µ": 2839,
      "à®²à®ªà®®": 2840,
      "Ġà®µà®Łà®ª": 2841,
      "à¯ĭ.": 2842,
      "Ġà®°à®®à®²": 2843,
      "à®ħà®´à®ķ": 2844,
      "à®ıà®±": 2845,
      "à¯į?\"": 2846,
      "ous": 2847,
      "Ġ1972": 2848,
      "DB": 2849,
      "DT": 2850,
      "Ġà®ķà®¸": 2851,
      "Ġà®ķà®¤à®°": 2852,
      "Ġà®ħà®²à®©": 2853,
      "à®İà®®à®¤": 2854,
      "à®Ĳà®İà®¸": 2855,
      "ath": 2856,
      "Ġ175": 2857,
      "Ġ02": 2858,
      "arendramodi": 2859,
      "Pr": 2860,
      "line": 2861,
      "oj": 2862,
      "we": 2863,
      "Ġà®µà®ľ": 2864,
      "à¯ģ.''": 2865,
      "Ġà®µà®°à®©": 2866,
      "Ġà®İà®¤à®©": 2867,
      "Ġà®ħà®³à®ª": 2868,
      "Ġà®ĩà®©à®µà®´": 2869,
      "Ġà®ĩà®Łà®Ĵà®¤": 2870,
      "à®ĩà®ļ": 2871,
      "à®ħà®Ļ": 2872,
      "ert": 2873,
      "ĠCF": 2874,
      "arn": 2875,
      "à®Ĳà®Ĩà®°": 2876,
      "à®īà®¯à®°": 2877,
      "Ġ140": 2878,
      "à®ļà®¯à®®à®±": 2879,
      "ĠRev": 2880,
      "Ġà®ĥà®ªà®¤": 2881,
      "à®ļà®°à®ļà®¤": 2882,
      "à®ļà®°à®ļà®®": 2883,
      "form": 2884,
      "ef": 2885,
      "ep": 2886,
      "à®®à®´": 2887,
      "à®µà®¹": 2888,
      "Ġà®¤à®ķà®Ł": 2889,
      "à®µà®°à®ļ": 2890,
      "à®¯à®²à®ķà®¤": 2891,
      "Ġà®¨à®Łà®µ": 2892,
      "à®ķà®µà®ļ": 2893,
      "à®µà®©à®ķ": 2894,
      "à®¯à®®à®¯à®®": 2895,
      "à®±à®©à®µ": 2896,
      "Ġà®Īà®¸": 2897,
      "Ġ3000": 2898,
      "Ġà®ĵà®µà®°": 2899,
      "Ġà®ħà®°à®µà®£": 2900,
      "Ġà®ĩà®µà®³": 2901,
      "à®Ĳà®ı": 2902,
      "Ġ87": 2903,
      "als": 2904,
      "ĠIMF": 2905,
      "à®Ĵà®Ł": 2906,
      "Ġ1987": 2907,
      "RS": 2908,
      "roup": 2909,
      "ts": 2910,
      "Ġà®ķà®ķ": 2911,
      "Ġà®ĩà®©à®ķ": 2912,
      "à®®à®²à®°": 2913,
      "à®Ĩà®µ": 2914,
      "Ġà®¨à®ķà®°à®ª": 2915,
      "ĠCent": 2916,
      "Ġà®ĩà®Łà®®à®³": 2917,
      "Ġ1982": 2918,
      "ĠCPI": 2919,
      "ĠAss": 2920,
      "71": 2921,
      "ME": 2922,
      "St": 2923,
      "rc": 2924,
      "ros": 2925,
      "uel": 2926,
      "ure": 2927,
      "à¯ģ----": 2928,
      "Ġà®®à®ľ": 2929,
      "Ġà®¨à®ľ": 2930,
      "Ġà®īà®²à®°": 2931,
      "à®°à®®à®¯à®®": 2932,
      "âĢĵ": 2933,
      "à®ķà®²à®©": 2934,
      "Ġà®¨à®²à®µ": 2935,
      "Ġà®ĵà®Ļ": 2936,
      "à¯į----": 2937,
      "Ġ69": 2938,
      "Ġ81": 2939,
      "Ġ92": 2940,
      "Ġ1500": 2941,
      "ĠLib": 2942,
      "à®¤à®±à®Ł": 2943,
      "Ġà®ĩà®®à®¯à®®à®²": 2944,
      "Ġà®Ĩà®´à®ª": 2945,
      "old": 2946,
      "ĠOr": 2947,
      "Ġ1978": 2948,
      "uss": 2949,
      "53": 2950,
      "58": 2951,
      "Ch": 2952,
      "VP": 2953,
      "ks": 2954,
      "mar": 2955,
      "à®ķà®ŀ": 2956,
      "à®¯à®ľ": 2957,
      "Ġà®ħà®ªà®ķà®°": 2958,
      "à®İà®°": 2959,
      "Ġà®¨à®²à®ļ": 2960,
      "Ġ750": 2961,
      "ĠPol": 2962,
      "Ġ89": 2963,
      "enn": 2964,
      "ĠIV": 2965,
      "Ġ115": 2966,
      "Ġà®Ĩà®´à®¤": 2967,
      "Ġ370": 2968,
      "ĠAll": 2969,
      "ey": 2970,
      "à®µà®´à®ķ": 2971,
      "Ġà®ķà®ŀ": 2972,
      "Ġà®ħà®ķà®©": 2973,
      "Ġà®Łà®®": 2974,
      "ĠPAS": 2975,
      "olog": 2976,
      "2005": 2977,
      "idth": 2978,
      "Ġwidth": 2979,
      "Ġà®ĩà®³à®µà®¯à®¤": 2980,
      "ĠDemocra": 2981,
      "IP": 2982,
      "OE": 2983,
      "PF": 2984,
      "ek": 2985,
      "à®ķà®Łà®Ļ": 2986,
      "à®¾...": 2987,
      "Ġà®ķà®³à®Ļ": 2988,
      "à®µà®¤à®Ļ": 2989,
      "Ġà®ļà®®à®ª": 2990,
      "Ġà®ļà®®à®¸": 2991,
      "Ġà®Ĳà®¯à®®": 2992,
      "Ġà®®à®©à®µ": 2993,
      "Ġà®ĵà®°à®Ļ": 2994,
      "à®ħà®¤à®©": 2995,
      "à®¹à®²": 2996,
      "Ġ84": 2997,
      "Ġ110": 2998,
      "ĠTran": 2999,
      "Ġ03": 3000,
      "ĠETA": 3001,
      "Ġ1940": 3002,
      "ĠSpiegel": 3003,
      "DC": 3004,
      "iel": 3005,
      "à®Łà®ļà®ª": 3006,
      "Ġà®®à®Łà®ķ": 3007,
      "Ġà®ħà®·": 3008,
      "Ġà®ħà®ķà®²": 3009,
      "à®£à®¯à®Ļ": 3010,
      "à¯ĩà®¾-": 3011,
      "Ġà®ķà®£à®µà®©": 3012,
      "Ġà®ħà®²à®±": 3013,
      "Ġà®¨à®²à®ª": 3014,
      "Ġà®ħà®°à®ĥà®ª": 3015,
      "à®©à®µà®³": 3016,
      "ĠBar": 3017,
      "ĠFre": 3018,
      "img": 3019,
      "Ġsrc": 3020,
      "Ġà®®à®°à®£à®¤à®£": 3021,
      "ower": 3022,
      "EAN": 3023,
      "à¯ģâĢĻâĢĻ": 3024,
      "earch": 3025,
      "Ġà®ļà®°à®µà®£à®©": 3026,
      "cil": 3027,
      "eed": 3028,
      "ld": 3029,
      "Ġg": 3030,
      "Ġà®®à®ķà®ª": 3031,
      "Ġà®ħà®ļà®²": 3032,
      "à®£à®µà®©": 3033,
      "Ġà®īà®ªà®µ": 3034,
      "à®¸à®°": 3035,
      "Ġà®µà®²à®¯à®¤": 3036,
      "à®İà®Ł": 3037,
      "à®¹à®®": 3038,
      "orn": 3039,
      "ĠFig": 3040,
      "ĠTe": 3041,
      "oci": 3042,
      "ect": 3043,
      ",\"": 3044,
      "ke": 3045,
      "sh": 3046,
      "à®¿(": 3047,
      "Ġà®ªà®Łà®°": 3048,
      "à®ļà®¯à®Ļ": 3049,
      "Ġà®ļà®¯": 3050,
      "à®µà®°à®°": 3051,
      "à®°à®¤à®°": 3052,
      "à®²à®ķà®Ļ": 3053,
      "Ġà®ªà®ķà®Ł": 3054,
      "à®ªà®²à®©": 3055,
      "Ġ86": 3056,
      "à®µà®¤à®©à®©": 3057,
      "ille": 3058,
      "ublic": 3059,
      "order": 3060,
      "conom": 3061,
      ".,": 3062,
      "78": 3063,
      "AI": 3064,
      "DL": 3065,
      "LA": 3066,
      "LO": 3067,
      "OK": 3068,
      "so": 3069,
      "Ġ;": 3070,
      "à®¤à®Łà®®": 3071,
      "à®°à®ķà®²": 3072,
      "Ġà®µà®°à®Ł": 3073,
      "à®±à®¤à®©": 3074,
      "à®¤à®°à®ķà®Ļ": 3075,
      "Ġà®Łà®°": 3076,
      "ĠPost": 3077,
      "eng": 3078,
      "ĠAmeric": 3079,
      "ory": 3080,
      "Ġà®Ĭà®Łà®ķà®ª": 3081,
      "Ġà®ķà®³à®ŀ": 3082,
      "à®ķà®¨à®²": 3083,
      "à¯į.....": 3084,
      "try": 3085,
      "ĠUnion": 3086,
      "ĠPress": 3087,
      "ancial": 3088,
      "ĠFigaro": 3089,
      "lin": 3090,
      "ya": 3091,
      "à¯į/": 3092,
      "à®¯à®¤à®²": 3093,
      "à¯ĩ:": 3094,
      "à®¨à®¤": 3095,
      "Ġà®ĩà®¤à®¯à®®": 3096,
      "à®µà®©à®ª": 3097,
      "Ġà®ķà®²à®µà®°à®¤": 3098,
      "à®¿.-": 3099,
      "Ġà®®à®£à®²": 3100,
      "à®İà®©à®ķ": 3101,
      "iste": 3102,
      "ical": 3103,
      "ĠWork": 3104,
      "à®¾',": 3105,
      "ĠInd": 3106,
      "ovid": 3107,
      "à®ªà®¯à®£à®¤": 3108,
      "Ġ1949": 3109,
      "velop": 3110,
      "IN": 3111,
      "Ne": 3112,
      "RE": 3113,
      "co": 3114,
      "à®¤à®Łà®µ": 3115,
      "Ġà®ķà®³à®ª": 3116,
      "à®ļà®²à®®": 3117,
      "à®ªà®¤à®µ": 3118,
      "à®ľà®²": 3119,
      "à®ªà®°à®²": 3120,
      "à®µà®²à®Ļ": 3121,
      "à®±à®µà®³": 3122,
      "ĠPh": 3123,
      "Ġ88": 3124,
      "ency": 3125,
      "ĠMin": 3126,
      "Ġà®Ĭà®Łà®ķà®µ": 3127,
      "ĠFBI": 3128,
      "ish": 3129,
      "olf": 3130,
      "rial": 3131,
      "ĠJos": 3132,
      "Ġ1945": 3133,
      "Ġ1953": 3134,
      "tyle": 3135,
      "\",": 3136,
      "51": 3137,
      "LM": 3138,
      "net": 3139,
      "Ġà¯į": 3140,
      "à®ªà®ŀ": 3141,
      "à®µà®¯": 3142,
      "Ġà®ªà®ľ": 3143,
      "Ġà®®à®¸": 3144,
      "Ġà®ļà®ªà®°": 3145,
      "Ġà®ªà®£à®®à®¤": 3146,
      "à®ĩà®µ": 3147,
      "Ġà®Ĩà®²à®¯à®®": 3148,
      "ĠCN": 3149,
      "ĠTel": 3150,
      "ith": 3151,
      "ĠES": 3152,
      "Ġstyle": 3153,
      "ĠYork": 3154,
      "ĠResearch": 3155,
      "ĠPASOK": 3156,
      "93": 3157,
      "AM": 3158,
      "CC": 3159,
      "VID": 3160,
      "à®ķà®ķà®³": 3161,
      "à®²à®µà®©": 3162,
      "à®ļà®ŀ": 3163,
      "à®ļà®µà®°à®®": 3164,
      "Ġà®ħà®Łà®®": 3165,
      "à®¨à®²à®¤": 3166,
      "à¯į,âĢĿ": 3167,
      "à®µà®¤à®²": 3168,
      "à®°à®¤à®ª": 3169,
      "à®°à®®à®ª": 3170,
      "à®¤à®°à®ķà®®": 3171,
      "Ġà®ħà®©à®¨": 3172,
      "ĠSec": 3173,
      "ĠSee": 3174,
      "ina": 3175,
      "Ġ83": 3176,
      "Ġ97": 3177,
      "ĠTra": 3178,
      "ĠGl": 3179,
      "ital": 3180,
      "iew": 3181,
      "anka": 3182,
      "69": 3183,
      "SSP": 3184,
      "ker": 3185,
      "Ġr": 3186,
      "à®®à®¯à®µ": 3187,
      "Ġà®ªà®¯à®ķ": 3188,
      "Ġà®ħà®ļà®°": 3189,
      "à®¨à®¨": 3190,
      "Ġà®īà®µà®®": 3191,
      "à®µà®¤à®¤": 3192,
      "à®¤à®°à®ķà®°": 3193,
      "Ġà®Łà®ķ": 3194,
      "ere": 3195,
      "are": 3196,
      "à®Ĵà®ª": 3197,
      "Ġà®īà®²à®ķà®®à®¯à®®": 3198,
      "à¯ģ).": 3199,
      "Ġ09": 3200,
      "Ġ1984": 3201,
      "ĠOp": 3202,
      "rib": 3203,
      "Ġ1977": 3204,
      "urg": 3205,
      "à¯ģ',": 3206,
      "aire": 3207,
      "Ġnarendramodi": 3208,
      "CSU": 3209,
      "ĠTrans": 3210,
      "An": 3211,
      "EF": 3212,
      "ide": 3213,
      "mp": 3214,
      "à®±à®µà®ķ": 3215,
      "Ġà®µà®ļà®©": 3216,
      "Ġà®ļà®¯à®©": 3217,
      "à®ªà®¤à®®": 3218,
      "à®·à®£": 3219,
      "Ġà®ĩà®²à®ļ": 3220,
      "Ġ550": 3221,
      "ĠMc": 3222,
      "ĠMich": 3223,
      "ĠDie": 3224,
      "Ġà®¨à®ķà®°à®ļà®ª": 3225,
      "ome": 3226,
      "ĠEconom": 3227,
      "Ġ1962": 3228,
      "2004": 3229,
      "Ġà®µà®°à®¤à®Ł": 3230,
      "ĠFrance": 3231,
      "Ġà®ķà®©à®®à®´": 3232,
      "ystem": 3233,
      "ĠFinancial": 3234,
      "velopment": 3235,
      "ft": 3236,
      "à®¨à®ķ": 3237,
      "à®¨à®Łà®ª": 3238,
      "à®ķà®®à®²": 3239,
      "à®©à®°à®ŀ": 3240,
      "Ġà®ĩà®¤à®¯à®Ļ": 3241,
      "Ġà®ħà®±à®¨": 3242,
      "à®ļà®°à®ķ": 3243,
      "Ġà®ķà®²à®µà®°à®Ļ": 3244,
      "à®ļà®®à®ļà®®": 3245,
      "à¯į---": 3246,
      "Ġ----": 3247,
      "Ġ94": 3248,
      "ĠAc": 3249,
      "à¯Ī\",": 3250,
      "ĠIs": 3251,
      "ĠDi": 3252,
      "Ġ180": 3253,
      "oman": 3254,
      "ĠEx": 3255,
      "une": 3256,
      "à®Īà®Ł": 3257,
      "berg": 3258,
      "Ġborder": 3259,
      "ology": 3260,
      "NG": 3261,
      "SE": 3262,
      "fl": 3263,
      "gin": 3264,
      "Ġ\\": 3265,
      "Ġhe": 3266,
      "à¯ģ``": 3267,
      "à®©à®³à®µ": 3268,
      "à®¨à®µà®®": 3269,
      "à®ªà®Łà®ļ": 3270,
      "à®¯à®²à®²": 3271,
      "à®¯à®®à®©à®Ļ": 3272,
      "à®ļà®°à®ķà®®": 3273,
      "à¯Ī...": 3274,
      "à®ĩà®®": 3275,
      "à®ĩà®Ĩà®°": 3276,
      "Ġà®¤à®®à®¸": 3277,
      "Ġ---": 3278,
      "int": 3279,
      "ors": 3280,
      "ĠMe": 3281,
      "Ġà®īà®´à®µà®°": 3282,
      "Ġ04": 3283,
      "Ġ06": 3284,
      "Ġ1986": 3285,
      "ĠCPE": 3286,
      "ive": 3287,
      "Mar": 3288,
      "Ã¤": 3289,
      "Ġ00": 3290,
      "à¯ģ(": 3291,
      "à®©à®°à®¤": 3292,
      "à¯ģ.)": 3293,
      "à®¸à®¨": 3294,
      "Ġà®ľà®¸": 3295,
      "Ġà®ļà®®à®ķ": 3296,
      "Ġà®®à®©à®ķ": 3297,
      "Ġà®ĵà®°à®®": 3298,
      "ĠCont": 3299,
      "ĠPor": 3300,
      "tif": 3301,
      "ĠLanka": 3302,
      "ile": 3303,
      "ovement": 3304,
      "ĠChr": 3305,
      "ĠSocialist": 3306,
      "PR": 3307,
      "back": 3308,
      "fer": 3309,
      "à¯įâĢľ": 3310,
      "à®¤à®µà®¤": 3311,
      "à®¤à®¤à®²": 3312,
      "à®¤à®¯à®Ļ": 3313,
      "à®ªà®²à®ķ": 3314,
      "à®©à®²à®®à®±": 3315,
      "Ġà®ªà®·": 3316,
      "Ġà®®à®¤à®ª": 3317,
      "Ġà®¤à®ķà®µ": 3318,
      "Ġà®ĩà®¤à®¯": 3319,
      "Ġà®¨à®Łà®°": 3320,
      "Ġà®ľà®©à®°à®ŀ": 3321,
      "à®¤à®®à®©": 3322,
      "Ġà®®à®¤à®Ļ": 3323,
      "Ġà®ħà®³à®¨": 3324,
      "Ġ(<": 3325,
      "à®¤à®©à®ª": 3326,
      "à®ªà®°à®µà®²": 3327,
      "Ġà®ľà®©à®ķ": 3328,
      "à®Łà®ªà®®": 3329,
      "à®°à®ªà®²à®Ļ": 3330,
      "Ġà®ĵà®°à®¤": 3331,
      "à®ªà®¨à®²": 3332,
      "Ġà®ħà®°à®ķ": 3333,
      "à®ĩà®¤à®±": 3334,
      "à®Ĩà®¸": 3335,
      "ĠMMA": 3336,
      "ĠFr": 3337,
      "ĠTR": 3338,
      "Ġ05": 3339,
      "Ġ2023": 3340,
      "deutsche": 3341,
      "ĠVer": 3342,
      "ĠYoj": 3343,
      "ĠRep": 3344,
      "Ġdes": 3345,
      "ECD": 3346,
      "CM": 3347,
      "jp": 3348,
      "ka": 3349,
      "à¯į<": 3350,
      "à®µà®µà®²": 3351,
      "Ġà®ļà®³": 3352,
      "Ġà®Ĩà®µà®¤à®±": 3353,
      "à®·à®µà®°": 3354,
      "à®°à®®à®²": 3355,
      "à®¤à®°à®£": 3356,
      "Ġà®ªà®²à®©à®Ł": 3357,
      "Ġ1920": 3358,
      "à®ĩà®µà®°": 3359,
      "à®Ĩà®±": 3360,
      "à®Ĩà®³": 3361,
      "Ġà®īà®¤à®¯à®®": 3362,
      "ĠSri": 3363,
      "ĠServ": 3364,
      "ĠFD": 3365,
      "ĠDer": 3366,
      "atur": 3367,
      "ild": 3368,
      "ations": 3369,
      "Ġ1973": 3370,
      "Ġ1975": 3371,
      "Ġà®ļà®®à®°à®ļà®ª": 3372,
      "ular": 3373,
      "ĠAlso": 3374,
      "ĠSci": 3375,
      "ĠPTCL": 3376,
      "ĠASEAN": 3377,
      "Ġheight": 3378,
      "FO": 3379,
      "Mo": 3380,
      "ux": 3381,
      "à®¾),": 3382,
      "à®°à®ľà®©": 3383,
      "à®®à®°à®¤": 3384,
      "Ġà®µà®©à®Ļ": 3385,
      "Ġà®ļà®ķà®°": 3386,
      "Ġà®Łà®¯à®°": 3387,
      "Ġà®Ĭà®ķà®Ļ": 3388,
      "Ġà®²à®®": 3389,
      "Ġà®īà®¤à®µà®µ": 3390,
      "à®ĩà®±à®ķ": 3391,
      "à®¯à®°à®ļà®°": 3392,
      "Ġà®¨à®ķà®°à®µ": 3393,
      "à®ªà®®à®Ł": 3394,
      "à®ªà®ķà®±": 3395,
      "orth": 3396,
      "à®īà®©": 3397,
      "Ġà®µà®±à®£": 3398,
      "ase": 3399,
      "\"><": 3400,
      "Ġ1961": 3401,
      "2002": 3402,
      "à¯Ī',": 3403,
      "à®ĥà®ªà®°": 3404,
      "ergy": 3405,
      "PT": 3406,
      "ais": 3407,
      "hr": 3408,
      "Ġ),": 3409,
      "à®¤à®Ĩà®µ": 3410,
      "à®©à®Łà®¤": 3411,
      "à®©à®ķà®°à®®": 3412,
      "à®²à®¯à®®": 3413,
      "Ġà®ķà®²à®¤": 3414,
      "Ġà®ķà®³à®µ": 3415,
      "à®¤à®²à®©": 3416,
      "Ġà®²à®ŀ": 3417,
      "à¯Ī,\"": 3418,
      "Ġà®¹à®ª": 3419,
      "Ġà®ħà®ķà®¨": 3420,
      "ĠBer": 3421,
      "Ġà®Ĩà®µà®£à®ķ": 3422,
      "Ġà®¨à®µà®ļà®®à®ļà®®": 3423,
      "ĠDow": 3424,
      "che": 3425,
      "rich": 3426,
      "lec": 3427,
      "Ġ1976": 3428,
      "2006": 3429,
      "eme": 3430,
      "aya": 3431,
      "ĠDevelopment": 3432,
      "IMF": 3433,
      "ĠCOVID": 3434,
      "ĠGeneral": 3435,
      "ĠPorsche": 3436,
      "DG": 3437,
      "UN": 3438,
      "lat": 3439,
      "Ã§": 3440,
      "Ġà®¨à®´": 3441,
      "à®ľà®Ļ": 3442,
      "à®²à®¤à®©à®ļ": 3443,
      "à®ļà®°à®£": 3444,
      "Ġà®²à®·": 3445,
      "à®ķà®²à®Ļ": 3446,
      "à®İà®ķ": 3447,
      "à®ĩà®¯à®ķ": 3448,
      "à®ĩà®¤à®©": 3449,
      "erman": 3450,
      "orld": 3451,
      "à®Ĵà®±": 3452,
      "à®Ĵà®³": 3453,
      "Ġfeed": 3454,
      "artz": 3455,
      "ĠYojana": 3456,
      "jpg": 3457,
      "Ġfeedback": 3458,
      "Gov": 3459,
      "IO": 3460,
      "OP": 3461,
      "TO": 3462,
      "aine": 3463,
      "na": 3464,
      "ss": 3465,
      "à®ķà®³à®£": 3466,
      "à®ļà®¯à®¤": 3467,
      "Ġà®ļà®¹": 3468,
      "à¯ĭ)": 3469,
      "à¯ĭ;": 3470,
      "Ġà®ħà®°à®ļà®©": 3471,
      "Ġ230": 3472,
      "à®ľà®©à®¤": 3473,
      "à®ľà®©à®µà®°": 3474,
      "Ġà®ļà®®à®µ": 3475,
      "Ġà®ĩà®²à®ŀ": 3476,
      "Ġà®Ĩà®°à®ŀ": 3477,
      "Ġà®īà®¤à®µà®ķ": 3478,
      "Ġà®ĵà®ªà®©": 3479,
      "ĠCl": 3480,
      "ĠComp": 3481,
      "one": 3482,
      "ons": 3483,
      "ĠMo": 3484,
      "à®īà®²à®ķà®®": 3485,
      "reet": 3486,
      "Ġ240": 3487,
      "ĠWh": 3488,
      "outh": 3489,
      "Ġ1969": 3490,
      "organ": 3491,
      "aily": 3492,
      "ĠCorp": 3493,
      "250": 3494,
      "IL": 3495,
      "TU": 3496,
      "ao": 3497,
      "min": 3498,
      "à®¤à®°à®ļ": 3499,
      "à®Łà®Łà®ķ": 3500,
      "à®¯à®ķà®°à®®": 3501,
      "à®°à®¤à®©": 3502,
      "à®³à®¤à®©": 3503,
      "à®ķà®°à®ª": 3504,
      "à®²à®®à®Ł": 3505,
      "Ġà®Łà®µ": 3506,
      "Ġà®ķà®²à®µà®°à®®": 3507,
      "Ġà®Ĳà®İà®¸": 3508,
      "Ġà®²à®µ": 3509,
      "à®ķà®©à®ª": 3510,
      "ĠStr": 3511,
      "Ġà®ªà®´à®©": 3512,
      "Ġ93": 3513,
      "tian": 3514,
      "ĠNA": 3515,
      "chn": 3516,
      "chum": 3517,
      "ĠGroup": 3518,
      "ĠRoman": 3519,
      "à¯į!\"": 3520,
      "Ġ07": 3521,
      "rig": 3522,
      "ush": 3523,
      "ĠZap": 3524,
      "lau": 3525,
      "FDP": 3526,
      "à®Łà®Łà®®": 3527,
      "à®ļà®ķà®Ł": 3528,
      "Ġà®ħà®ļà®¤": 3529,
      "Ġà®µà®Łà®¤": 3530,
      "Ġà®µà®¯à®ļ": 3531,
      "à®Łà®©à®ķ": 3532,
      "à®¯à®²à®ķ": 3533,
      "à®¯à®¤à®³à®Ļ": 3534,
      "Ġà®°à®®à®£": 3535,
      "à®°à®£à®ķ": 3536,
      "Ġà®Ĭà®©": 3537,
      "à®İà®´": 3538,
      "Ġà®ĩà®Łà®±à®²": 3539,
      "2015": 3540,
      "2014": 3541,
      "Ġ79": 3542,
      "ĠPP": 3543,
      "Ġ108": 3544,
      "ĠMS": 3545,
      "ĠMy": 3546,
      "ĠFO": 3547,
      "ĠRT": 3548,
      "ata": 3549,
      "ĠUS": 3550,
      "oul": 3551,
      "à®µà®³à®µà®©": 3552,
      "ĠOCI": 3553,
      "à¯įâĢĻ,": 3554,
      "Ġà®ķà®µà®©à®ķ": 3555,
      "ages": 3556,
      "Ġ1951": 3557,
      "ĠFrank": 3558,
      "à®ļà®²à®ķà®Ļ": 3559,
      "2000": 3560,
      "ver": 3561,
      "ven": 3562,
      "Ġre": 3563,
      "à¯Ī``": 3564,
      "Ġà®İà®¯à®°": 3565,
      "à®°à®ļà®µ": 3566,
      "à®¯à®®à®³": 3567,
      "Ġà®ļà®®à®ªà®Ļ": 3568,
      "à®¯à®©à®ª": 3569,
      "Ġà®īà®°à®ķ": 3570,
      "Ġà®¹à®¸": 3571,
      "Ġ1917": 3572,
      "Ġ1938": 3573,
      "Ġà®Ĩà®Łà®µà®°": 3574,
      "enk": 3575,
      "ĠABC": 3576,
      "Ġà®¤à®µà®±à®µ": 3577,
      "2009": 3578,
      "à®ªà®¯à®£": 3579,
      "Ġà®ĥà®ªà®°": 3580,
      "Ã¼d": 3581,
      "ĠCommuniste": 3582,
      "ĠCFDT": 3583,
      ".-": 3584,
      "1000": 3585,
      "900": 3586,
      "RD": 3587,
      "ma": 3588,
      "oz": 3589,
      "ror": 3590,
      "uf": 3591,
      "Ã¶": 3592,
      "Ġ%": 3593,
      "Ġj": 3594,
      "à®ļà®²à®¤": 3595,
      "à®£à®¯à®ķ": 3596,
      "Ġà®¨à®ļà®°": 3597,
      "à¯ģ.âĢĿ": 3598,
      "à®µà®©à®µ": 3599,
      "à®ľà®¤": 3600,
      "Ġà®ªà®²à®µà®¨": 3601,
      "Ġà®Ĭà®ļà®²": 3602,
      "à®ļà®©à®ª": 3603,
      "à®ķà®ļà®¸": 3604,
      "Ġ6000": 3605,
      "ines": 3606,
      "Ġà®īà®£à®µà®³": 3607,
      "Ġà®ķà®´à®±": 3608,
      "Ġà®¨à®°à®ķà®²": 3609,
      "Ġ112": 3610,
      "ĠNSA": 3611,
      "à®¿'.": 3612,
      "reen": 3613,
      "ĠHIV": 3614,
      "ĠOn": 3615,
      "andard": 3616,
      "ĠJohn": 3617,
      "ings": 3618,
      "Ã©r": 3619,
      "ĠPSOE": 3620,
      "International": 3621,
      "ĠĠĠĠĠĠĠĠ": 3622,
      "ierre": 3623,
      "harat": 3624,
      "====": 3625,
      "ĠColom": 3626,
      "ĠCouncil": 3627,
      "ĠDemocratic": 3628,
      "à¯ĩ)": 3629,
      "Ġà®İà®²à®ķ": 3630,
      "à¯į.-": 3631,
      "à¯į.``": 3632,
      "Ġà®ªà®²à®¨": 3633,
      "à®ªà®°à®Ł": 3634,
      "à®¤à®ķà®ļ": 3635,
      "à®©à®®à®Ł": 3636,
      "Ġà®ħà®ķà®ļ": 3637,
      "à®ļà®ķà®ļ": 3638,
      "ĠPPP": 3639,
      "Ġ107": 3640,
      "els": 3641,
      "ĠWolf": 3642,
      "Ġà®ķà®²à®ķà®Ļ": 3643,
      "ture": 3644,
      "ĠUnited": 3645,
      "ative": 3646,
      "ĠBochum": 3647,
      "atero": 3648,
      "',": 3649,
      "LCR": 3650,
      "RO": 3651,
      "SC": 3652,
      "Times": 3653,
      "ition": 3654,
      "top": 3655,
      "Ġà®ªà®µà®°": 3656,
      "Ġà®¤à®µà®®": 3657,
      "Ġà®ļà®¤à®°": 3658,
      "à¯Ĥ-": 3659,
      "à®ľà®¯à®µ": 3660,
      "à®©à®¤à®¯": 3661,
      "à®²à®ķà®©": 3662,
      "Ġà®ªà®£à®ļ": 3663,
      "Ġà®ªà®°à®µà®ļ": 3664,
      "Ġ1933": 3665,
      "Ġ1936": 3666,
      "à®°à®µà®ª": 3667,
      "ĠCB": 3668,
      "Ġà®ĩà®³à®Ļ": 3669,
      "ĠSÃ¼d": 3670,
      "ins": 3671,
      "india": 3672,
      "tive": 3673,
      "ĠBS": 3674,
      "Ġ1200": 3675,
      "à®ıà®Ł": 3676,
      "à®ıà®´": 3677,
      "ick": 3678,
      "Ġ170": 3679,
      "ĠEqu": 3680,
      "Ġ1985": 3681,
      "adhan": 3682,
      "rid": 3683,
      "Ġ1974": 3684,
      "urs": 3685,
      "ederation": 3686,
      "à®ĥà®ªà®°à®©": 3687,
      "uman": 3688,
      "Ġpr": 3689,
      "ĠAssoci": 3690,
      "ĠWorkers": 3691,
      "Ã§ois": 3692,
      "EM": 3693,
      "LTTE": 3694,
      "PC": 3695,
      "SM": 3696,
      "ael": 3697,
      "gang": 3698,
      "ham": 3699,
      "yan": 3700,
      "à¯įà¯Ī": 3701,
      "à®ªà®ķà®Ļ": 3702,
      "Ġà®ķà®ªà®Ł": 3703,
      "Ġà®¤à®ķà®®": 3704,
      "Ġà®İà®©à®ļ": 3705,
      "Ġà®ıà®µà®ª": 3706,
      "Ġà®°à®Ļ": 3707,
      "Ġà®ªà®£à®¯à®®": 3708,
      "à®ļà®®à®®": 3709,
      "à®¿...": 3710,
      "Ġà®ħà®´à®ķà®ª": 3711,
      "à®ĩà®³": 3712,
      "à¯į-----": 3713,
      "ery": 3714,
      "ĠCar": 3715,
      "ari": 3716,
      "Ġà®Ĩà®µà®£": 3717,
      "ĠGDL": 3718,
      "Ġ135": 3719,
      "Ġ142": 3720,
      "red": 3721,
      "ret": 3722,
      "ĠHu": 3723,
      "ĠHer": 3724,
      "ĠEr": 3725,
      "igue": 3726,
      "Ġà®īà®ªà®ķà®°à®£à®®": 3727,
      "Ġà®īà®ªà®ķà®°à®£à®¤": 3728,
      "ottom": 3729,
      "ĠCNN": 3730,
      "ĠZapatero": 3731,
      "Al": 3732,
      "Ar": 3733,
      "See": 3734,
      "air": 3735,
      "fe": 3736,
      "upp": 3737,
      "à¯ģ]": 3738,
      "à®ķà®³à®²": 3739,
      "Ġà®®à®Łà®¤": 3740,
      "Ġà®®à®²à®®": 3741,
      "Ġà®ĩà®°à®¤à®¤": 3742,
      "à®¤à®¤à®¤": 3743,
      "à®¤à®©à®µ": 3744,
      "à®³à®©à®µ": 3745,
      "Ġà®¹à®²": 3746,
      "à®©à®®à®±": 3747,
      "Ġà®ļà®ķà®²à®¤": 3748,
      "ones": 3749,
      "ĠSol": 3750,
      "ini": 3751,
      "Ġ106": 3752,
      "ality": 3753,
      "Ġà®ķà®µà®ļà®®": 3754,
      "ĠMant": 3755,
      "ĠMovement": 3756,
      "ĠLab": 3757,
      "ĠDaily": 3758,
      "ĠHartz": 3759,
      "ates": 3760,
      "ated": 3761,
      "Ġ08": 3762,
      "à®ĵà®°": 3763,
      "urop": 3764,
      "urity": 3765,
      "PDS": 3766,
      "Ġ1952": 3767,
      "able": 3768,
      "ĠStreet": 3769,
      "ski": 3770,
      "ault": 3771,
      "ĠColombo": 3772,
      "BT": 3773,
      "Fran": 3774,
      "RA": 3775,
      "bs": 3776,
      "bottom": 3777,
      "ces": 3778,
      "gan": 3779,
      "gram": 3780,
      "len": 3781,
      "nal": 3782,
      "naire": 3783,
      "Ġà®Ļ": 3784,
      "à¯Ī),": 3785,
      "à®¯à®©à®¤": 3786,
      "à®ķà®³à®µà®°": 3787,
      "Ġà®ķà®²à®®": 3788,
      "Ġà®¤à®°à®£": 3789,
      "à®ķà®µà®¨": 3790,
      "à®¤à®®à®²": 3791,
      "Ġà®ħà®©à®©": 3792,
      "à®ļà®®à®±": 3793,
      "Ġà®Ĳà®¯à®ª": 3794,
      "Ġà®Ĳà®²à®£": 3795,
      "Ġà®ļà®°à®¸": 3796,
      "à®±à®®à®±": 3797,
      "ĠSU": 3798,
      "ale": 3799,
      "enter": 3800,
      "ĠAT": 3801,
      "ĠAt": 3802,
      "Ġà®ªà®¯à®£à®ķ": 3803,
      "ĠFDP": 3804,
      "ĠFAC": 3805,
      "ĠHar": 3806,
      "ĠEd": 3807,
      "ime": 3808,
      "Ġà®®à®©à®¨à®²": 3809,
      "lain": 3810,
      "ivers": 3811,
      "ichard": 3812,
      "ĠQu": 3813,
      "ristian": 3814,
      "ĠCentre": 3815,
      "laude": 3816,
      "ĠMantri": 3817,
      "WC": 3818,
      "ket": 3819,
      "td": 3820,
      "wach": 3821,
      "à®ªà®³à®Ļ": 3822,
      "Ġà®®à®²à®ķ": 3823,
      "Ġà®ħà®ķà®´": 3824,
      "Ġà®¤à®®à®©": 3825,
      "Ġà®ļà®ªà®¤à®®": 3826,
      "Ġà®Ĩà®³à®ª": 3827,
      "Ġà®ħà®®à®¤": 3828,
      "Ġà®ħà®®à®³": 3829,
      "à®¯à®®à®©": 3830,
      "Ġ(-": 3831,
      "Ġà®ķà®°à®Ł": 3832,
      "Ġà®ķà®²à®ķà®¤": 3833,
      "à®±à®©à®±": 3834,
      "Ġà®Ĭà®ķà®µ": 3835,
      "Ġà®Īà®´": 3836,
      "Ġà®ĩà®Łà®±": 3837,
      "à®Ĩà®©à®¨": 3838,
      "Ġà®¤à®°à®ķà®°": 3839,
      "à®¹à®µ": 3840,
      "ĠSa": 3841,
      "à®Ĳà®İà®®": 3842,
      "Ġ104": 3843,
      "ĠAct": 3844,
      "ĠMission": 3845,
      "Ġ121": 3846,
      "à®īà®£à®°": 3847,
      "à®ıà®ķ": 3848,
      "à®ıà®©": 3849,
      "ĠNAT": 3850,
      "ĠOECD": 3851,
      "ington": 3852,
      "ĠVW": 3853,
      "tics": 3854,
      "hip": 3855,
      "ĠMinis": 3856,
      "ĠESF": 3857,
      "ĠNATO": 3858,
      "):": 3859,
      "GS": 3860,
      "TR": 3861,
      "lam": 3862,
      "ox": 3863,
      "à¯į</": 3864,
      "à®²à®ŀ": 3865,
      "Ġà®ªà®¯à®±": 3866,
      "Ġà®ħà®¯à®©": 3867,
      "à®¨à®²à®ļ": 3868,
      "Ġà®ıà®Ļ": 3869,
      "Ġà®ıà®ķà®²": 3870,
      "Ġà®ľà®¯à®ļ": 3871,
      "Ġà®°à®©": 3872,
      "Ġ220": 3873,
      "à®¤à®®à®®": 3874,
      "Ġà®Łà®¯": 3875,
      "Ġà®¤à®©à®®": 3876,
      "Ġà®īà®£à®°à®µ": 3877,
      "Ġà®Īà®¨": 3878,
      "à®±à®µà®´": 3879,
      "Ġà®Ĩà®ļà®ķ": 3880,
      "ĠSA": 3881,
      "ĠSSP": 3882,
      "ĠPort": 3883,
      "Ġ105": 3884,
      "à®īà®£à®µ": 3885,
      "ĠDel": 3886,
      "ĠNation": 3887,
      "Ġ2500": 3888,
      "itz": 3889,
      "ili": 3890,
      "à¯ģ''.": 3891,
      "à®ĵà®Ł": 3892,
      "à®Īà®´à®®": 3893,
      "2007": 3894,
      "ague": 3895,
      "orge": 3896,
      "ĠAnd": 3897,
      "Ġnatur": 3898,
      "ĠCSIR": 3899,
      "olutionnaire": 3900,
      "ĠEconomic": 3901,
      "120": 3902,
      "Co": 3903,
      "fur": 3904,
      "à®°à®ªà®¤": 3905,
      "à®®à®°à®®": 3906,
      "à®²à®ķà®°": 3907,
      "Ġà®¤à®ļà®®": 3908,
      "Ġà®µà®³à®ª": 3909,
      "Ġà®ĩà®ļà®ķ": 3910,
      "Ġà®ľà®ķà®¤": 3911,
      "à®ķà®°à®ķ": 3912,
      "Ġà®°à®¸": 3913,
      "Ġà®°à®ĥà®ªà®°à®©": 3914,
      "à®ľà®¯à®©": 3915,
      "Ġ650": 3916,
      "ĠSe": 3917,
      "à¯ĩ...": 3918,
      "ĠPat": 3919,
      "âĢĻâĢĻ": 3920,
      "ĠBe": 3921,
      "Ġ117": 3922,
      "ĠFA": 3923,
      "Ġà®Ĩà®¤à®°à®µà®±": 3924,
      "ouis": 3925,
      "ĠKo": 3926,
      "tein": 3927,
      "Ġ280": 3928,
      "hec": 3929,
      "ournal": 3930,
      "IFED": 3931,
      "CSIR": 3932,
      "ĠCSU": 3933,
      "ĠAmerican": 3934,
      "flag": 3935,
      "Comm": 3936,
      "EU": 3937,
      "GA": 3938,
      "GC": 3939,
      "ius": 3940,
      "loy": 3941,
      "oor": 3942,
      "ta": 3943,
      "ves": 3944,
      "yl": 3945,
      "à¯įà¯į": 3946,
      "à¯ģà¯į": 3947,
      "à®°à®¯à®¤": 3948,
      "à®°à®¯à®®": 3949,
      "Ġà®ķà®ķà®©": 3950,
      "Ġà®µà®²à®®": 3951,
      "Ġà®İà®©à®²": 3952,
      "à®ªà®¤à®²": 3953,
      "à®¸à®µ": 3954,
      "à®ķà®ªà®¨": 3955,
      "à®°à®®à®ķ": 3956,
      "à®®à®°à®ª": 3957,
      "Ġ($": 3958,
      "Ġà®Ĭà®ķà®¤": 3959,
      "Ġà®Īà®´à®¤": 3960,
      "à®ķà®´à®ª": 3961,
      "à®İà®µ": 3962,
      "Ġà®ªà®¯à®£à®ª": 3963,
      "à®ļà®©à®ŀ": 3964,
      "à®ªà®®à®¯à®®": 3965,
      "ĠCAR": 3966,
      "Ġ103": 3967,
      "ĠApp": 3968,
      "ĠMart": 3969,
      "ĠMorgan": 3970,
      "ĠBro": 3971,
      "à®ıà®Ĳ": 3972,
      "Ġ139": 3973,
      "ices": 3974,
      "à®°à®³à®²": 3975,
      "Ġ161": 3976,
      "Ġà®īà®ªà®ļà®°": 3977,
      "amb": 3978,
      "Ġà®ħà®µà®ļà®°à®ª": 3979,
      "ley": 3980,
      "ĠInde": 3981,
      "Ġ1963": 3982,
      "ĠChar": 3983,
      "ione": 3984,
      "ĠStandard": 3985,
      "ICCI": 3986,
      "ĠFranc": 3987,
      "izeflag": 3988,
      "iance": 3989,
      "ights": 3990,
      "IMST": 3991,
      "Pradhan": 3992,
      "alsizeflag": 3993,
      "ĠFDIC": 3994,
      "chnology": 3995,
      "ĠSÃ¼ddeutsche": 3996,
      "Ġnaturalsizeflag": 3997,
      "Ġà®¤à®ļà®®à®ª": 3998,
      "AY": 3999,
      "BJP": 4000,
      "DM": 4001,
      "MR": 4002,
      "ool": 4003,
      "ows": 4004,
      "pit": 4005,
      "za": 4006,
      "Ġi": 4007,
      "à®ķà®ķà®®": 4008,
      "à®²à®ķà®ª": 4009,
      "à®²à®µà®°à®Ļ": 4010,
      "Ġà®ķà®©à®¤": 4011,
      "Ġà®¨à®°à®ļ": 4012,
      "à¯Ĥ'": 4013,
      "Ġà®ħà®°à®ļà®®": 4014,
      "à®³à®°à®µ": 4015,
      "Ġà®īà®±à®Ļ": 4016,
      "Ġ\"'": 4017,
      "à®¤à®ķà®©": 4018,
      "à®µà®®à®¯à®®": 4019,
      "Ġà®Īà®¤": 4020,
      "à®¿.'": 4021,
      "Ġà®®à®©à®¸": 4022,
      "à®İà®³": 4023,
      "à®Łà®²à®ª": 4024,
      "Ġ1939": 4025,
      "à®ĩà®²à®ķ": 4026,
      "Ġà®·à®°à®¤": 4027,
      "esh": 4028,
      "ĠLim": 4029,
      "ĠIII": 4030,
      "itte": 4031,
      "à®¨à®ķà®°à®ª": 4032,
      "ouse": 4033,
      "Ġà®ħà®µà®ļà®°à®¨": 4034,
      "à¯ģâĢĿ.": 4035,
      "Ġ1959": 4036,
      "WSWS": 4037,
      "ĠCPN": 4038,
      "Ġcol": 4039,
      "oday": 4040,
      "aint": 4041,
      "ashington": 4042,
      "ĠStearn": 4043,
      "âĢ¢âĢ¢âĢ¢âĢ¢": 4044,
      "150": 4045,
      "BA": 4046,
      "Ge": 4047,
      "Gar": 4048,
      "TC": 4049,
      "WP": 4050,
      "hal": 4051,
      "ress": 4052,
      "uth": 4053,
      "vail": 4054,
      "Ġ`": 4055,
      "à®Łà®ķà®ª": 4056,
      "à®ªà®Ĩ": 4057,
      "à®®à®¯à®¤": 4058,
      "à®®à®ľ": 4059,
      "Ġà®¤à®Łà®¤": 4060,
      "Ġà®ķà®°à®©": 4061,
      "Ġà®ķà®²à®ķà®ª": 4062,
      "à®ļà®®à®¯à®¤": 4063,
      "à®ķà®²à®¨": 4064,
      "à®ķà®´à®ŀ": 4065,
      "1999": 4066,
      "ony": 4067,
      "enti": 4068,
      "ore": 4069,
      "Ġ123": 4070,
      "ĠWorld": 4071,
      "ĠKar": 4072,
      "ĠJournal": 4073,
      "igh": 4074,
      "raph": 4075,
      "2008": 4076,
      "Ġst": 4077,
      "Ġla": 4078,
      "ound": 4079,
      "à®Ĭà®¤": 4080,
      "ĠCommission": 4081,
      "irect": 4082,
      "ĠGlob": 4083,
      "ĠOpel": 4084,
      "wachh": 4085,
      "ĠStearns": 4086,
      "à®ªà®Ĩà®²à®¯à®¤": 4087,
      ");": 4088,
      "ET": 4089,
      "GST": 4090,
      "HP": 4091,
      "Par": 4092,
      "PCF": 4093,
      "aff": 4094,
      "ble": 4095,
      "der": 4096,
      "ger": 4097,
      "iro": 4098,
      "kh": 4099,
      "ki": 4100,
      "med": 4101,
      "pend": 4102,
      "va": 4103,
      "zin": 4104,
      "à®ªà®ķà®ª": 4105,
      "à®ªà®ķà®°": 4106,
      "à®®à®¹": 4107,
      "à®©à®²à®ķ": 4108,
      "à®²à®¯à®Ļ": 4109,
      "à¯ĭ:": 4110,
      "à®ķà®®à®ª": 4111,
      "à®³à®¤à®®": 4112,
      "à®¤à®°à®Ł": 4113,
      "à®¤à®µà®®": 4114,
      "à®ļà®°à®¸": 4115,
      "Ġà®ªà®¤à®©à®¤": 4116,
      "Ġà®¨à®®à®¸": 4117,
      "Ġà®¤à®Łà®¯à®µ": 4118,
      "Ġ1914": 4119,
      "Ġà®ħà®ķà®Łà®®": 4120,
      "Ġà®®à®£à®®": 4121,
      "Ġà®®à®£à®µ": 4122,
      "ĠSL": 4123,
      "ense": 4124,
      "à®²à®©à®±": 4125,
      "ority": 4126,
      "ĠBu": 4127,
      "ĠBas": 4128,
      "ĠBharat": 4129,
      "à®īà®Łà®²": 4130,
      "à®ıà®ļ": 4131,
      "ĠDav": 4132,
      "ĠHor": 4133,
      "ther": 4134,
      "Ġ225": 4135,
      "lear": 4136,
      "Ġ</": 4137,
      "2001": 4138,
      "illi": 4139,
      "ĠForce": 4140,
      "ĠScot": 4141,
      "à®°à®ªà®°à®£": 4142,
      "Union": 4143,
      "ĠLiberation": 4144,
      "New": 4145,
      "ĠTransnet": 4146,
      "ĠScience": 4147,
      "ĠWolfgang": 4148,
      "480": 4149,
      "Arial": 4150,
      "DI": 4151,
      "EO": 4152,
      "Gen": 4153,
      "NE": 4154,
      "NR": 4155,
      "PI": 4156,
      "Sh": 4157,
      "UK": 4158,
      "fence": 4159,
      "ied": 4160,
      "sa": 4161,
      "à®¾à®¾": 4162,
      "à®°à®³à®¤": 4163,
      "à®Łà®Īà®Ł": 4164,
      "Ġà®ħà®ķà®Ļ": 4165,
      "à®¨à®Ļ": 4166,
      "Ġà®ļà®¸": 4167,
      "à¯Ģ'": 4168,
      "Ġà®ħà®¤à®®": 4169,
      "à®ķà®µà®´à®ķ": 4170,
      "à®ľà®ķà®µ": 4171,
      "à®¤à®µà®£": 4172,
      "Ġà®Ĭà®ķà®®": 4173,
      "Ġà®¤à®Łà®¯": 4174,
      "Ġ320": 4175,
      "à®³à®µà®³": 4176,
      "à®ĩà®İà®¸": 4177,
      "2021": 4178,
      "à®Ĩà®´": 4179,
      "à®Ĩà®°à®®": 4180,
      "à®ħà®ŀ": 4181,
      "Ġà®Ĩà®ļà®©à®¤": 4182,
      "ĠCCP": 4183,
      "ĠSE": 4184,
      "ĠSP": 4185,
      "Ġ109": 4186,
      "alth": 4187,
      "ĠAp": 4188,
      "oration": 4189,
      "ĠMÃ©": 4190,
      "ĠBen": 4191,
      "ĠBear": 4192,
      "Ġ111": 4193,
      "Ġ116": 4194,
      "à®ıà®İà®¸": 4195,
      "ĠDTE": 4196,
      "Ġ1857": 4197,
      "elle": 4198,
      "reg": 4199,
      "icy": 4200,
      "oll": 4201,
      "ĠJo": 4202,
      "ĠJul": 4203,
      "lex": 4204,
      "ĠInter": 4205,
      "ĠVol": 4206,
      "utsch": 4207,
      "Ġ1955": 4208,
      "Ġ1957": 4209,
      "apital": 4210,
      "laus": 4211,
      "à¯ĩ',": 4212,
      "ateg": 4213,
      "NAM": 4214,
      "sky": 4215,
      "adei": 4216,
      "ross": 4217,
      "Ġà®¤à®ķà®µà®®": 4218,
      "ĠRepublic": 4219,
      "ĠFrankfur": 4220,
      "ĠSUD": 4221,
      "%,": 4222,
      "350": 4223,
      "burg": 4224,
      "ck": 4225,
      "gl": 4226,
      "ron": 4227,
      "tal": 4228,
      "à®ķà®°à®ļ": 4229,
      "à®ªà®³à®ª": 4230,
      "à¯Ī(": 4231,
      "Ġà®®à®³": 4232,
      "Ġà®®à®ļà®Ł": 4233,
      "Ġà®ħà®ķà®µ": 4234,
      "à®¨à®©": 4235,
      "à®£à®±à®²": 4236,
      "Ġà®īà®²à®µ": 4237,
      "à®ľà®©à®ª": 4238,
      "Ġ119": 4239,
      "Ġà®ķà®£à®®": 4240,
      "Ġà®Ĳà®Ĩà®°": 4241,
      "Ġà®ĩà®²à®£": 4242,
      "Ġà®¤à®Łà®ķà®³": 4243,
      "Ġ340": 4244,
      "ĠCovid": 4245,
      "onn": 4246,
      "à®Ĳà®Ĳà®Ł": 4247,
      "ĠPCR": 4248,
      "ĠAm": 4249,
      "ĠAIG": 4250,
      "tish": 4251,
      "ĠMed": 4252,
      "ĠIS": 4253,
      "à®ıà®Ĩà®°": 4254,
      "ĠFax": 4255,
      "ĠNH": 4256,
      "ĠNo": 4257,
      "Ġ1800": 4258,
      "Ġ138": 4259,
      "ustr": 4260,
      "à®¯à®¨à®²à®®": 4261,
      "ques": 4262,
      "Ġ1942": 4263,
      "Ġ1944": 4264,
      "act": 4265,
      "à®ªà®´à®©": 4266,
      "mann": 4267,
      "azione": 4268,
      "ĠOnline": 4269,
      "\".": 4270,
      "Bar": 4271,
      "CA": 4272,
      "Cent": 4273,
      "FC": 4274,
      "KK": 4275,
      "PG": 4276,
      "RC": 4277,
      "RT": 4278,
      "Re": 4279,
      "SL": 4280,
      "Sc": 4281,
      "aus": 4282,
      "bi": 4283,
      "eh": 4284,
      "hu": 4285,
      "ner": 4286,
      "rat": 4287,
      "rand": 4288,
      "work": 4289,
      "à®Łà®ľà®©": 4290,
      "à®ªà®ªà®Ł": 4291,
      "à®©à®ķà®²": 4292,
      "à®±à®ķà®°à®®": 4293,
      "à¯ĩâĢĿ": 4294,
      "Ġà®®à®¤à®°": 4295,
      "Ġà®®à®¯à®Ļ": 4296,
      "Ġà®¤à®³à®ª": 4297,
      "Ġà®ļà®©à®¤": 4298,
      "Ġà®ĩà®¤à®¯à®ª": 4299,
      "à®¤à®®à®³": 4300,
      "Ġà®ķà®°à®ķ": 4301,
      "Ġà®¯à®®": 4302,
      "Ġà®ķà®£à®µ": 4303,
      "Ġà®ªà®ķà®µà®¤": 4304,
      "à®ķà®´à®µ": 4305,
      "Ġà®ħà®µà®Ļ": 4306,
      "à®®à®©à®ª": 4307,
      "à¯Ī....": 4308,
      "à®µà®ķà®©": 4309,
      "à®±à®®à®³": 4310,
      "à®°à®ªà®ŀ": 4311,
      "Ġ190": 4312,
      "à®Ĩà®¤à®°à®µ": 4313,
      "any": 4314,
      "ĠSan": 4315,
      "Ġ101": 4316,
      "Ġà®ķà®¤à®±": 4317,
      "ĠMa": 4318,
      "isi": 4319,
      "ĠToday": 4320,
      "itor": 4321,
      "ics": 4322,
      "omo": 4323,
      "ĠWall": 4324,
      "ĠJam": 4325,
      "à®¤à®³à®ªà®¤": 4326,
      "ĠIndian": 4327,
      "oss": 4328,
      "à¯ģ'.": 4329,
      "Ġà®¨à®ķà®°à®®à®¯à®®": 4330,
      "Ã©v": 4331,
      "ards": 4332,
      "ahn": 4333,
      "ifond": 4334,
      "ĠEnergy": 4335,
      "ĠIndust": 4336,
      "ĠVerdi": 4337,
      "iversity": 4338,
      "De": 4339,
      "ISA": 4340,
      "KV": 4341,
      "NL": 4342,
      "RW": 4343,
      "SU": 4344,
      "UM": 4345,
      "UPA": 4346,
      "feb": 4347,
      "gen": 4348,
      "son": 4349,
      "uz": 4350,
      "ĠÃ": 4351,
      "Ġch": 4352,
      "Ġhttp": 4353,
      "à®°à®³à®µ": 4354,
      "à®¯à®¯": 4355,
      "à®¯à®µà®¤": 4356,
      "à®¯à®£à®®": 4357,
      "Ġà®¤à®ļà®°": 4358,
      "Ġà®¨à®Ļ": 4359,
      "à¯Ģà¯į": 4360,
      "Ġà®Ĩà®ļà®©": 4361,
      "à®Łà®¤à®Ł": 4362,
      "à®Łà®®à®±": 4363,
      "Ġà®ľà®²à®®": 4364,
      "à®ķà®µà®ķ": 4365,
      "à®µà®©à®ļ": 4366,
      "Ġà®®à®¤à®©": 4367,
      "Ġà®ħà®²à®ļ": 4368,
      "Ġà®Ĳà®Ļ": 4369,
      "à®µà®®à®£": 4370,
      "Ġà®²à®²": 4371,
      "à®İà®©à®µ": 4372,
      "Ġ1923": 4373,
      "à®ĩà®¯à®±": 4374,
      "à®Ĩà®ķà®¸": 4375,
      "à®°à®µà®Ļ": 4376,
      "ĠSystem": 4377,
      "iness": 4378,
      "ĠPl": 4379,
      "ĠMor": 4380,
      "ĠBA": 4381,
      "ĠBus": 4382,
      "à®īà®Ł": 4383,
      "Ġà®µà®ļà®ª": 4384,
      "ĠNS": 4385,
      "ĠNDA": 4386,
      "cher": 4387,
      "isation": 4388,
      "=\"#": 4389,
      "itt": 4390,
      "ĠHol": 4391,
      "ating": 4392,
      "à¯į!!": 4393,
      "ĠEmp": 4394,
      "ĠWar": 4395,
      "ĠWashington": 4396,
      "ĠUSS": 4397,
      "amond": 4398,
      "rier": 4399,
      "ĠJP": 4400,
      "ĠJones": 4401,
      "ents": 4402,
      "images": 4403,
      "zezin": 4404,
      "own": 4405,
      "à¯ģ---": 4406,
      "ney": 4407,
      "ĠUNEF": 4408,
      "Ġà®Ĩà®ªà®°à®£à®Ļ": 4409,
      "ĠProgram": 4410,
      "ĠReview": 4411,
      "ĠOrgan": 4412,
      "ĠAssociation": 4413,
      "Ġ(-)": 4414,
      "hecus": 4415,
      "Garamond": 4416,
      "ustral": 4417,
      "ifondazione": 4418,
      "AA": 4419,
      "En": 4420,
      "Op": 4421,
      "SEP": 4422,
      "lo": 4423,
      "my": 4424,
      "pe": 4425,
      "Ġte": 4426,
      "à®ķà®ķà®¤": 4427,
      "à®ķà®ļà®Ļ": 4428,
      "à®¤à®ļà®®": 4429,
      "à®¾''": 4430,
      "à®ªà®ķà®Ł": 4431,
      "à®³à®µà®¤": 4432,
      "à®³à®ļà®µ": 4433,
      "à®ļà®µà®Ł": 4434,
      "Ġà®ļà®µà®°": 4435,
      "Ġà®¨à®¸": 4436,
      "à¯ĩà®¾\"": 4437,
      "Ġà®ħà®®à®°à®ļ": 4438,
      "Ġà®ıà®®à®©": 4439,
      "Ġà®ıà®ľà®©": 4440,
      "à®³à®°à®µà®¤": 4441,
      "à®¯à®©à®µà®±": 4442,
      "Ġà®ªà®²à®Ļ": 4443,
      "à®ªà®°à®¸": 4444,
      "2010": 4445,
      "ani": 4446,
      "à®Łà®µà®³": 4447,
      "ĠCBS": 4448,
      "ĠSar": 4449,
      "à®Ĳà®ĵ": 4450,
      "ĠAz": 4451,
      "ĠMail": 4452,
      "Ġà®ķà®ªà®ļ": 4453,
      "ĠLag": 4454,
      "à¯į'',": 4455,
      "ĠIl": 4456,
      "ision": 4457,
      "ĠRichard": 4458,
      "ĠRights": 4459,
      "reat": 4460,
      "ility": 4461,
      "oma": 4462,
      "omb": 4463,
      "ĠWal": 4464,
      "ĠUSA": 4465,
      "ada": 4466,
      "ĠObs": 4467,
      "sport": 4468,
      "ĠVal": 4469,
      "opular": 4470,
      "ays": 4471,
      "ĠZh": 4472,
      "à®°à®ªà®²à®®à®Ł": 4473,
      "ĠDeutsche": 4474,
      "Ġmar": 4475,
      "erald": 4476,
      "ĠGuar": 4477,
      "ĠParti": 4478,
      "à®īà®Łà®©à®Ł": 4479,
      "Ġà®µà®Łà®ªà®ķ": 4480,
      "ĠAlliance": 4481,
      "ĠChrist": 4482,
      "ĠServices": 4483,
      "ĠCARES": 4484,
      "pendent": 4485,
      "ĠObserv": 4486,
      "Dr": 4487,
      "Le": 4488,
      "PO": 4489,
      "Pe": 4490,
      "Th": 4491,
      "ez": 4492,
      "ford": 4493,
      "lk": 4494,
      "ral": 4495,
      "vi": 4496,
      "à®°à®ķà®©": 4497,
      "à®Łà®¯à®ª": 4498,
      "à®ªà®´à®ķ": 4499,
      "à®®à®¯à®ª": 4500,
      "Ġà®®à®ķà®®": 4501,
      "Ġà®¤à®ľ": 4502,
      "à®¨à®²à®ķ": 4503,
      "Ġà®ļà®ªà®Ł": 4504,
      "Ġà®¨à®¯": 4505,
      "Ġà®¨à®µà®°": 4506,
      "Ġà®Ĩà®¹": 4507,
      "à¯ģ.....": 4508,
      "à®°à®ļà®¤": 4509,
      "Ġà®ıà®³à®©à®®": 4510,
      "Ġà®ľà®¨": 4511,
      "Ġà®Ĩà®ķà®Ł": 4512,
      "Ġ\"[": 4513,
      "à®Łà®ķà®ļ": 4514,
      "à®µà®²à®©": 4515,
      "à®ĩà®ķ": 4516,
      "à®ħà®¤à®±": 4517,
      "era": 4518,
      "Ġ7000": 4519,
      "inch": 4520,
      "Ġ850": 4521,
      "ĠAw": 4522,
      "ĠAuth": 4523,
      "Ġ127": 4524,
      "ĠDBT": 4525,
      "ĠNorth": 4526,
      "ĠRen": 4527,
      "ĠRad": 4528,
      "ĠRifondazione": 4529,
      "ĠWe": 4530,
      "out": 4531,
      "adel": 4532,
      "off": 4533,
      "à®¾'.": 4534,
      "ose": 4535,
      "ĠReg": 4536,
      "Ġà®ķà®²à®ķà®²à®ª": 4537,
      "aud": 4538,
      "Ġdu": 4539,
      "ĠForm": 4540,
      "ĠCons": 4541,
      "formation": 4542,
      "ĠFree": 4543,
      "ĠMcC": 4544,
      "ĠContin": 4545,
      "ĠCorporation": 4546,
      "ĠMyGov": 4547,
      "ĠEquality": 4548,
      "CB": 4549,
      "Nat": 4550,
      "Sch": 4551,
      "VD": 4552,
      "VSM": 4553,
      "ril": 4554,
      "rol": 4555,
      "rop": 4556,
      "sur": 4557,
      "Ġx": 4558,
      "à®ķà®¤à®²": 4559,
      "à®°à®µà®²à®°": 4560,
      "à®®à®ŀ": 4561,
      "à®©à®Łà®®": 4562,
      "à®³à®µà®±": 4563,
      "à®£à®³à®µ": 4564,
      "à¯Ģ)": 4565,
      "Ġà®ħà®¤à®°": 4566,
      "à®ķà®¤à®©": 4567,
      "Ġà®ıà®¯à®°": 4568,
      "Ġà®ıà®Ĳ": 4569,
      "à®¯à®²à®µ": 4570,
      "à®µà®©à®µà®±": 4571,
      "à®Łà®°à®Ļ": 4572,
      "à®©à®¤à®©": 4573,
      "Ġà®Ĳà®¯à®°": 4574,
      "Ġà®Īà®´à®®": 4575,
      "Ġà®®à®©à®®à®ķ": 4576,
      "Ġà®®à®©à®īà®±": 4577,
      "à¯Ī.''": 4578,
      "à®ļà®²à®ķà®¤": 4579,
      "Ġà®ĵà®©": 4580,
      "Ġà®ĵà®¸": 4581,
      "Ġà®īà®¯à®°à®ķ": 4582,
      "Ġà®īà®¯à®°à®Ļ": 4583,
      "à®ķà®©à®ķ": 4584,
      "à®ħà®³": 4585,
      "Ġà®®à®£à®®à®ķ": 4586,
      "aniel": 4587,
      "Ġà®·à®®": 4588,
      "ĠSouth": 4589,
      "arm": 4590,
      "ĠPLO": 4591,
      "Ġà®ļà®µà®ª": 4592,
      "âĢĻ,": 4593,
      "ĠMag": 4594,
      "à®ľà®©à®ķ": 4595,
      "ĠLO": 4596,
      "ĠLigue": 4597,
      "à®ıà®¤": 4598,
      "ĠFund": 4599,
      "att": 4600,
      "ilm": 4601,
      "Ġ210": 4602,
      "ourier": 4603,
      "thans": 4604,
      "ĠJan": 4605,
      "ental": 4606,
      "ray": 4607,
      "à®ĥà®ªà®¤": 4608,
      "agement": 4609,
      "Ġà®īà®ªà®ķà®°à®£": 4610,
      "ĠChristian": 4611,
      "ĠStra": 4612,
      "à¯ģ!\"": 4613,
      "NAAT": 4614,
      "ount": 4615,
      "ĠRobert": 4616,
      "ĠEng": 4617,
      "ĠPeter": 4618,
      "ĠCommunist": 4619,
      "ampa": 4620,
      "ĠJose": 4621,
      "ĠTravail": 4622,
      "ufthans": 4623,
      "ĠFrankfurter": 4624,
      "zezinski": 4625,
      "ufthansa": 4626,
      "750": 4627,
      "CGT": 4628,
      "GDP": 4629,
      "HU": 4630,
      "JVP": 4631,
      "MC": 4632,
      "ND": 4633,
      "Pierre": 4634,
      "Tr": 4635,
      "li": 4636,
      "ode": 4637,
      "sin": 4638,
      "tor": 4639,
      "Ġk": 4640,
      "Ġ....": 4641,
      "Ġà®£": 4642,
      "à¯ģâĢľ": 4643,
      "à®®à®¤à®©": 4644,
      "à®±à®¤à®²": 4645,
      "Ġà®ħà®ľà®°": 4646,
      "Ġà®Ĩà®¤à®Ļ": 4647,
      "à®µà®¤à®®": 4648,
      "à®°à®¤à®¨": 4649,
      "Ġà®ĩà®¤à®°à®ª": 4650,
      "Ġà®ıà®²à®Ļ": 4651,
      "à®¯à®ķà®²": 4652,
      "Ġà®ªà®¯à®©à®°": 4653,
      "Ġ360": 4654,
      "Ġ1927": 4655,
      "à®µà®ļà®©à®¤": 4656,
      "à®°à®ķà®ļ": 4657,
      "à®ħà®ľ": 4658,
      "Ġ4000": 4659,
      "à¯į:-": 4660,
      "à¯į)-": 4661,
      "à¯į);": 4662,
      "ĠCSP": 4663,
      "inc": 4664,
      "à®Ĳà®İà®²": 4665,
      "ĠPO": 4666,
      "ĠPDS": 4667,
      "ĠPower": 4668,
      "ties": 4669,
      "Ġ128": 4670,
      "Ġ113": 4671,
      "ĠDa": 4672,
      "ĠDr": 4673,
      "chon": 4674,
      "ĠGDP": 4675,
      "ĠGaz": 4676,
      "Ġ257": 4677,
      "ĠEurop": 4678,
      "ame": 4679,
      "ried": 4680,
      "ĠKlaus": 4681,
      "ety": 4682,
      "raq": 4683,
      "heim": 4684,
      "ople": 4685,
      "ult": 4686,
      "roit": 4687,
      "Ã©n": 4688,
      "Ġpro": 4689,
      "eva": 4690,
      "weight": 4691,
      "à®°à®ķà®²à®Ł": 4692,
      "ĠSecurity": 4693,
      "FOR": 4694,
      "ĠLabour": 4695,
      "Ġcolor": 4696,
      "irector": 4697,
      "ĠDavid": 4698,
      "ĠBAFI": 4699,
      "NPA": 4700,
      "RU": 4701,
      "bl": 4702,
      "br": 4703,
      "bil": 4704,
      "duc": 4705,
      "nov": 4706,
      "pin": 4707,
      "ras": 4708,
      "sc": 4709,
      "uis": 4710,
      "vest": 4711,
      "ym": 4712,
      "Ġth": 4713,
      "Ġii": 4714,
      "à®¾(": 4715,
      "à®®à®³": 4716,
      "à®©à®ķà®¤": 4717,
      "à®²à®¤à®²": 4718,
      "à¯Ī]": 4719,
      "à®ķà®³à®ķ": 4720,
      "Ġà®ķà®³à®°": 4721,
      "Ġà®¤à®°à®ļ": 4722,
      "Ġà®µà®¯à®°": 4723,
      "Ġà®¨à®¯à®®": 4724,
      "à®´à®ļ": 4725,
      "Ġà®Ĩà®¯à®ķ": 4726,
      "Ġà®İà®©à®±": 4727,
      "à®ķà®®à®®": 4728,
      "à¯ģ,âĢĿ": 4729,
      "Ġà®ıà®£": 4730,
      "Ġà®ľà®Ļ": 4731,
      "à®ķà®µà®©à®®": 4732,
      "Ġà®ħà®±à®Ļ": 4733,
      "Ġà®ħà®³à®ķ": 4734,
      "à®®à®°à®©": 4735,
      "Ġà®ªà®²à®°à®¤": 4736,
      "Ġà®Łà®¯à®²": 4737,
      "à®®à®¤à®Ļ": 4738,
      "Ġà®ķà®²à®°": 4739,
      "Ġà®Ĳà®¯à®Ļ": 4740,
      "Ġà®Ĳà®İà®®": 4741,
      "Ġà®®à®©à®ħà®´": 4742,
      "à®ļà®©à®ķ": 4743,
      "2013": 4744,
      "Ġà®ħà®ķà®£": 4745,
      "à®¹à®¤": 4746,
      "ĠSer": 4747,
      "Ġà®¨à®°à®ķà®¤": 4748,
      "ĠPer": 4749,
      "ĠPopular": 4750,
      "Ġ102": 4751,
      "ĠAir": 4752,
      "Ġ155": 4753,
      "tis": 4754,
      "à®īà®´": 4755,
      "à®īà®³à®µ": 4756,
      "à®īà®²à®ķà®¤": 4757,
      "Ġà®ªà®ļà®¨": 4758,
      "ĠLufthansa": 4759,
      "Ġ114": 4760,
      "Ġ118": 4761,
      "à®Ĵà®²": 4762,
      "ĠFe": 4763,
      "ĠFab": 4764,
      "ĠNarend": 4765,
      "istr": 4766,
      "Ġà®Ĭà®Łà®ķà®ķ": 4767,
      "ele": 4768,
      "Ġ141": 4769,
      "Ġ145": 4770,
      "ree": 4771,
      "ĠHans": 4772,
      "ilit": 4773,
      "Ġ:-": 4774,
      "riv": 4775,
      "à®ĵà®ª": 4776,
      "erson": 4777,
      "à®¿\",": 4778,
      "Ġà®µà®¸à®¨": 4779,
      "row": 4780,
      "umi": 4781,
      "CIRI": 4782,
      "Ġalt": 4783,
      "ĠUniversity": 4784,
      "ĠFranÃ§ois": 4785,
      "ueNat": 4786,
      "ĠCommitte": 4787,
      "ffic": 4788,
      "ĠAngel": 4789,
      "PPP": 4790,
      "Ġà®ĩà®³à®µà®°à®ļ": 4791,
      "rench": 4792,
      "egraph": 4793,
      "Ġà®¨à®Łà®©à®ķ": 4794,
      "ĠTechnology": 4795,
      "ĠTelegraph": 4796,
      "ĠTRIFED": 4797,
      "MoU": 4798,
      "ĠCBNAAT": 4799,
      "ĠLimited": 4800,
      "ĠNarendra": 4801,
      "110": 4802,
      "812": 4803,
      "AL": 4804,
      "Courier": 4805,
      "Ex": 4806,
      "HO": 4807,
      "LSSP": 4808,
      "Paul": 4809,
      "go": 4810,
      "iri": 4811,
      "iet": 4812,
      "ja": 4813,
      "jan": 4814,
      "ute": 4815,
      "Ġan": 4816,
      "Ġis": 4817,
      "Ġag": 4818,
      "Ġà®´": 4819,
      "à®¤à®¹": 4820,
      "à®¾....": 4821,
      "à®°à®³à®®": 4822,
      "à®®à®£à®ª": 4823,
      "à®³à®°à®¤": 4824,
      "Ġà®ªà®¤à®®": 4825,
      "à®ļà®ªà®Ł": 4826,
      "à®ļà®ªà®°": 4827,
      "à®ļà®¯à®ª": 4828,
      "Ġà®ħà®ķà®²à®ª": 4829,
      "Ġà®µà®°à®ļ": 4830,
      "Ġà®ļà®²à®µ": 4831,
      "Ġà®İà®©à®°": 4832,
      "à®ªà®¤à®ª": 4833,
      "à®ķà®ªà®²à®®": 4834,
      "à®ķà®®à®¯à®®": 4835,
      "à®Łà®©à®µ": 4836,
      "à®Łà®®à®£": 4837,
      "à®¯à®²à®Ł": 4838,
      "à®¯à®¤à®³à®ķ": 4839,
      "Ġà®°à®ļà®©": 4840,
      "à®·à®¯": 4841,
      "à®¤à®µà®³à®®": 4842,
      "Ġà®ķà®°à®µ": 4843,
      "Ġà®ķà®²à®©": 4844,
      "Ġà®Ĭà®®": 4845,
      "à®µà®®à®²": 4846,
      "Ġà®ħà®µà®³à®¤": 4847,
      "Ġà®µà®³à®°à®µ": 4848,
      "Ġà®ħà®µà®©à®¤": 4849,
      "Ġ1929": 4850,
      "à®µà®ļà®ª": 4851,
      "à®Ĩà®Ļ": 4852,
      "à®°à®µà®³": 4853,
      "Ġà®īà®²à®ķà®°": 4854,
      "1998": 4855,
      "ona": 4856,
      "ĠSam": 4857,
      "ĠSun": 4858,
      "ĠShe": 4859,
      "ĠSab": 4860,
      "ĠSund": 4861,
      "ĠSCO": 4862,
      "ĠSWP": 4863,
      "à®Ĳà®¨": 4864,
      "ĠAut": 4865,
      "ĠAlex": 4866,
      "ĠBou": 4867,
      "ĠBri": 4868,
      "Ġ124": 4869,
      "ĠDay": 4870,
      "ĠNah": 4871,
      "ĠTM": 4872,
      "ĠTer": 4873,
      "à®¾?''": 4874,
      "Ġ132": 4875,
      "ĠHa": 4876,
      "tions": 4877,
      "Ġà®ļà®ķà®²à®°": 4878,
      "ask": 4879,
      "asur": 4880,
      "Ġà®ªà®°à®µà®ļà®®": 4881,
      "rime": 4882,
      "tefe": 4883,
      "leurs": 4884,
      "dipit": 4885,
      "à®ļà®©à®®à®±": 4886,
      "ange": 4887,
      "Ġ1946": 4888,
      "ĠVik": 4889,
      "oper": 4890,
      "IAEA": 4891,
      "istan": 4892,
      "app": 4893,
      "lah": 4894,
      "hio": 4895,
      "993": 4896,
      "Ġwith": 4897,
      "Ġme": 4898,
      "ondon": 4899,
      "ife": 4900,
      "DAP": 4901,
      "ĠArdipit": 4902,
      "ĠBrzezinski": 4903,
      "ĠAgency": 4904,
      "ĠPolicy": 4905,
      "tific": 4906,
      "redit": 4907,
      "ĠHortefe": 4908,
      "ĠTravailleurs": 4909,
      "bilisi": 4910,
      "ĠCommittee": 4911,
      "ĠArdipithecus": 4912,
      "ĠHortefeux": 4913,
      "BB": 4914,
      "Claude": 4915,
      "Jean": 4916,
      "John": 4917,
      "Louis": 4918,
      "NI": 4919,
      "NT": 4920,
      "Ph": 4921,
      "Ro": 4922,
      "Social": 4923,
      "XX": 4924,
      "ca": 4925,
      "eff": 4926,
      "gi": 4927,
      "oom": 4928,
      "oint": 4929,
      "rom": 4930,
      "ui": 4931,
      "uy": 4932,
      "uch": 4933,
      "uri": 4934,
      "à¯į\\": 4935,
      "à®¤à®ļà®°à®¸": 4936,
      "à®²à®°à®¤": 4937,
      "à®¯à®£à®¤": 4938,
      "à®¯à®ħà®°à®ļ": 4939,
      "à®µà®ľ": 4940,
      "à®µà®³à®Ļ": 4941,
      "Ġà®ķà®ļà®ķà®ļ": 4942,
      "Ġà®®à®´à®²": 4943,
      "à®ªà®Łà®Ł": 4944,
      "à¯ģ.``": 4945,
      "à®ķà®®à®©": 4946,
      "Ġà®ľà®¯à®µà®°": 4947,
      "à®°à®®à®¨": 4948,
      "Ġà®ħà®©à®®": 4949,
      "Ġà®ħà®±à®µ": 4950,
      "Ġ('": 4951,
      "à®ªà®°à®µ": 4952,
      "Ġà®¯à®Ļ": 4953,
      "Ġà®ªà®£à®Ļ": 4954,
      "Ġà®ªà®°à®µà®ķ": 4955,
      "Ġà®īà®£à®µà®ķà®Ļ": 4956,
      "Ġà®Īà®°à®ª": 4957,
      "à¯Ī.'": 4958,
      "Ġà®¤à®Łà®¯à®Ļ": 4959,
      "Ġà®ĵà®¤": 4960,
      "à®ĩà®´": 4961,
      "à®°à®µà®³à®Ļ": 4962,
      "à®ªà®£à®ª": 4963,
      "à®ħà®Łà®²": 4964,
      "à®ħà®µà®ļ": 4965,
      "à®ķà®£à®®": 4966,
      "Ġ430": 4967,
      "ano": 4968,
      "à®ķà®ļà®ª": 4969,
      "ĠCamp": 4970,
      "ĠCRS": 4971,
      "ono": 4972,
      "ĠSAR": 4973,
      "ĠSVP": 4974,
      "à®Ĳà®Ĳ": 4975,
      "alk": 4976,
      "ĠAG": 4977,
      "ĠANC": 4978,
      "ĠMorn": 4979,
      "ĠBre": 4980,
      "ĠBern": 4981,
      "Ġà®¤à®ķà®©à®®": 4982,
      "Ġà®ªà®ļà®µ": 4983,
      "ĠLtd": 4984,
      "Ġà®ķà®©à®²": 4985,
      "ĠIDF": 4986,
      "à®ıà®¯": 4987,
      "ĠFer": 4988,
      "ĠDes": 4989,
      "ĠGST": 4990,
      "ĠHuman": 4991,
      "ĠHerald": 4992,
      "ator": 4993,
      "Ġ10000": 4994,
      "ĠWel": 4995,
      "ama": 4996,
      "ams": 4997,
      "adr": 4998,
      "ander": 4999,
      "tei": 5000,
      "left": 5001,
      "à®ĵà®®": 5002,
      "urent": 5003,
      "Ġ275": 5004,
      "osh": 5005,
      "Ġ290": 5006,
      "imon": 5007,
      "Ġ1965": 5008,
      "Ġ1966": 5009,
      "over": 5010,
      "ĠChase": 5011,
      "ĠĠĠ": 5012,
      "rot": 5013,
      "Ġ1958": 5014,
      "Ġà®ķà®¤à®µà®Ł": 5015,
      "Ã©f": 5016,
      "fontaine": 5017,
      "lace": 5018,
      "ake": 5019,
      "ĠDep": 5020,
      "ysler": 5021,
      "ĠGeorge": 5022,
      "Ġà®µà®ļà®©à®ķà®°": 5023,
      "ĠMichael": 5024,
      "right": 5025,
      "enko": 5026,
      "retary": 5027,
      "ĠAuthority": 5028,
      "ampaign": 5029,
      "ĠSunday": 5030,
      "%),": 5031,
      ">)": 5032,
      "Am": 5033,
      "Is": 5034,
      "MT": 5035,
      "NRE": 5036,
      "RG": 5037,
      "RP": 5038,
      "Seva": 5039,
      "UNP": 5040,
      "WFP": 5041,
      "ba": 5042,
      "by": 5043,
      "bos": 5044,
      "gar": 5045,
      "ien": 5046,
      "tell": 5047,
      "ÂŃ": 5048,
      "Ġy": 5049,
      "à®¿]": 5050,
      "à®ķà®²à®ķ": 5051,
      "à®¾âĢľ": 5052,
      "à®µà®ķà®ª": 5053,
      "Ġà®ķà®µà®°à®ª": 5054,
      "à®ļà®¤à®°": 5055,
      "à®ļà®¯à®©": 5056,
      "Ġà®®à®Łà®²": 5057,
      "à®¨à®£": 5058,
      "Ġà®¨à®¹": 5059,
      "Ġà®¨à®µà®°à®¤": 5060,
      "Ġà®Ĵà®£": 5061,
      "à®µà®¤à®°": 5062,
      "à®ªà®¤à®Ł": 5063,
      "à®ķà®®à®°": 5064,
      "à®¯à®²à®³à®µ": 5065,
      "Ġà®ľà®²à®ª": 5066,
      "Ġà®ľà®¯à®¨": 5067,
      "à®ķà®°à®°": 5068,
      "à®ķà®µà®ļà®¤": 5069,
      "à®Łà®°à®ķ": 5070,
      "Ġà®¯à®·": 5071,
      "à®®à®¤à®ļ": 5072,
      "Ġà®ķà®£à®¤": 5073,
      "Ġà®ķà®²à®µà®°": 5074,
      "Ġà®ªà®±à®ª": 5075,
      "à®ķà®Łà®ª": 5076,
      "Ġà®µà®²à®¯à®Ļ": 5077,
      "Ġà®¹à®ļà®©": 5078,
      "à®ĩà®°à®ķà®ļ": 5079,
      "2022": 5080,
      "à®µà®ļà®ķ": 5081,
      "à®µà®ļà®¨": 5082,
      "à®µà®ļà®Ļ": 5083,
      "Ġà®īà®¤à®¯à®©": 5084,
      "à®ªà®£à®µ": 5085,
      "à®ħà®¸": 5086,
      "à®ħà®µà®±": 5087,
      "à®¹à®®à®¤": 5088,
      "ĠCal": 5089,
      "ĠCapital": 5090,
      "ĠSN": 5091,
      "ĠSud": 5092,
      "ĠSDG": 5093,
      "ĠPA": 5094,
      "ĠPap": 5095,
      "ĠPaul": 5096,
      "ala": 5097,
      "ald": 5098,
      "ĠAP": 5099,
      "ĠMT": 5100,
      "ĠMat": 5101,
      "à®¾.'": 5102,
      "Ġ122": 5103,
      "ĠLos": 5104,
      "à¯Ī\".": 5105,
      "à®ıà®ķà®©": 5106,
      "ĠDI": 5107,
      "ĠNet": 5108,
      "ĠNBC": 5109,
      "chnic": 5110,
      "ĠTime": 5111,
      "Ġ181": 5112,
      "Ġ182": 5113,
      "Ġ133": 5114,
      "Ġ134": 5115,
      "atfor": 5116,
      "Ġ165": 5117,
      "ĠEmail": 5118,
      "oft": 5119,
      "ĠKhan": 5120,
      "ted": 5121,
      "Ġ234": 5122,
      "Ġ285": 5123,
      "ustry": 5124,
      "uring": 5125,
      "ĠInformation": 5126,
      "à®µà®²à®ķà®ķ": 5127,
      "à®¯à®¨à®²à®¤": 5128,
      "rac": 5129,
      "idar": 5130,
      "acques": 5131,
      "trand": 5132,
      "--------": 5133,
      "ĠDefence": 5134,
      "Ġà®®à®²à®°à®ŀ": 5135,
      "iller": 5136,
      "ternet": 5137,
      "III": 5138,
      "CPI": 5139,
      "eek": 5140,
      "ĠSchool": 5141,
      "ARC": 5142,
      "awn": 5143,
      "Ã¼n": 5144,
      "Ã¼r": 5145,
      "ĠConf": 5146,
      "ĠAbhi": 5147,
      "ĠTrade": 5148,
      "ĠElBar": 5149,
      "ĠManagement": 5150,
      "ield": 5151,
      "ĠPhil": 5152,
      "SEE": 5153,
      "tify": 5154,
      "ĠFront": 5155,
      "ĠService": 5156,
      "lectr": 5157,
      "DMK": 5158,
      "ĠContinental": 5159,
      "ĠFabius": 5160,
      "130": 5161,
      "AE": 5162,
      "Bl": 5163,
      "GM": 5164,
      "Jan": 5165,
      "LC": 5166,
      "LF": 5167,
      "ea": 5168,
      "jus": 5169,
      "mb": 5170,
      "nar": 5171,
      "po": 5172,
      "ps": 5173,
      "udi": 5174,
      "Ġo": 5175,
      "à¯įâĢĺ": 5176,
      "à®¿--": 5177,
      "à®®à®¯à®°": 5178,
      "à®®à®¯à®ķ": 5179,
      "à®©à®¤à®¤": 5180,
      "à®¯à®µà®ķ": 5181,
      "à®µà®ªà®ķ": 5182,
      "Ġà®ķà®²à®ķà®ķ": 5183,
      "Ġà®ĩà®ŀ": 5184,
      "à®´à®µà®©": 5185,
      "Ġà®īà®°à®ļ": 5186,
      "à¯į,''": 5187,
      "à¯ĭ...": 5188,
      "à®ªà®¤à®¤": 5189,
      "Ġà®®à®±à®µ": 5190,
      "Ġà®ħà®¤à®Ł": 5191,
      "à®°à®¤à®Ļ": 5192,
      "à®ķà®¤à®µ": 5193,
      "Ġà®ĩà®¤à®®": 5194,
      "à®Łà®®à®Ł": 5195,
      "à®·à®¨": 5196,
      "à®¤à®®à®°": 5197,
      "à®¤à®µà®²": 5198,
      "à®¤à®µà®³à®¤": 5199,
      "Ġà®Ĩà®ķà®²": 5200,
      "Ġ(âĢľ": 5201,
      "Ġà®ªà®Łà®¨": 5202,
      "à®ªà®°à®ķ": 5203,
      "Ġà®¯à®©": 5204,
      "Ġà®Ĭà®ķà®ķ": 5205,
      "Ġ2050": 5206,
      "Ġà®Ĳà®¤": 5207,
      "Ġà®²à®©": 5208,
      "à®Łà®ªà®Ļ": 5209,
      "Ġà®µà®²à®¯à®®": 5210,
      "à®İà®µà®©": 5211,
      "Ġ1918": 5212,
      "Ġà®ļà®ķà®²à®®": 5213,
      "à®Ĩà®ķà®µ": 5214,
      "à®°à®ķà®Łà®©à®Ļ": 5215,
      "Ġà®ħà®ķà®²à®¤": 5216,
      "à®ªà®£à®ķ": 5217,
      "à®ħà®µà®°à®¤": 5218,
      "à®¹à®Ł": 5219,
      "Ġà®Ĩà®²à®¯à®Ļ": 5220,
      "à®Łà®µà®¨": 5221,
      "ĠSS": 5222,
      "ĠSo": 5223,
      "ĠSoz": 5224,
      "à®Ĳà®¯": 5225,
      "ĠPublic": 5226,
      "ĠPoor": 5227,
      "ene": 5228,
      "ĠAf": 5229,
      "Ġ151": 5230,
      "Ġà®ķà®µà®ļà®¤": 5231,
      "ĠMP": 5232,
      "ĠBur": 5233,
      "Ġ129": 5234,
      "ĠLDP": 5235,
      "ĠLondon": 5236,
      "ĠICF": 5237,
      "à®ıà®°": 5238,
      "à®ıà®µ": 5239,
      "ĠDGB": 5240,
      "ĠNF": 5241,
      "ĠNIS": 5242,
      "isc": 5243,
      "ĠTrib": 5244,
      "ĠGerman": 5245,
      "ĠRed": 5246,
      "ĠRÃ©v": 5247,
      "Ġ136": 5248,
      "eld": 5249,
      "elm": 5250,
      "reement": 5251,
      "atch": 5252,
      "Ġ173": 5253,
      "Ġ166": 5254,
      "omas": 5255,
      "oud": 5256,
      "ĠKn": 5257,
      "inger": 5258,
      "etz": 5259,
      "unch": 5260,
      "use": 5261,
      "ures": 5262,
      "Ġsystem": 5263,
      "ids": 5264,
      "agen": 5265,
      "à¯į...\"": 5266,
      "à¯į...'": 5267,
      "ĠChina": 5268,
      "Ġà®®à®©à®¨à®²à®®": 5269,
      "Ġpol": 5270,
      "ĠState": 5271,
      "SATU": 5272,
      "ĠDeutsch": 5273,
      "Indian": 5274,
      "à®¾âĢĿ,": 5275,
      "ourt": 5276,
      "ĠUnasur": 5277,
      "ĠFranz": 5278,
      "à®Ĭà®ķ": 5279,
      "ĠCommer": 5280,
      "ĠMarket": 5281,
      "oham": 5282,
      "PSG": 5283,
      "ERT": 5284,
      "ĠAFP": 5285,
      "Ġà®ıà®ķà®®à®©à®¤": 5286,
      "ĠBoard": 5287,
      "ĠLafontaine": 5288,
      "oody": 5289,
      "Ġ------": 5290,
      "rick": 5291,
      "IndiaSeva": 5292,
      "ĠAdv": 5293,
      "à¯ģ-----": 5294,
      "à®¾...'": 5295,
      "ĠAmerica": 5296,
      "ĠIndustry": 5297,
      "Ġ0094": 5298,
      "ĠAndre": 5299,
      "Common": 5300,
      "ĠMartin": 5301,
      "ĠIndependent": 5302,
      "General": 5303,
      "ĠIndustrial": 5304,
      "ĠGuardian": 5305,
      "ĠSARS": 5306,
      "ĠMorning": 5307,
      "chnical": 5308,
      "ĠElBaradei": 5309,
      "justify": 5310,
      "ĠSozial": 5311,
      "ĠRÃ©volutionnaire": 5312,
      ".''": 5313,
      "Bund": 5314,
      "DST": 5315,
      "KP": 5316,
      "Luc": 5317,
      "MO": 5318,
      "Me": 5319,
      "Or": 5320,
      "Us": 5321,
      "ZA": 5322,
      "bek": 5323,
      "gh": 5324,
      "had": 5325,
      "iem": 5326,
      "lor": 5327,
      "mid": 5328,
      "van": 5329,
      "Â°": 5330,
      "à¯ģ/": 5331,
      "à¯ģ</": 5332,
      "à®¿/": 5333,
      "à®ķà®·": 5334,
      "à®¤à®ķà®³": 5335,
      "à®°à®ķà®ª": 5336,
      "à®®à®µà®°": 5337,
      "à®²à®¯à®©": 5338,
      "à¯ĩ''": 5339,
      "Ġà®ķà®ļà®ķ": 5340,
      "à®ļà®µà®¤": 5341,
      "Ġà®ħà®¯à®¤": 5342,
      "Ġà®ħà®ļà®®": 5343,
      "Ġà®¤à®²à®¤": 5344,
      "Ġà®ļà®ľ": 5345,
      "Ġà®ļà®Łà®°": 5346,
      "Ġà®¨à®Łà®©à®¤": 5347,
      "Ġà®Ĩà®ľ": 5348,
      "à®ķà®°à®µà®°": 5349,
      "à®ķà®µà®Ļ": 5350,
      "à®³à®°à®Ļ": 5351,
      "Ġà®°à®ķà®®": 5352,
      "à®¤à®°à®µà®¤": 5353,
      "Ġà®ļà®®à®°à®µ": 5354,
      "à®²à®¤à®©à®ª": 5355,
      "Ġà®ªà®²à®ļ": 5356,
      "Ġà®¯à®ļ": 5357,
      "Ġ205": 5358,
      "Ġà®Ĳà®ļà®ķ": 5359,
      "Ġà®ħà®µà®¸": 5360,
      "Ġà®¸à®ªà®Ł": 5361,
      "à®²à®µà®³à®Ļ": 5362,
      "Ġà®ĵà®Łà®µ": 5363,
      "Ġ1935": 5364,
      "Ġ1931": 5365,
      "à®ķà®©à®Ł": 5366,
      "à®ħà®¯": 5367,
      "ane": 5368,
      "à®£à®®à®¯à®®": 5369,
      "Ġà®īà®²à®ķà®µà®Ļ": 5370,
      "1997": 5371,
      "âĢĿ,": 5372,
      "ĠCom": 5373,
      "ĠCla": 5374,
      "Ġà®ĩà®³à®ŀ": 5375,
      "à®²à®©à®µà®°": 5376,
      "ĠAre": 5377,
      "à®¨à®°à®ķà®¤": 5378,
      "ĠME": 5379,
      "Ġ126": 5380,
      "ĠLy": 5381,
      "ĠLin": 5382,
      "ĠLive": 5383,
      "ĠIT": 5384,
      "ĠIraq": 5385,
      "ĠFis": 5386,
      "ĠFederation": 5387,
      "ĠFICCI": 5388,
      "ĠDet": 5389,
      "ĠNE": 5390,
      "Ġà®Ĭà®°à®ķà®¤": 5391,
      "ĠTom": 5392,
      "ĠGS": 5393,
      "ĠGNP": 5394,
      "ĠGSEE": 5395,
      "eline": 5396,
      "Ġ1400": 5397,
      "Ġ248": 5398,
      "ication": 5399,
      "Ġ163": 5400,
      "ĠEast": 5401,
      "Ġà®Ĩà®´à®Ļ": 5402,
      "ĠWTO": 5403,
      "ĠUr": 5404,
      "\">:": 5405,
      "ĠOhio": 5406,
      "à®µà®£à®©": 5407,
      "ĠJack": 5408,
      "let": 5409,
      "Ġà®Ĭà®´à®²à®±": 5410,
      "dec": 5411,
      "Ġsec": 5412,
      "operation": 5413,
      "truc": 5414,
      "Ġwork": 5415,
      "ĠAsbos": 5416,
      "ernment": 5417,
      "ĠRoad": 5418,
      "lande": 5419,
      "ities": 5420,
      "CTIMST": 5421,
      "press": 5422,
      "DBT": 5423,
      "margin": 5424,
      "ĠDemocracy": 5425,
      "ĠBerlin": 5426,
      "ĠWhig": 5427,
      "ĠStratfor": 5428,
      "ĠMSME": 5429,
      "inique": 5430,
      "ĠMinister": 5431,
      "ĠCovidIndiaSeva": 5432,
      "ĠBusiness": 5433,
      "ĠHollande": 5434,
      "Ġmargin": 5435,
      "tellig": 5436,
      "ĠICFI": 5437,
      "iemens": 5438,
      "'.": 5439,
      "403": 5440,
      "AG": 5441,
      "App": 5442,
      "Con": 5443,
      "Do": 5444,
      "Def": 5445,
      "OS": 5446,
      "OIndia": 5447,
      "PJ": 5448,
      "TI": 5449,
      "ban": 5450,
      "cov": 5451,
      "dr": 5452,
      "gn": 5453,
      "geme": 5454,
      "iy": 5455,
      "ky": 5456,
      "lan": 5457,
      "Ġtr": 5458,
      "à¯įâĢĵ": 5459,
      "à¯ģà®¾": 5460,
      "à®ķà®ķà®°à®®": 5461,
      "à®ªà®ķà®ķ": 5462,
      "à®®à®£à®Ļ": 5463,
      "à®²à®¯à®ª": 5464,
      "à®¯à®Łà®ķ": 5465,
      "Ġà®ªà®¤à®°": 5466,
      "Ġà®ķà®ľà®ķ": 5467,
      "à®¨à®®à®ķ": 5468,
      "à®¨à®²à®ª": 5469,
      "Ġà®ļà®ķà®µ": 5470,
      "Ġà®ĩà®©à®°": 5471,
      "Ġà®¨à®²à®ķ": 5472,
      "Ġà®¨à®Łà®©à®Ļ": 5473,
      "à¯į,,": 5474,
      "Ġà®Ĩà®®à®¤": 5475,
      "Ġà®Ĩà®µà®Ł": 5476,
      "à¯ģ.'": 5477,
      "à®¤à®²à®Ł": 5478,
      "à®¸à®®": 5479,
      "à®ľà®Ł": 5480,
      "à®ľà®µ": 5481,
      "à®ķà®Łà®±": 5482,
      "à®İà®¯": 5483,
      "Ġà®Ĩà®©à®ª": 5484,
      "Ġà®ļà®Łà®²à®®": 5485,
      "Ġà®ĵà®ªà®°": 5486,
      "Ġ1925": 5487,
      "à®ĩà®İà®®": 5488,
      "Ġà®İà®´à®ķ": 5489,
      "Ġà®īà®¤à®¯à®¤": 5490,
      "Ġà®¨à®ķà®°à®ķ": 5491,
      "ĠChe": 5492,
      "ĠSwachh": 5493,
      "ino": 5494,
      "Ġà®ªà®´à®ļ": 5495,
      "à¯ĩ.\"": 5496,
      "ĠPUK": 5497,
      "Ġ8000": 5498,
      "ĠMer": 5499,
      "ĠBi": 5500,
      "ĠBes": 5501,
      "ĠBCM": 5502,
      "Ġà®ķà®©à®©": 5503,
      "ĠIC": 5504,
      "ĠIR": 5505,
      "Ġà®µà®©à®ļ": 5506,
      "ĠFried": 5507,
      "Ġ305": 5508,
      "ĠDom": 5509,
      "ĠDawn": 5510,
      "ĠNou": 5511,
      "Ġ185": 5512,
      "Ġà®Ĭà®Łà®ķà®ļ": 5513,
      "Ġ144": 5514,
      "Ġ147": 5515,
      "ĠHist": 5516,
      "Ġ177": 5517,
      "Ġ178": 5518,
      "Ġ1600": 5519,
      "ĠUDF": 5520,
      "\">\"": 5521,
      "ĠOl": 5522,
      "à®¿).": 5523,
      "unt": 5524,
      "125": 5525,
      "heit": 5526,
      "ocal": 5527,
      "à¯ģ?\"": 5528,
      "ability": 5529,
      "ional": 5530,
      "ĠLeague": 5531,
      "ĠHealth": 5532,
      "Ġà®ªà®¯à®ªà®ķ": 5533,
      "ĠPSA": 5534,
      "Ġà®®à®°à®£à®ļ": 5535,
      "achs": 5536,
      "ichheit": 5537,
      "ĠForum": 5538,
      "ppe": 5539,
      "ainst": 5540,
      "ashid": 5541,
      "ITI": 5542,
      "ĠOuvriere": 5543,
      "ĠCOSATU": 5544,
      "à®īà®²à®ķà®ª": 5545,
      "ĠGeM": 5546,
      "United": 5547,
      "ĠAcc": 5548,
      "Ã¤ub": 5549,
      "ĠErsin": 5550,
      "FranÃ§ois": 5551,
      "lenchon": 5552,
      "ĠMinistry": 5553,
      "ĠBasque": 5554,
      "ĠMÃ©lenchon": 5555,
      "ĠNSDAP": 5556,
      "ĠProgramme": 5557,
      "rotsky": 5558,
      "AB": 5559,
      "Car": 5560,
      "DY": 5561,
      "Dem": 5562,
      "EE": 5563,
      "EL": 5564,
      "For": 5565,
      "IH": 5566,
      "KA": 5567,
      "Mich": 5568,
      "NF": 5569,
      "NH": 5570,
      "PCR": 5571,
      "RF": 5572,
      "YRI": 5573,
      "bun": 5574,
      "ction": 5575,
      "comm": 5576,
      "covid": 5577,
      "ners": 5578,
      "port": 5579,
      "zh": 5580,
      "Ġ/": 5581,
      "Ġ|": 5582,
      "Ġra": 5583,
      "Ġac": 5584,
      "à®¿``": 5585,
      "à®ķà®ļà®®": 5586,
      "à®¤à®µà®¤à®±": 5587,
      "à®¾à¯į": 5588,
      "à®Łà®µà®®": 5589,
      "à®®à®ķà®¤": 5590,
      "à®±à®£": 5591,
      "à®¯à®ļà®°": 5592,
      "à®³à®¹à®µ": 5593,
      "Ġà®ªà®¯à®²": 5594,
      "Ġà®®à®¯à®ª": 5595,
      "à®£à®¯à®ļ": 5596,
      "à®£à®¨à®²à®©": 5597,
      "Ġà®ļà®ķà®¤": 5598,
      "Ġà®¨à®ŀ": 5599,
      "à¯Ģ:": 5600,
      "à¯Ĭ.": 5601,
      "à®µà®°à®Ł": 5602,
      "Ġà®Ĩà®ķà®ª": 5603,
      "Ġà®ĩà®°à®ľ": 5604,
      "Ġà®®à®±à®ª": 5605,
      "à®¤à®²à®³": 5606,
      "à®©à®°à®ķà®®": 5607,
      "Ġà®ļà®®à®¯à®ª": 5608,
      "à®²à®¤à®©à®ķ": 5609,
      "à®¯à®©à®ķ": 5610,
      "Ġà®®à®ķà®ļ": 5611,
      "à®¯à®ķà®Ł": 5612,
      "Ġà®Łà®²": 5613,
      "Ġà®ħà®²à®ª": 5614,
      "Ġà®ªà®°à®µà®¤": 5615,
      "Ġà®ĩà®©à®ļ": 5616,
      "Ġà®Ĳà®©": 5617,
      "à®ķà®Łà®µà®³": 5618,
      "Ġà®Īà®©": 5619,
      "à®ķà®²à®ļ": 5620,
      "à®¿.\"": 5621,
      "Ġà®ħà®µà®²à®Ļ": 5622,
      "à®®à®©à®ļ": 5623,
      "à®µà®²à®ķà®ª": 5624,
      "à®¯à®µà®³": 5625,
      "Ġà®ĵà®¨": 5626,
      "à®ĩà®¯à®²": 5627,
      "à®ħà®®à®°": 5628,
      "à®ħà®ķà®®à®¤": 5629,
      "Ġà®®à®£à®®à®ķà®³": 5630,
      "à®ªà®®à®±": 5631,
      "Ġ420": 5632,
      "à®ªà®²à®°": 5633,
      "à®ªà®©à®µà®±": 5634,
      "1990": 5635,
      "Ġ630": 5636,
      "ĠCPA": 5637,
      "ĠClaude": 5638,
      "ĠCross": 5639,
      "ĠSimon": 5640,
      "inh": 5641,
      "arg": 5642,
      "arch": 5643,
      "à®ªà®µà®³": 5644,
      "Ġà®¨à®°à®ľ": 5645,
      "ĠPierre": 5646,
      ".....": 5647,
      "ales": 5648,
      "ĠAVSM": 5649,
      "Ġ153": 5650,
      "à®¨à®°à®ķà®®": 5651,
      "ĠMay": 5652,
      "ĠMir": 5653,
      "ĠModi": 5654,
      "ĠBild": 5655,
      "ĠLRU": 5656,
      "Ġà®īà®´à®µà®©": 5657,
      "180": 5658,
      "ĠNov": 5659,
      "ĠNSSP": 5660,
      "ĠNPC": 5661,
      "ĠTop": 5662,
      "ĠTNA": 5663,
      "ĠGer": 5664,
      "ĠGle": 5665,
      "Ġ254": 5666,
      "ĠRu": 5667,
      "ĠRou": 5668,
      "à¯į?''": 5669,
      "Ġ186": 5670,
      "Ġ131": 5671,
      "Ġ146": 5672,
      "itter": 5673,
      "ĠHam": 5674,
      "à®ķà®¨à®²à®ļ": 5675,
      "Ġ171": 5676,
      "175": 5677,
      "oui": 5678,
      "amber": 5679,
      "ĠOff": 5680,
      "Ġ224": 5681,
      "ĠKur": 5682,
      "ĠJacques": 5683,
      "ets": 5684,
      "ett": 5685,
      "à®¯à®ķà®®à®±": 5686,
      "ĠInvest": 5687,
      "edom": 5688,
      "Ġsp": 5689,
      "Ġsch": 5690,
      "emb": 5691,
      "ĠVan": 5692,
      "ĠVille": 5693,
      "ĠVinc": 5694,
      "Ġà®ļà®®à®°à®ļà®®à®±": 5695,
      "oct": 5696,
      "ulti": 5697,
      "Ġà®ľà®²à®·": 5698,
      "artment": 5699,
      "à®Łà®¨à®®": 5700,
      "eck": 5701,
      "ĠLeft": 5702,
      "-----": 5703,
      "tical": 5704,
      "Ġpp": 5705,
      "ĠStates": 5706,
      "Ġ338": 5707,
      "Ġcont": 5708,
      "akh": 5709,
      "ivil": 5710,
      "avier": 5711,
      "à®Ĭà®°": 5712,
      "Ġncov": 5713,
      "ĠAsia": 5714,
      "ĠScheme": 5715,
      "IDS": 5716,
      "ĠMonitor": 5717,
      "ĠParis": 5718,
      "Ġà®¤à®Łà®®à®±": 5719,
      "ĠIGM": 5720,
      "Ġvon": 5721,
      "annel": 5722,
      "Ġà®µà®Łà®ªà®´à®©": 5723,
      "ĠRevolutionnaire": 5724,
      "roso": 5725,
      "ĠPolice": 5726,
      "ĠBarroso": 5727,
      "ĠIslam": 5728,
      "Marie": 5729,
      "ĠChrysler": 5730,
      "ĠScien": 5731,
      "vention": 5732,
      "CoV": 5733,
      "ential": 5734,
      "oundation": 5735,
      "iroix": 5736,
      "SLFP": 5737,
      "ĠAznar": 5738,
      "ĠRadio": 5739,
      "ĠEurope": 5740,
      "idarity": 5741,
      "ĠAbhiyan": 5742,
      "telligence": 5743,
      "ĠNouvel": 5744,
      "ĠMirror": 5745,
      "))": 5746,
      "3000": 5747,
      "550": 5748,
      "Ab": 5749,
      "Ad": 5750,
      "Americ": 5751,
      "BM": 5752,
      "BR": 5753,
      "DO": 5754,
      "Ed": 5755,
      "FTA": 5756,
      "Green": 5757,
      "Human": 5758,
      "JM": 5759,
      "Sp": 5760,
      "SCO": 5761,
      "Te": 5762,
      "Top": 5763,
      "Tah": 5764,
      "Ver": 5765,
      "bro": 5766,
      "bank": 5767,
      "din": 5768,
      "gress": 5769,
      "hai": 5770,
      "ij": 5771,
      "ira": 5772,
      "ject": 5773,
      "kar": 5774,
      "ling": 5775,
      "ote": 5776,
      "phan": 5777,
      "uan": 5778,
      "uce": 5779,
      "wa": 5780,
      "war": 5781,
      "yd": 5782,
      "Ġet": 5783,
      "Ġiii": 5784,
      "à®ķà®¹": 5785,
      "à®Łà®µà®ķ": 5786,
      "à®®à®³à®¤": 5787,
      "à®®à®ļà®Ļ": 5788,
      "à®©à®µà®ķ": 5789,
      "à®²à®ħà®Ł": 5790,
      "à®³à®²à®°": 5791,
      "à®µà®µà®ļà®©à®¤": 5792,
      "à®ķà®³à®Ļ": 5793,
      "à¯ĩâĢĻ": 5794,
      "à®ļà®ķà®µ": 5795,
      "à®ļà®°à®®": 5796,
      "à®ļà®Łà®Ļ": 5797,
      "Ġà®¤à®¸": 5798,
      "Ġà®ļà®ļà®¸": 5799,
      "Ġà®¨à®ķà®ļ": 5800,
      "Ġà®¨à®µà®¨": 5801,
      "Ġà®İà®µà®±": 5802,
      "Ġà®īà®ªà®ķ": 5803,
      "à¯į.&": 5804,
      "à®¸à®¸": 5805,
      "à®°à®ļà®µà®¤": 5806,
      "à®©à®°à®Ļ": 5807,
      "à®¯à®²à®¤": 5808,
      "à®¯à®²à®ļ": 5809,
      "Ġà®¨à®Łà®ªà®Ł": 5810,
      "à®·à®ļ": 5811,
      "à®·à®£à®®": 5812,
      "à®ľà®¯à®ļ": 5813,
      "à®¤à®µà®´": 5814,
      "Ġà®ħà®³à®µà®±": 5815,
      "Ġ((": 5816,
      "Ġ(âĢĺ": 5817,
      "Ġà®ªà®²à®Ł": 5818,
      "Ġà®ªà®Łà®ļ": 5819,
      "à®¤à®©à®ķ": 5820,
      "à®¤à®ķà®¯": 5821,
      "Ġà®ªà®°à®ķ": 5822,
      "Ġ2040": 5823,
      "Ġà®Ĳà®·": 5824,
      "Ġà®Ĳà®ıà®İà®¸": 5825,
      "Ġà®Ĳà®Ĳà®Ĳà®Ł": 5826,
      "Ġà®²à®ª": 5827,
      "à®Łà®ķà®ķ": 5828,
      "Ġà®ħà®ªà®¯": 5829,
      "Ġà®ħà®µà®²": 5830,
      "Ġà®ħà®´à®±": 5831,
      "à®°à®ªà®¨": 5832,
      "Ġà®ĵà®²à®®": 5833,
      "Ġ193": 5834,
      "Ġ1924": 5835,
      "Ġ1934": 5836,
      "à®ĩà®³à®®": 5837,
      "Ġà®İà®´à®µ": 5838,
      "à®Ĩà®¨": 5839,
      "à®Ĩà®ªà®¤": 5840,
      "à®Ĩà®·": 5841,
      "à®ħà®°à®µ": 5842,
      "Ġà®®à®£à®ª": 5843,
      "Ġ640": 5844,
      "âĢĿ-": 5845,
      "ĠCle": 5846,
      "ĠCIO": 5847,
      "ĠSal": 5848,
      "ĠSYRI": 5849,
      "inn": 5850,
      "Ġà®¤à®µà®³": 5851,
      "ĠPH": 5852,
      "ĠAC": 5853,
      "ĠAI": 5854,
      "ĠAlain": 5855,
      "Ġ152": 5856,
      "orp": 5857,
      "til": 5858,
      "ĠMur": 5859,
      "Ġà®®à®²à®Ł": 5860,
      "à®īà®®": 5861,
      "à®īà®ļ": 5862,
      "ĠLuc": 5863,
      "ĠISA": 5864,
      "Ġ1100": 5865,
      "ĠFox": 5866,
      "ĠDaniel": 5867,
      "ĠNa": 5868,
      "ĠRCF": 5869,
      "ĠRaj": 5870,
      "ĠRuss": 5871,
      "elec": 5872,
      "its": 5873,
      "itch": 5874,
      "ĠHRE": 5875,
      "ature": 5876,
      "Ġ1700": 5877,
      "Ġ167": 5878,
      "Ġà®īà®ªà®ķà®£": 5879,
      "Ġà®¤à®°à®®à®±": 5880,
      "ĠEDF": 5881,
      "ĠWest": 5882,
      "à®¨à®Łà®¨": 5883,
      "Ġ405": 5884,
      "adt": 5885,
      "ĠOf": 5886,
      "rip": 5887,
      "à®®à®£à®©": 5888,
      "ĠKe": 5889,
      "Ġ286": 5890,
      "unist": 5891,
      "ural": 5892,
      "imler": 5893,
      "à®¯à®¨à®²à®®à®±": 5894,
      "query": 5895,
      "à®ĥà®ªà®©": 5896,
      "à¯į......": 5897,
      "ief": 5898,
      "ions": 5899,
      "otal": 5900,
      "135": 5901,
      "ĠCPP": 5902,
      "ists": 5903,
      "CIL": 5904,
      "ĠStan": 5905,
      "Ġà®®à®°à®£à®ª": 5906,
      "april": 5907,
      "ĠReal": 5908,
      "illon": 5909,
      "Ġà®µà®°à®¤à®°": 5910,
      "TAC": 5911,
      "Ġby": 5912,
      "ĠAnal": 5913,
      "à®°à®°à®ļà®°": 5914,
      "PPE": 5915,
      "PSOE": 5916,
      "Ġà®ķà®©à®°à®ķà®¤": 5917,
      "NPT": 5918,
      "atives": 5919,
      "SSE": 5920,
      "ĠResp": 5921,
      "MSME": 5922,
      "ureau": 5923,
      "Ġrel": 5924,
      "ĠFATA": 5925,
      "IMSTEC": 5926,
      "ĠGlobal": 5927,
      "illiam": 5928,
      "Central": 5929,
      "Ġà®Ĩà®ļà®©à®µ": 5930,
      "Ġtechnical": 5931,
      "ĠSerge": 5932,
      "ĠAuto": 5933,
      "oomberg": 5934,
      "ĠClairoix": 5935,
      "ĠDetroit": 5936,
      "Ġtechnicalquery": 5937,
      ")<": 5938,
      "320": 5939,
      "AF": 5940,
      "As": 5941,
      "BU": 5942,
      "Col": 5943,
      "Director": 5944,
      "EG": 5945,
      "Europ": 5946,
      "FAC": 5947,
      "Gu": 5948,
      "MI": 5949,
      "My": 5950,
      "Med": 5951,
      "NV": 5952,
      "SDG": 5953,
      "TV": 5954,
      "UC": 5955,
      "UAW": 5956,
      "YC": 5957,
      "bign": 5958,
      "cs": 5959,
      "dn": 5960,
      "gmail": 5961,
      "lus": 5962,
      "oth": 5963,
      "pd": 5964,
      "pas": 5965,
      "rit": 5966,
      "rov": 5967,
      "sl": 5968,
      "uà®ķ": 5969,
      "word": 5970,
      "yal": 5971,
      "Ġ=": 5972,
      "Ġor": 5973,
      "Ġres": 5974,
      "à®ķà®ħà®¤": 5975,
      "à®Łà®²à®ķ": 5976,
      "à®ªà®±à®ķ": 5977,
      "à®ªà®³à®ķ": 5978,
      "à®ªà®Ĩà®²": 5979,
      "à®©à®Łà®°": 5980,
      "Ġà®ķà®ªà®Łà®®": 5981,
      "à®ļà®ķà®©": 5982,
      "Ġà®ļà®¤à®®": 5983,
      "Ġà®ļà®©à®ķ": 5984,
      "Ġà®ĩà®¤à®²": 5985,
      "Ġà®¨à®¯à®®à®±": 5986,
      "à®´à®Ł": 5987,
      "à¯Ĥ)": 5988,
      "Ġà®Ĩà®°à®¤": 5989,
      "Ġà®Ĵà®ªà®¤": 5990,
      "Ġà®ıà®İà®¸": 5991,
      "à®Łà®®à®²": 5992,
      "Ġà®ľà®²à®¨": 5993,
      "à®³à®°à®®": 5994,
      "Ġà®°à®ķà®ª": 5995,
      "à®·à®°à®ª": 5996,
      "à®¯à®®à®£": 5997,
      "à®ľà®¯à®²à®Ł": 5998,
      "Ġà®ļà®®à®·": 5999,
      "Ġà®ªà®²à®µà®°": 6000,
      "à®®à®¤à®ķ": 6001,
      "Ġà®Ĭà®³": 6002,
      "Ġà®Īà®¯": 6003,
      "à®µà®²à®ª": 6004,
      "Ġ330": 6005,
      "Ġ1919": 6006,
      "Ġ1937": 6007,
      "Ġà®ļà®ķà®ľà®®": 6008,
      "à®ĩà®°à®Ł": 6009,
      "à®ķà®©à®ļ": 6010,
      "à®Ĩà®´à®®": 6011,
      "à®°à®ķà®£à®®": 6012,
      "à®ħà®°à®ª": 6013,
      "Ġ415": 6014,
      "Ġ425": 6015,
      "ering": 6016,
      "Ġà®Ĩà®²à®ª": 6017,
      "ĠCZ": 6018,
      "ĠCity": 6019,
      "ĠClear": 6020,
      "ĠSyn": 6021,
      "ĠSachs": 6022,
      "ink": 6023,
      "ince": 6024,
      "à®Ĳà®İà®©": 6025,
      "ĠPen": 6026,
      "ĠPlace": 6027,
      "ĠAh": 6028,
      "Ġ154": 6029,
      "Ġ156": 6030,
      "ĠMal": 6031,
      "ĠMas": 6032,
      "ĠMah": 6033,
      "ĠMaj": 6034,
      "ĠMoham": 6035,
      "ese": 6036,
      "ĠBill": 6037,
      "Ġ12000": 6038,
      "Ġà®®à®²à®ļà®²à®ķ": 6039,
      "ĠLSSP": 6040,
      "ĠImp": 6041,
      "ĠFar": 6042,
      "ĠDNA": 6043,
      "ĠNC": 6044,
      "ĠTim": 6045,
      "ĠTbilisi": 6046,
      "ĠGo": 6047,
      "ĠGold": 6048,
      "ĠGreen": 6049,
      "ĠRas": 6050,
      "real": 6051,
      "Ġà®ĩà®¯à®²à®ķ": 6052,
      "ĠHo": 6053,
      "ĠHague": 6054,
      "ato": 6055,
      "à¯į!'": 6056,
      "à¯į!)": 6057,
      "ĠWen": 6058,
      "ĠUK": 6059,
      "Ġ223": 6060,
      "ĠKh": 6061,
      "ĠKing": 6062,
      "ĠKDP": 6063,
      "à®ĵà®µ": 6064,
      "cean": 6065,
      "Ġà®ªà®²à®®à®Łà®Ļ": 6066,
      "igital": 6067,
      "ĠIntelligence": 6068,
      "Ġfur": 6069,
      "rah": 6070,
      "rain": 6071,
      "à¯ģâĢĿ,": 6072,
      "à®ªà®°à®®à®ļ": 6073,
      "ida": 6074,
      "ider": 6075,
      "ĠChannel": 6076,
      "Ġ1954": 6077,
      "artners": 6078,
      "owell": 6079,
      "schau": 6080,
      "tuyn": 6081,
      "ouncil": 6082,
      "à®Ĭà®Ł": 6083,
      "IIT": 6084,
      "ĠFortuyn": 6085,
      "ĠSchÃ¤ub": 6086,
      "oke": 6087,
      "PMJ": 6088,
      "ĠArn": 6089,
      "ĠPML": 6090,
      "ĠAbd": 6091,
      "ĠLaurent": 6092,
      "ĠAgreement": 6093,
      "ĠPeople": 6094,
      "ĠBloomberg": 6095,
      "indows": 6096,
      "oussa": 6097,
      "uelle": 6098,
      "ussen": 6099,
      "ĠESIC": 6100,
      "ĠMichel": 6101,
      "ĠStrateg": 6102,
      "oulouse": 6103,
      "========": 6104,
      "à®ªà®ķà®°à®£": 6105,
      "ĠEmploy": 6106,
      "ĠUSSR": 6107,
      "ĠOrganisation": 6108,
      "Operation": 6109,
      "sportindia": 6110,
      "ĠEngland": 6111,
      "ĠDaimler": 6112,
      "ĠNahles": 6113,
      "ĠWelt": 6114,
      "ĠSoziale": 6115,
      "ĠFischer": 6116,
      "gemeine": 6117,
      "ashidze": 6118,
      "Tahoma": 6119,
      "ĠSYRIZA": 6120,
      "ĠISAF": 6121,
      "European": 6122,
      "bigniew": 6123,
      "passportindia": 6124,
      "ĠSchÃ¤uble": 6125,
      "**": 6126,
      "450": 6127,
      "CCP": 6128,
      "DGB": 6129,
      "Dep": 6130,
      "FA": 6131,
      "Go": 6132,
      "KS": 6133,
      "La": 6134,
      "Ligue": 6135,
      "NDA": 6136,
      "OECD": 6137,
      "Qu": 6138,
      "SPA": 6139,
      "TP": 6140,
      "Work": 6141,
      "bar": 6142,
      "bus": 6143,
      "do": 6144,
      "down": 6145,
      "fa": 6146,
      "fo": 6147,
      "gren": 6148,
      "ji": 6149,
      "lis": 6150,
      "lum": 6151,
      "nan": 6152,
      "narendramodi": 6153,
      "per": 6154,
      "tà®µ": 6155,
      "ting": 6156,
      "ual": 6157,
      "uters": 6158,
      "vili": 6159,
      "Ġ!": 6160,
      "Ġat": 6161,
      "ĠÃ¤": 6162,
      "à¯į`": 6163,
      "à®¤à®ļà®©": 6164,
      "à®¤à®ļà®Ļ": 6165,
      "à®¤à®±à®²": 6166,
      "à®©à®²à®®": 6167,
      "à®©à®ªà®°": 6168,
      "à®³à®¯": 6169,
      "à®µà®ľà®²": 6170,
      "Ġà®ªà®³à®ª": 6171,
      "Ġà®ķà®±à®¨": 6172,
      "à®ļà®©à®°": 6173,
      "à®ļà®£à®®": 6174,
      "à®ļà®®à®°à®Ļ": 6175,
      "Ġà®¤à®¹": 6176,
      "à®¨à®ª": 6177,
      "à®£à®£": 6178,
      "à¯į,.": 6179,
      "Ġà®Ĵà®®à®°": 6180,
      "à®°à®ļà®µà®®": 6181,
      "à®³à®¤à®°": 6182,
      "à®Łà®®à®©à®¤": 6183,
      "Ġà®°à®ķà®¤": 6184,
      "à®·à®®à®Ł": 6185,
      "à®°à®®à®¯à®ª": 6186,
      "à®¤à®°à®£à®®": 6187,
      "à®¯à®®à®Ļ": 6188,
      "à®¤à®®à®¯à®®": 6189,
      "Ġà®Łà®Ļ": 6190,
      "Ġà®Łà®µà®°": 6191,
      "à®ªà®°à®°": 6192,
      "Ġ\"(": 6193,
      "Ġà®ķà®£à®Ļ": 6194,
      "à®°à®£à®°": 6195,
      "Ġ2033": 6196,
      "Ġà®īà®£à®°à®¤": 6197,
      "à®ķà®Łà®ķ": 6198,
      "Ġà®ªà®¤à®ŀ": 6199,
      "à®¿.),": 6200,
      "Ġà®®à®©à®®à®Ł": 6201,
      "à®İà®µà®°": 6202,
      "Ġà®¹à®¯": 6203,
      "Ġà®ĩà®Łà®µà®ļà®¤": 6204,
      "Ġà®Ĩà®©à®ªà®Ł": 6205,
      "à®¯à®µà®Ļ": 6206,
      "Ġà®ĵà®Łà®ķ": 6207,
      "Ġ1926": 6208,
      "2025": 6209,
      "Ġà®īà®¤à®¯à®¨": 6210,
      "à®£à®®à®±": 6211,
      "1996": 6212,
      "à¯į):": 6213,
      "ĠCIS": 6214,
      "ĠCiti": 6215,
      "ĠSur": 6216,
      "ĠSAS": 6217,
      "ĠSaint": 6218,
      "ĠSCIRI": 6219,
      "ĠSgren": 6220,
      "ination": 6221,
      "inos": 6222,
      "arq": 6223,
      "à®Ĳà®ľ": 6224,
      "ĠPIF": 6225,
      "ĠPlat": 6226,
      "enis": 6227,
      "enne": 6228,
      "ĠAustral": 6229,
      "Ġ158": 6230,
      "ĠMI": 6231,
      "ĠMot": 6232,
      "ĠBun": 6233,
      "ĠBio": 6234,
      "à®īà®¸": 6235,
      "ĠLi": 6236,
      "ĠFSU": 6237,
      "ĠDu": 6238,
      "ĠDSP": 6239,
      "ĠDuel": 6240,
      "ĠNWFP": 6241,
      "cht": 6242,
      "ĠTV": 6243,
      "ĠTest": 6244,
      "ĠGra": 6245,
      "ĠGDB": 6246,
      "ĠRob": 6247,
      "ĠRund": 6248,
      "Ġ1300": 6249,
      "Ġ143": 6250,
      "rep": 6251,
      "ĠHRW": 6252,
      "ĠHinch": 6253,
      "à®ķà®¨à®²à®¤": 6254,
      "à®ķà®¨à®²à®©": 6255,
      "Ġ242": 6256,
      "Ġ247": 6257,
      "icol": 6258,
      "Ġ1776": 6259,
      "omi": 6260,
      "Ġ215": 6261,
      "ĠEur": 6262,
      "ĠElectr": 6263,
      "ĠWatch": 6264,
      "ouv": 6265,
      "asse": 6266,
      "ĠOut": 6267,
      "ĠOcean": 6268,
      "Ġ310": 6269,
      "rim": 6270,
      "ĠKLM": 6271,
      "ĠJi": 6272,
      "led": 6273,
      "div": 6274,
      "Ġ260": 6275,
      "105": 6276,
      "Ġ270": 6277,
      "emic": 6278,
      "à¯Ī).": 6279,
      "agon": 6280,
      "spac": 6281,
      "Ġ1943": 6282,
      "ulture": 6283,
      "PAT": 6284,
      "ĠChamber": 6285,
      "iber": 6286,
      "ecial": 6287,
      "ĠLeon": 6288,
      "Ġà®ĩà®²à®µà®ļà®ķ": 6289,
      "CII": 6290,
      "Ġcon": 6291,
      "Ġcomp": 6292,
      "Ġà®ªà®°à®¤à®©": 6293,
      "Ġà®ªà®°à®¤à®¨": 6294,
      "ICMR": 6295,
      "ahi": 6296,
      "odern": 6297,
      "à®ªà®ķà®²à®ļà®Ļ": 6298,
      "tud": 6299,
      "à®¾âĢĻ,": 6300,
      "à®Ĭà®´à®²": 6301,
      "MANG": 6302,
      "ucation": 6303,
      "ĠAsh": 6304,
      "ĠMarc": 6305,
      "ĠShim": 6306,
      "à¯ĪâĢĻâĢĻ": 6307,
      "à®ħà®µà®ļà®°": 6308,
      "ĠRoyal": 6309,
      "phen": 6310,
      "Ã¼ck": 6311,
      "risis": 6312,
      "lands": 6313,
      "ĠAbashidze": 6314,
      "ĠProduc": 6315,
      "mailto": 6316,
      "ĠCooperation": 6317,
      "ĠAdam": 6318,
      "ksw": 6319,
      "ĠFreedom": 6320,
      "ĠIsmail": 6321,
      "aise": 6322,
      "lection": 6323,
      "ĠWhite": 6324,
      "Ġà®ĩà®Łà®±à®²à®Ł": 6325,
      "rorism": 6326,
      "Ã©ration": 6327,
      "airs": 6328,
      "Ġà®Ĭà®ķà®µà®£": 6329,
      "ĠSLFP": 6330,
      "ĠScottish": 6331,
      "ĠISO": 6332,
      "Real": 6333,
      "ĠChristop": 6334,
      "ĠAngeles": 6335,
      "ĠSNCF": 6336,
      "ĠAreva": 6337,
      "ĠGleichheit": 6338,
      "ĠVillepin": 6339,
      "American": 6340,
      "à®ªà®Ĩà®²à®¯à®Ļ": 6341,
      "oussaoui": 6342,
      "ĠSgrena": 6343,
      "ĠDuelfer": 6344,
      "ĠRundschau": 6345,
      "spacing": 6346,
      ")\"": 6347,
      ".),": 6348,
      "020": 6349,
      "050": 6350,
      "EMA": 6351,
      "GK": 6352,
      "GO": 6353,
      "KE": 6354,
      "NU": 6355,
      "NBC": 6356,
      "USA": 6357,
      "VI": 6358,
      "aan": 6359,
      "bes": 6360,
      "cgi": 6361,
      "ees": 6362,
      "lob": 6363,
      "mm": 6364,
      "mas": 6365,
      "pol": 6366,
      "ru": 6367,
      "uh": 6368,
      "ues": 6369,
      "vy": 6370,
      "vard": 6371,
      "ward": 6372,
      "ways": 6373,
      "Ã«": 6374,
      "Ġ?": 6375,
      "Ġz": 6376,
      "à¯ģ<": 6377,
      "à®ķà®ªà®¤": 6378,
      "à®¤à®³à®°": 6379,
      "à®¤à®ļà®¤": 6380,
      "à®¤à®£à®©": 6381,
      "à®°à®µà®ķ": 6382,
      "à®ªà®¯à®±": 6383,
      "à®ªà®¹": 6384,
      "à®²à®ªà®Ł": 6385,
      "à®¯à®ªà®°": 6386,
      "à®³à®³": 6387,
      "à®³à®µà®¤à®±": 6388,
      "à®³à®µà®Ł": 6389,
      "Ġà®ªà®ķà®°": 6390,
      "Ġà®ķà®©à®µà®°": 6391,
      "à®£à®¨": 6392,
      "Ġà®ļà®°à®ļ": 6393,
      "Ġà®īà®®à®°": 6394,
      "Ġà®Ĩà®µà®©": 6395,
      "Ġà®Ĩà®ŀ": 6396,
      "à®Łà®¤à®ķ": 6397,
      "Ġà®Ĵà®°à®³à®µ": 6398,
      "Ġà®ĩà®¤à®°à®¤": 6399,
      "à®ķà®µà®³": 6400,
      "Ġà®ķà®²à®ļà®¤": 6401,
      "Ġà®Ĭà®Łà®Ļ": 6402,
      "Ġà®Ĭà®ķà®ļ": 6403,
      "Ġ209": 6404,
      "Ġà®Ĳà®µ": 6405,
      "Ġà®Ĳà®Ĳà®İà®¸": 6406,
      "Ġà®īà®£à®°à®®": 6407,
      "Ġà®Īà®ļà®²": 6408,
      "Ġà®ħà®µà®²à®®": 6409,
      "à®ļà®²à®¸": 6410,
      "Ġ325": 6411,
      "Ġà®ĵà®°à®£": 6412,
      "Ġà®īà®¯à®°à®µ": 6413,
      "Ġ1900": 6414,
      "à®ĩà®°à®¤": 6415,
      "à®ĩà®Łà®®": 6416,
      "à®ĩà®±à®ª": 6417,
      "2011": 6418,
      "Ġà®īà®¤à®¯à®ķ": 6419,
      "à®°à®ķà®£à®¤": 6420,
      "Ġ585": 6421,
      "à®ªà®®à®£": 6422,
      "Ġà®ħà®ļà®¨": 6423,
      "erry": 6424,
      "Ġà®Ĩà®²à®¯": 6425,
      "Ġà®·à®¤": 6426,
      "ĠCenter": 6427,
      "ĠCEO": 6428,
      "ĠCredit": 6429,
      "ĠSil": 6430,
      "ĠSIT": 6431,
      "ĠSaf": 6432,
      "ĠSiemens": 6433,
      "Ġà®Ĩà®±à®°": 6434,
      "arin": 6435,
      "aretz": 6436,
      "à®Ĳà®µ": 6437,
      "ĠPan": 6438,
      "ĠPDF": 6439,
      "ĠPNG": 6440,
      "ĠPKK": 6441,
      "ĠAv": 6442,
      "Ġ159": 6443,
      "tiv": 6444,
      "Ġà®ķà®µà®£": 6445,
      "ĠMos": 6446,
      "ĠMac": 6447,
      "ĠMob": 6448,
      "ĠMbek": 6449,
      "ĠMoussaoui": 6450,
      "esc": 6451,
      "ĠBor": 6452,
      "ĠBay": 6453,
      "ĠBach": 6454,
      "Ġà®ķà®Łà®²à®Ł": 6455,
      "ĠLie": 6456,
      "ĠLiv": 6457,
      "Ġà®ķà®©à®ķ": 6458,
      "ĠID": 6459,
      "ĠIb": 6460,
      "ĠISSE": 6461,
      "ĠFrench": 6462,
      "ĠDis": 6463,
      "ĠDLC": 6464,
      "ĠNM": 6465,
      "ĠNPT": 6466,
      "chan": 6467,
      "ĠTw": 6468,
      "ĠTreat": 6469,
      "ĠTrotsky": 6470,
      "ĠToulouse": 6471,
      "ĠRel": 6472,
      "ĠRec": 6473,
      "Ġ183": 6474,
      "ita": 6475,
      "ĠHug": 6476,
      "Ġ244": 6477,
      "ica": 6478,
      "icine": 6479,
      "ĠEA": 6480,
      "ĠEm": 6481,
      "ĠWu": 6482,
      "ĠWid": 6483,
      "ĠWeb": 6484,
      "ĠWater": 6485,
      "ĠWeek": 6486,
      "Ġà®ªà®²à®©à®±": 6487,
      "ries": 6488,
      "à®µà®£à®ķ": 6489,
      "ĠKal": 6490,
      "ĠKau": 6491,
      "ĠJun": 6492,
      "à®ĵà®ķ": 6493,
      "à®ĵà®ļ": 6494,
      "104": 6495,
      "Ġ235": 6496,
      "igel": 6497,
      "Ġ272": 6498,
      "Ġfrom": 6499,
      "166": 6500,
      "Ġsupp": 6501,
      "ĠVE": 6502,
      "à¯į...?": 6503,
      "iech": 6504,
      "ibault": 6505,
      "umont": 6506,
      "Ġ365": 6507,
      "ĠRef": 6508,
      "akash": 6509,
      "ĠDev": 6510,
      "ally": 6511,
      "illy": 6512,
      "stadt": 6513,
      "ource": 6514,
      "ASG": 6515,
      "avi": 6516,
      "ments": 6517,
      "ateur": 6518,
      "JPG": 6519,
      "Ġder": 6520,
      "oung": 6521,
      "à®Ĭà®´": 6522,
      "DEDY": 6523,
      "à¯įâĢĻâĢĻ,": 6524,
      "ĠProp": 6525,
      "Ġà®ķà®ľà®ķà®¸": 6526,
      "ISC": 6527,
      "Ġà®µà®Łà®®à®°": 6528,
      "ĠMark": 6529,
      "à®¯à®¤à®³à®ªà®¤": 6530,
      "PPB": 6531,
      "awi": 6532,
      "PML": 6533,
      "stitution": 6534,
      "ĠQuelle": 6535,
      "ĠMetz": 6536,
      "ĠStephan": 6537,
      "ĠStephen": 6538,
      "à®ľà®¯à®¤à®ļà®®": 6539,
      "ĠTrust": 6540,
      "DRF": 6541,
      "DRDO": 6542,
      "ĠLiber": 6543,
      "Christian": 6544,
      "kstein": 6545,
      "IPER": 6546,
      "Anti": 6547,
      "ference": 6548,
      "ĠFDI": 6549,
      "ĠCompany": 6550,
      "ĠUSFI": 6551,
      "ĠSolidarity": 6552,
      "ĠSaakash": 6553,
      "ĠSACP": 6554,
      "ilippe": 6555,
      "ĠKoeh": 6556,
      "ĠFrancois": 6557,
      "ĠGlobe": 6558,
      "Partei": 6559,
      "ĠApna": 6560,
      "ĠJuly": 6561,
      "ĠJames": 6562,
      "UML": 6563,
      "Energy": 6564,
      "ĠLagard": 6565,
      "Robert": 6566,
      "ĠBernard": 6567,
      "ĠAfric": 6568,
      "ĠTribune": 6569,
      "ĠDeutschland": 6570,
      "ĠSwachhata": 6571,
      "ĠBunel": 6572,
      "ĠGDBA": 6573,
      "ĠShimbun": 6574,
      "ĠMbeki": 6575,
      "ĠKoehler": 6576,
      "'-": 6577,
      "220": 6578,
      "5000": 6579,
      "?\"": 6580,
      "At": 6581,
      "CH": 6582,
      "Cons": 6583,
      "FS": 6584,
      "Fr": 6585,
      "Fit": 6586,
      "HF": 6587,
      "HT": 6588,
      "IU": 6589,
      "LP": 6590,
      "MD": 6591,
      "MU": 6592,
      "Net": 6593,
      "OM": 6594,
      "Power": 6595,
      "RM": 6596,
      "RPF": 6597,
      "SLM": 6598,
      "Swachh": 6599,
      "TF": 6600,
      "UMP": 6601,
      "Val": 6602,
      "WA": 6603,
      "WHO": 6604,
      "cl": 6605,
      "eu": 6606,
      "hy": 6607,
      "hof": 6608,
      "ium": 6609,
      "may": 6610,
      "mussen": 6611,
      "nes": 6612,
      "rg": 6613,
      "ued": 6614,
      "yang": 6615,
      "Ã´": 6616,
      "Ġed": 6617,
      "Ġup": 6618,
      "à®¿âĢĵ": 6619,
      "à®¤à®±à®ª": 6620,
      "à®¤à®īà®°": 6621,
      "à®ªà®ľ": 6622,
      "à®®à®²à®¤": 6623,
      "à®©à®´": 6624,
      "à®³à®ķà®°": 6625,
      "Ġà®¤à®µà®¤": 6626,
      "Ġà®¤à®ķà®ļ": 6627,
      "Ġà®ļà®°à®®": 6628,
      "Ġà®İà®·": 6629,
      "Ġà®īà®µà®ķ": 6630,
      "à¯į,'": 6631,
      "à®µà®°à®¯": 6632,
      "à¯ĩà®¾)": 6633,
      "à®¸à®¤": 6634,
      "à®°à®¤à®ļ": 6635,
      "Ġà®µà®°à®£": 6636,
      "Ġà®µà®°à®µà®°": 6637,
      "à®ķà®¤à®®": 6638,
      "Ġà®ĩà®¤à®©à®¤": 6639,
      "Ġà®ľà®ªà®²": 6640,
      "à®ķà®°à®±": 6641,
      "à®¤à®®à®ķ": 6642,
      "à®¤à®®à®¤à®®": 6643,
      "Ġà®ļà®®à®¯à®ķ": 6644,
      "Ġà®ªà®Łà®²à®¤": 6645,
      "Ġ\"<": 6646,
      "Ġà®¯à®ª": 6647,
      "Ġà®ķà®£à®©": 6648,
      "à®°à®£à®®à®²": 6649,
      "Ġà®ªà®ķà®±": 6650,
      "Ġ2035": 6651,
      "Ġà®Ĳà®Ĳà®İà®®": 6652,
      "à®µà®®à®¯à®¤": 6653,
      "Ġà®īà®£à®°à®ķ": 6654,
      "Ġà®Īà®°à®®": 6655,
      "Ġà®ªà®¤à®¨": 6656,
      "Ġà®®à®©à®µà®²": 6657,
      "à®ķà®´à®ķà®ª": 6658,
      "Ġà®ħà®µà®²à®Ł": 6659,
      "Ġà®¹à®¤": 6660,
      "Ġà®īà®¤à®µà®²": 6661,
      "Ġà®Ĩà®©à®µ": 6662,
      "à®²à®µà®ļ": 6663,
      "Ġà®ĵà®Łà®¤": 6664,
      "Ġà®ĵà®İà®©": 6665,
      "Ġ191": 6666,
      "2024": 6667,
      "à®µà®ļà®©à®®": 6668,
      "à¯į\"-": 6669,
      "Ġ560": 6670,
      "à®ħà®ķà®¤": 6671,
      "à®ħà®°à®£": 6672,
      "à®ħà®®à®²": 6673,
      "eri": 6674,
      "ero": 6675,
      "1970": 6676,
      "1989": 6677,
      "à®ķà®ļà®¨": 6678,
      "Ġà®·à®ª": 6679,
      "ĠCC": 6680,
      "ĠCur": 6681,
      "Ġà®ĩà®³à®ķ": 6682,
      "ĠSm": 6683,
      "ĠShi": 6684,
      "ĠSEC": 6685,
      "ĠPad": 6686,
      "ĠPos": 6687,
      "ĠPAT": 6688,
      "ali": 6689,
      "ĠAy": 6690,
      "ĠAug": 6691,
      "ĠAIDS": 6692,
      "Ġ1511": 6693,
      "orm": 6694,
      "tim": 6695,
      "âĢĻ)": 6696,
      "ĠMun": 6697,
      "ĠMass": 6698,
      "ĠMaine": 6699,
      "ĠMoody": 6700,
      "ĠBat": 6701,
      "ĠBla": 6702,
      "ĠBour": 6703,
      "ĠBob": 6704,
      "ĠBureau": 6705,
      "ĠBIMSTEC": 6706,
      "à®ľà®©à®ªà®¤": 6707,
      "à®īà®©à®ķ": 6708,
      "ĠLaw": 6709,
      "ĠLille": 6710,
      "ĠLouis": 6711,
      "à®¤à®ļà®·": 6712,
      "187": 6713,
      "à®ıà®ľ": 6714,
      "ĠDA": 6715,
      "ĠDo": 6716,
      "ĠDST": 6717,
      "ĠDVD": 6718,
      "ĠNPD": 6719,
      "ĠNav": 6720,
      "ĠNCP": 6721,
      "ĠNik": 6722,
      "isan": 6723,
      "ĠTo": 6724,
      "ĠTotal": 6725,
      "ĠGar": 6726,
      "ĠGal": 6727,
      "ĠGood": 6728,
      "Ġ256": 6729,
      "Ġ187": 6730,
      "Ġ137": 6731,
      "Ġ148": 6732,
      "ict": 6733,
      "à®°à®³à®ļ": 6734,
      "Ġ174": 6735,
      "Ġ176": 6736,
      "Ġà®īà®ªà®ļ": 6737,
      "omen": 6738,
      "Ġ044": 6739,
      "ĠEPF": 6740,
      "Ġà®®à®©à®¤à®³à®µ": 6741,
      "asr": 6742,
      "ami": 6743,
      "ĠOs": 6744,
      "ĠOAS": 6745,
      "Ġ226": 6746,
      "109": 6747,
      "ederal": 6748,
      "imm": 6749,
      "à®¯à®¨à®²": 6750,
      "à®¯à®¨à®²à®©": 6751,
      "à¯Ģ.)": 6752,
      "à¯Ģ.,": 6753,
      "Ġà®ªà®²à®¤à®Łà®µ": 6754,
      "160": 6755,
      "124": 6756,
      "ema": 6757,
      "emy": 6758,
      "ember": 6759,
      "erse": 6760,
      "Ġ3500": 6761,
      "ull": 6762,
      "IADMK": 6763,
      "utt": 6764,
      "ibbi": 6765,
      "rant": 6766,
      "ĠZbigniew": 6767,
      "aby": 6768,
      "abka": 6769,
      "240": 6770,
      "ecture": 6771,
      "Ġ372": 6772,
      "Ã©c": 6773,
      "231": 6774,
      "Ġpib": 6775,
      "ĠStud": 6776,
      "ĠYas": 6777,
      "Ġcomm": 6778,
      "Ġcell": 6779,
      "Ġà®ķà®µà®ļà®µ": 6780,
      "Ġà®ħà®¯à®²à®µà®°": 6781,
      "aks": 6782,
      "ĠAli": 6783,
      "scher": 6784,
      "endency": 6785,
      "illion": 6786,
      "ava": 6787,
      "sep": 6788,
      "sey": 6789,
      "à®¾âĢĻâĢĻ": 6790,
      "azar": 6791,
      "à®¿âĢĿ,": 6792,
      "CSR": 6793,
      "ysi": 6794,
      "IRAC": 6795,
      "à®¾!!": 6796,
      "oks": 6797,
      "skar": 6798,
      "ĠEnter": 6799,
      "ĠPark": 6800,
      "rishi": 6801,
      "ĠBox": 6802,
      "ĠBrand": 6803,
      "ĠThibault": 6804,
      "ESF": 6805,
      "ĠTrueNat": 6806,
      "ĠBlack": 6807,
      "ĠBlix": 6808,
      "ization": 6809,
      "ĠAdmin": 6810,
      "arning": 6811,
      "ĠRevolution": 6812,
      "ennes": 6813,
      "ennai": 6814,
      "ociety": 6815,
      "ector": 6816,
      "ĠSecretary": 6817,
      "ĠEconomist": 6818,
      "à®¨à®ķà®°à®ļà®ª": 6819,
      "ĠDiet": 6820,
      "latt": 6821,
      "à®¤à®°à®ļà®®": 6822,
      "elsheim": 6823,
      "Ġà®ªà®°à®µà®ļà®ª": 6824,
      "ĠBSNL": 6825,
      "ĠprÃ©f": 6826,
      "ĠHuber": 6827,
      "GSY": 6828,
      "TRIFED": 6829,
      "ĠPatrick": 6830,
      "ĠIndex": 6831,
      "ĠFrancis": 6832,
      "ĠObserver": 6833,
      "ĠFein": 6834,
      "istration": 6835,
      "Ġagainst": 6836,
      "à®µà®ľà®¨": 6837,
      "ĠDIW": 6838,
      "ĠNetwork": 6839,
      "ĠAdvance": 6840,
      "Ġ009411": 6841,
      "ĠComunist": 6842,
      "ĠDominique": 6843,
      "ĠHistory": 6844,
      "ĠOffice": 6845,
      "arqawi": 6846,
      "kswagen": 6847,
      "ĠEADS": 6848,
      "ĠVEBA": 6849,
      "ĠSaakashvili": 6850,
      "ĠComunista": 6851,
      "!\"": 6852,
      "')": 6853,
      "025": 6854,
      "330": 6855,
      "360": 6856,
      "650": 6857,
      "640": 6858,
      "850": 6859,
      ":-": 6860,
      ">]": 6861,
      "Bea": 6862,
      "Council": 6863,
      "FICCI": 6864,
      "German": 6865,
      "He": 6866,
      "Home": 6867,
      "Jac": 6868,
      "LD": 6869,
      "LDP": 6870,
      "LTR": 6871,
      "MSP": 6872,
      "OC": 6873,
      "On": 6874,
      "Pro": 6875,
      "PKK": 6876,
      "RL": 6877,
      "Rep": 6878,
      "Richard": 6879,
      "Sol": 6880,
      "Sup": 6881,
      "Saint": 6882,
      "VPAT": 6883,
      "World": 6884,
      "WTO": 6885,
      "bour": 6886,
      "ci": 6887,
      "center": 6888,
      "ds": 6889,
      "dana": 6890,
      "equ": 6891,
      "eign": 6892,
      "get": 6893,
      "ipp": 6894,
      "lad": 6895,
      "lant": 6896,
      "men": 6897,
      "morth": 6898,
      "pris": 6899,
      "ring": 6900,
      "sen": 6901,
      "sri": 6902,
      "sman": 6903,
      "uà®®": 6904,
      "ule": 6905,
      "uge": 6906,
      "vo": 6907,
      "was": 6908,
      "Ġà¯Ĩ": 6909,
      "Ġle": 6910,
      "Ġiv": 6911,
      "Ġne": 6912,
      "Ġà®³": 6913,
      "à®ķà®µà®¤": 6914,
      "à®ķà®ķà®µà®ļà®Ļ": 6915,
      "à®¤à®¯à®ķ": 6916,
      "à®°à®Łà®°": 6917,
      "à®Łà®°à®®": 6918,
      "à®ªà®¯à®²": 6919,
      "à®®à®µà®©": 6920,
      "à®©à®ķà®°": 6921,
      "à®²à®ħ": 6922,
      "à®µà®®à®°à®Ļ": 6923,
      "à®ļà®°à®¤": 6924,
      "à®ļà®¹": 6925,
      "Ġà®®à®°à®ļ": 6926,
      "Ġà®®à®©à®°": 6927,
      "Ġà®®à®Łà®®": 6928,
      "Ġà®¤à®¯à®°": 6929,
      "à®¨à®¯": 6930,
      "à®¨à®¯à®®": 6931,
      "à®£à®°à®ª": 6932,
      "Ġà®¨à®Łà®©à®ª": 6933,
      "Ġà®İà®ķà®©": 6934,
      "à®´à®°à®ļ": 6935,
      "à¯Ģ\\": 6936,
      "Ġà®Ĩà®²à®®": 6937,
      "Ġà®İà®©à®ªà®¤": 6938,
      "à¯ģ.,": 6939,
      "Ġà®ĩà®¨à®¤": 6940,
      "Ġà®ħà®®à®°à®µ": 6941,
      "à®©à®°à®ķà®¤": 6942,
      "Ġà®ľà®²à®¸": 6943,
      "à®ķà®°à®Ł": 6944,
      "Ġà®°à®ķà®Ļ": 6945,
      "à®ľà®ķà®¤": 6946,
      "à®¤à®®à®¤à®¤": 6947,
      "Ġà®ħà®©à®Ł": 6948,
      "à®¯à®°à®ª": 6949,
      "à®¯à®°à®²": 6950,
      "à®¯à®©à®©": 6951,
      "Ġà®®à®ķà®¤à®²": 6952,
      "Ġà®ıà®±à®ª": 6953,
      "à®²à®®à®£": 6954,
      "à®®à®°à®ķ": 6955,
      "Ġà®ªà®²à®ķà®Ł": 6956,
      "Ġà®ªà®²à®ķà®£": 6957,
      "Ġà®ħà®²à®°": 6958,
      "Ġà®Ĭà®µ": 6959,
      "Ġà®Ĭà®ķà®ª": 6960,
      "Ġà®Ĳà®©à®¨": 6961,
      "Ġà®²à®¯à®©": 6962,
      "Ġà®ļà®°à®³": 6963,
      "Ġà®ľà®©à®ķà®ª": 6964,
      "Ġà®ħà®ªà®¯à®®": 6965,
      "Ġà®ħà®µà®¯à®µà®Ļ": 6966,
      "Ġà®¹à®·": 6967,
      "à®³à®®à®¯": 6968,
      "Ġ380": 6969,
      "Ġà®ĵà®®à®°": 6970,
      "Ġà®ĵà®£à®®": 6971,
      "Ġ1915": 6972,
      "Ġ1928": 6973,
      "à®ĩà®¤à®´": 6974,
      "Ġ460": 6975,
      "Ġ447": 6976,
      "à®ªà®©à®ķ": 6977,
      "0001": 6978,
      "1991": 6979,
      "à®¹à®ķ": 6980,
      "à®¹à®ª": 6981,
      "Ġà®Ĩà®²à®©": 6982,
      "Ġà®·à®²": 6983,
      "ĠCMP": 6984,
      "ĠCivil": 6985,
      "onic": 6986,
      "onald": 6987,
      "ĠSk": 6988,
      "ĠSCTIMST": 6989,
      "Ġà®īà®£à®µà®ķà®®": 6990,
      "Ġà®¤à®³à®µà®°": 6991,
      "Ġà®ķà®Łà®©à®³": 6992,
      "ĠPra": 6993,
      "ĠPNV": 6994,
      "ĠPartners": 6995,
      "ĠPowell": 6996,
      "Ġà®ıà®©à®Ł": 6997,
      "à¯ģ\";": 6998,
      "enot": 6999,
      "enach": 7000,
      "ĠAff": 7001,
      "ĠAge": 7002,
      "ĠADB": 7003,
      "ĠAver": 7004,
      "tia": 7005,
      "ĠMont": 7006,
      "ĠMilit": 7007,
      "ĠBh": 7008,
      "ĠBal": 7009,
      "ĠBec": 7010,
      "ĠBrig": 7011,
      "ĠBush": 7012,
      "ĠBahn": 7013,
      "ĠLyn": 7014,
      "ĠLuis": 7015,
      "Ġà®ķà®©à®ħà®Ł": 7016,
      "Ġà®īà®´à®µ": 7017,
      "ĠIN": 7018,
      "à®¤à®ķà®®à®±": 7019,
      "ĠFood": 7020,
      "ĠFoundation": 7021,
      "Ġ308": 7022,
      "ĠDar": 7023,
      "ĠDRD": 7024,
      "chka": 7025,
      "ĠTar": 7026,
      "ĠTour": 7027,
      "ĠTax": 7028,
      "ĠTym": 7029,
      "ĠTendency": 7030,
      "ĠGy": 7031,
      "ĠGov": 7032,
      "ĠRos": 7033,
      "ĠRail": 7034,
      "ĠRNA": 7035,
      "ĠRoh": 7036,
      "ĠRPR": 7037,
      "Ġ1860": 7038,
      "rey": 7039,
      "reme": 7040,
      "ĠHy": 7041,
      "ĠHÃ©n": 7042,
      "atri": 7043,
      "atory": 7044,
      "atinos": 7045,
      "icros": 7046,
      "Ġ164": 7047,
      "Ġ168": 7048,
      "Ġ169": 7049,
      "omics": 7050,
      "Ġ028": 7051,
      "ĠEss": 7052,
      "ĠWith": 7053,
      "ĠUBS": 7054,
      "ĠUAE": 7055,
      "adur": 7056,
      "\">(": 7057,
      "ĠOx": 7058,
      "Ġ2026": 7059,
      "ĠKat": 7060,
      "ĠKRG": 7061,
      "ĠJeff": 7062,
      "tection": 7063,
      "Ġ265": 7064,
      "107": 7065,
      "cep": 7066,
      "ingbro": 7067,
      "ette": 7068,
      "Ġ287": 7069,
      "unity": 7070,
      "urn": 7071,
      "Ġ274": 7072,
      "ĠInf": 7073,
      "osition": 7074,
      "112": 7075,
      "rael": 7076,
      "emp": 7077,
      "à®ĥà®µ": 7078,
      "idan": 7079,
      "ides": 7080,
      "idential": 7081,
      "Ġ1941": 7082,
      "ĠVir": 7083,
      "Ġà®ļà®®à®°à®ļà®ķ": 7084,
      "Ġà®ľà®µà®ķà®°": 7085,
      "Ġ50000": 7086,
      "140": 7087,
      "ĠChen": 7088,
      "ĠChampaign": 7089,
      "à®ªà®´à®ķà®©": 7090,
      "arta": 7091,
      "ĠStudi": 7092,
      "280": 7093,
      "à¯ĩ!!": 7094,
      "333": 7095,
      "lav": 7096,
      "ĠReuters": 7097,
      "berto": 7098,
      "aug": 7099,
      "à¯ĩ'.": 7100,
      "state": 7101,
      "TAM": 7102,
      "ASEAN": 7103,
      "ave": 7104,
      "oby": 7105,
      "ĠAnti": 7106,
      "ĠAnton": 7107,
      "ianne": 7108,
      "à®°à®¹à®®": 7109,
      "DEF": 7110,
      "ĠForces": 7111,
      "ĠForeign": 7112,
      "uck": 7113,
      "uclear": 7114,
      "ordination": 7115,
      "ĠSchmid": 7116,
      "ĠMarse": 7117,
      "ysis": 7118,
      "568": 7119,
      "udd": 7120,
      "Ġ687": 7121,
      "CLU": 7122,
      "à®ħà®µà®ļà®°à®ķ": 7123,
      "ĠRoth": 7124,
      "ĠPMOIndia": 7125,
      "ĠGuy": 7126,
      "ĠEnd": 7127,
      "ITU": 7128,
      "ĠBrice": 7129,
      "ĠThomas": 7130,
      "CTC": 7131,
      "Ġonline": 7132,
      "HAM": 7133,
      "ĠManuel": 7134,
      "à®īà®²à®ķà®³": 7135,
      "izumi": 7136,
      "ĠGeorg": 7137,
      "ĠBaradei": 7138,
      "AIL": 7139,
      "ĠBertrand": 7140,
      "ĠATTAC": 7141,
      "ĠEducation": 7142,
      "ĠCharles": 7143,
      "âĢ¢âĢ¢âĢ¢âĢ¢âĢ¢âĢ¢âĢ¢âĢ¢": 7144,
      "omotion": 7145,
      "KVIC": 7146,
      "ĠMoratinos": 7147,
      "ĠObservateur": 7148,
      "ĠNorthern": 7149,
      "ĠRenault": 7150,
      "ĠStrauss": 7151,
      "HUA": 7152,
      "TrueNat": 7153,
      "Islam": 7154,
      "ĠConfederation": 7155,
      "ĠGermany": 7156,
      "ĠCommerce": 7157,
      "Defence": 7158,
      "ĠChev": 7159,
      "ĠBesanc": 7160,
      "Michael": 7161,
      "ĠRouge": 7162,
      "Verdana": 7163,
      "ĠAbdul": 7164,
      "ĠMotors": 7165,
      "ĠHinchingbro": 7166,
      "ĠPATCO": 7167,
      "Beaumont": 7168,
      "à®²à®ħà®µà®ķ": 7169,
      "ĠAverage": 7170,
      "%;": 7171,
      ".'": 7172,
      "325": 7173,
      "375": 7174,
      "828": 7175,
      ">\"": 7176,
      "><": 7177,
      "AN": 7178,
      "ABC": 7179,
      "Austral": 7180,
      "Ber": 7181,
      "Bharat": 7182,
      "CD": 7183,
      "Char": 7184,
      "DNA": 7185,
      "Denis": 7186,
      "EX": 7187,
      "FB": 7188,
      "FD": 7189,
      "FT": 7190,
      "Fin": 7191,
      "French": 7192,
      "Ke": 7193,
      "Kahn": 7194,
      "LI": 7195,
      "Lutte": 7196,
      "Min": 7197,
      "Mart": 7198,
      "No": 7199,
      "NCP": 7200,
      "NITI": 7201,
      "Sec": 7202,
      "SOP": 7203,
      "TS": 7204,
      "WU": 7205,
      "Wh": 7206,
      "be": 7207,
      "bhar": 7208,
      "blatt": 7209,
      "cker": 7210,
      "day": 7211,
      "kin": 7212,
      "mad": 7213,
      "mund": 7214,
      "nest": 7215,
      "nta": 7216,
      "rist": 7217,
      "sec": 7218,
      "shi": 7219,
      "social": 7220,
      "uter": 7221,
      "way": 7222,
      "xon": 7223,
      "zens": 7224,
      "Ġman": 7225,
      "Ġund": 7226,
      "Ġà®¾": 7227,
      "à®ķà®¤à®¤": 7228,
      "à®ķà®Łà®°": 7229,
      "à®¤à®ļà®ķ": 7230,
      "à®¾<": 7231,
      "à®Łà®¹": 7232,
      "à®ªà®²à®Ļ": 7233,
      "à®®à®¯à®Ļ": 7234,
      "à®²à®µà®ķ": 7235,
      "à®±à®°à®µ": 7236,
      "à¯Ī<": 7237,
      "à¯Ī----": 7238,
      "à®¯à®Ĵà®³": 7239,
      "Ġà®ªà®¤à®¤": 7240,
      "Ġà®ªà®ļà®²": 7241,
      "Ġà®ªà®µà®³": 7242,
      "à®ķà®³à®¯": 7243,
      "Ġà®¤à®ķà®©à®Ļ": 7244,
      "Ġà®ļà®ĥà®ª": 7245,
      "Ġà®ļà®µà®¤à®°": 7246,
      "Ġà®ĩà®ĩà®İà®¸": 7247,
      "Ġà®īà®¤à®®": 7248,
      "Ġà®īà®©à®¤": 7249,
      "Ġà®īà®Łà®ª": 7250,
      "Ġà®īà®ªà®¨": 7251,
      "à¯į.<": 7252,
      "à¯į.âĢĻâĢĻ": 7253,
      "à¯ģ.</": 7254,
      "Ġà®Ĵà®®": 7255,
      "à®ķà®ªà®²": 7256,
      "Ġà®ıà®¸": 7257,
      "à®¯à®®à®¤": 7258,
      "à®¯à®®à®©à®ķ": 7259,
      "à®¤à®ªà®¯": 7260,
      "Ġà®ļà®®à®¯à®ļ": 7261,
      "Ġà®ļà®®à®ħà®³à®µ": 7262,
      "Ġà®®à®ķà®²": 7263,
      "Ġà®¯à®°": 7264,
      "Ġà®ķà®²à®ķà®µ": 7265,
      "Ġà®ªà®°à®Ł": 7266,
      "à®ļà®®à®©": 7267,
      "à®ļà®®à®¨": 7268,
      "Ġ203": 7269,
      "Ġ208": 7270,
      "Ġà®Ĳà®ľ": 7271,
      "Ġà®īà®£à®°à®²": 7272,
      "Ġà®Īà®ª": 7273,
      "Ġà®Īà®İà®¸": 7274,
      "Ġà®ħà®µà®®à®°": 7275,
      "Ġà®ħà®µà®²à®¨": 7276,
      "Ġà®µà®²à®ļ": 7277,
      "à®®à®©à®©": 7278,
      "à®ļà®²à®°": 7279,
      "Ġà®ĩà®Łà®µ": 7280,
      "Ġ1921": 7281,
      "Ġ1905": 7282,
      "à®ĩà®Łà®Ļ": 7283,
      "à®ĩà®±à®¨": 7284,
      "à®ĩà®°à®µ": 7285,
      "à®ĩà®¯à®¨": 7286,
      "2012": 7287,
      "à¯į\")": 7288,
      "à®°à®µà®£": 7289,
      "à®ħà®·": 7290,
      "Ġà®®à®£à®¨": 7291,
      "Ġà®Ĩà®Łà®µ": 7292,
      "à®ķà®£à®¤": 7293,
      "Ġ448": 7294,
      "Ġà®¤à®°à®²": 7295,
      "197": 7296,
      "1980": 7297,
      "1977": 7298,
      "1984": 7299,
      "Ġà®Ĩà®²à®¯à®ª": 7300,
      "Ġ20000": 7301,
      "âĢĿ)": 7302,
      "âĢĿ.": 7303,
      "ĠCan": 7304,
      "ĠCRT": 7305,
      "ĠCrisis": 7306,
      "onti": 7307,
      "onne": 7308,
      "ĠSax": 7309,
      "ĠSense": 7310,
      "ĠSadr": 7311,
      "ĠSyd": 7312,
      "inde": 7313,
      "inker": 7314,
      "à®ªà®µà®ª": 7315,
      "ĠPet": 7316,
      "alon": 7317,
      "enth": 7318,
      "Ġà®µà®³à®°à®ļ": 7319,
      "Ġ9000": 7320,
      "ĠAN": 7321,
      "ĠAay": 7322,
      "ĠAub": 7323,
      "ĠACLU": 7324,
      "Ġ157": 7325,
      "Ġ15000": 7326,
      "ori": 7327,
      "tien": 7328,
      "tice": 7329,
      "à®µà®ªà®³": 7330,
      "ĠMO": 7331,
      "ĠMil": 7332,
      "ĠMach": 7333,
      "ĠMack": 7334,
      "ĠMount": 7335,
      "ĠBel": 7336,
      "ĠBet": 7337,
      "ĠBart": 7338,
      "ĠBir": 7339,
      "ĠBSP": 7340,
      "ĠBell": 7341,
      "ĠBert": 7342,
      "à®īà®±à®µ": 7343,
      "ĠLife": 7344,
      "à¯įâĢĿ-": 7345,
      "Ġà®ķà®©à®¨": 7346,
      "ĠIP": 7347,
      "ĠICT": 7348,
      "ĠItal": 7349,
      "ĠIPPB": 7350,
      "1857": 7351,
      "à®ıà®·": 7352,
      "ĠFour": 7353,
      "ĠFARC": 7354,
      "ĠDM": 7355,
      "ĠDS": 7356,
      "ĠDPJ": 7357,
      "ĠDigital": 7358,
      "ĠND": 7359,
      "ĠNLA": 7360,
      "ĠNicol": 7361,
      "change": 7362,
      "isch": 7363,
      "ĠTy": 7364,
      "ĠGr": 7365,
      "ĠGre": 7366,
      "ĠGysi": 7367,
      "Ġ188": 7368,
      "elf": 7369,
      "Ġ1441": 7370,
      "iter": 7371,
      "ĠHab": 7372,
      "ĠHai": 7373,
      "ĠHann": 7374,
      "ĠHelm": 7375,
      "atha": 7376,
      "Ġ2400": 7377,
      "Ġà®ļà®²à®ļà®²à®ª": 7378,
      "à®°à®³à®¯à®®": 7379,
      "Ġ172": 7380,
      "ĠEv": 7381,
      "178": 7382,
      "ĠWes": 7383,
      "ĠWil": 7384,
      "aman": 7385,
      "oland": 7386,
      "\">&": 7387,
      "ĠOskar": 7388,
      "Ġ316": 7389,
      "ria": 7390,
      "rie": 7391,
      "rif": 7392,
      "Ġ222": 7393,
      "Ġ227": 7394,
      "Ġ2200": 7395,
      "à¯įâĢĻ.": 7396,
      "ĠKend": 7397,
      "andre": 7398,
      "ĠJVP": 7399,
      "lean": 7400,
      "à¯ģ'',": 7401,
      "à®ĵà®İà®¸": 7402,
      "Ġà®ªà®²à®®à®Ł": 7403,
      "Ġà®ªà®²à®®à®±": 7404,
      "Ġ2300": 7405,
      "eta": 7406,
      "Ġ288": 7407,
      "uni": 7408,
      "uno": 7409,
      "usch": 7410,
      "Ġà®ĥà®ªà®ļà®²": 7411,
      "Ġ273": 7412,
      "ĠIniti": 7413,
      "ĠInnov": 7414,
      "ĠInternet": 7415,
      "116": 7416,
      "Ġà®Ĭà®°à®ķà®ļ": 7417,
      "ratic": 7418,
      "dem": 7419,
      "165": 7420,
      "Ġsc": 7421,
      "ĠVo": 7422,
      "Ġ356": 7423,
      "oples": 7424,
      "146": 7425,
      "ula": 7426,
      "Ġà®ľà®²à®ļà®¨": 7427,
      "otab": 7428,
      "241": 7429,
      "irit": 7430,
      "134": 7431,
      "Ġ375": 7432,
      "Ã©s": 7433,
      "ĠLeed": 7434,
      "ĠLearning": 7435,
      "290": 7436,
      "287": 7437,
      "apo": 7438,
      "Ġ331": 7439,
      "ĠYoung": 7440,
      "Ġà®ªà®°à®®à®¹à®®": 7441,
      "264": 7442,
      "269": 7443,
      "aker": 7444,
      "iver": 7445,
      "ivier": 7446,
      "Ġ389": 7447,
      "ĠDeb": 7448,
      "359": 7449,
      "ache": 7450,
      "IFIL": 7451,
      "ichy": 7452,
      "ĠMarie": 7453,
      "eith": 7454,
      "Ġà®ıà®ľà®£": 7455,
      "à®¿âĢĻâĢĻ": 7456,
      "Ġà®ĥà®ªà®Ł": 7457,
      "Ġà®ĥà®ªà®µ": 7458,
      "ĠSpigel": 7459,
      "IDF": 7460,
      "ants": 7461,
      "DAY": 7462,
      "949": 7463,
      "ATP": 7464,
      "ike": 7465,
      "ĠScott": 7466,
      "ĠRoch": 7467,
      "ĠPMC": 7468,
      "ĠPMGSY": 7469,
      "ĠAFSPA": 7470,
      "ĠStein": 7471,
      "ĠUNIFIL": 7472,
      "ynd": 7473,
      "ĠAgence": 7474,
      "ĠGenomics": 7475,
      "HAI": 7476,
      "ĠCount": 7477,
      "ĠAllgemeine": 7478,
      "linois": 7479,
      "ĠTelec": 7480,
      "ĠOperation": 7481,
      "ĠControl": 7482,
      "ĠNASA": 7483,
      "ĠCarl": 7484,
      "ĠHubert": 7485,
      "Coal": 7486,
      "GeM": 7487,
      "ĠKarl": 7488,
      "affarin": 7489,
      "ĠNHS": 7490,
      "adeloup": 7491,
      "surance": 7492,
      "Ġprogram": 7493,
      "ĠVikas": 7494,
      "urities": 7495,
      "oshenko": 7496,
      "NREGA": 7497,
      "Bundes": 7498,
      "tructure": 7499,
      "ĠBerliner": 7500,
      "ĠInvestment": 7501,
      "Ġscheme": 7502,
      "ĠStanley": 7503,
      "ĠArnaud": 7504,
      "ĠStrategic": 7505,
      "ĠKauf": 7506,
      "ĠLagardÃ¨re": 7507,
      "ĠAfrica": 7508,
      "ĠAugust": 7509,
      "ĠYasuk": 7510,
      "ĠEnterpris": 7511,
      "ĠAdministration": 7512,
      "ĠDRDO": 7513,
      "ĠTymoshenko": 7514,
      "ĠHÃ©nin": 7515,
      "ĠStudies": 7516,
      "ĠBesancenot": 7517,
      ")(": 7518,
      "119": 7519,
      "216": 7520,
      "223": 7521,
      "420": 7522,
      "587": 7523,
      "6000": 7524,
      "829": 7525,
      "917": 7526,
      "908": 7527,
      "Ag": 7528,
      "Ass": 7529,
      "Atal": 7530,
      "BP": 7531,
      "Bo": 7532,
      "Br": 7533,
      "Bio": 7534,
      "Cal": 7535,
      "CPA": 7536,
      "CIA": 7537,
      "CDS": 7538,
      "Die": 7539,
      "Democ": 7540,
      "Daniel": 7541,
      "FDI": 7542,
      "HL": 7543,
      "HCR": 7544,
      "IST": 7545,
      "Jos": 7546,
      "Lib": 7547,
      "LPI": 7548,
      "MV": 7549,
      "MMA": 7550,
      "NAS": 7551,
      "NER": 7552,
      "Post": 7553,
      "Rev": 7554,
      "Sm": 7555,
      "Str": 7556,
      "SCIRI": 7557,
      "Sabka": 7558,
      "Tra": 7559,
      "VK": 7560,
      "VIN": 7561,
      "],": 7562,
      "aen": 7563,
      "cal": 7564,
      "cel": 7565,
      "cmb": 7566,
      "ex": 7567,
      "eti": 7568,
      "gal": 7569,
      "group": 7570,
      "her": 7571,
      "iers": 7572,
      "kel": 7573,
      "lass": 7574,
      "mel": 7575,
      "ness": 7576,
      "oot": 7577,
      "prime": 7578,
      "tz": 7579,
      "ua": 7580,
      "uem": 7581,
      "uiller": 7582,
      "ville": 7583,
      "Ãİ": 7584,
      "Ġti": 7585,
      "Ġun": 7586,
      "Ġwsws": 7587,
      "à®¿<": 7588,
      "à®ķà®ļà®¤": 7589,
      "à®ķà®µà®°à®®": 7590,
      "à®¤à®¯à®µ": 7591,
      "à®¤à®³à®ª": 7592,
      "à®¾..": 7593,
      "à®¾âĢĺ": 7594,
      "à®ªà®¯à®®": 7595,
      "à®ªà®²à®µ": 7596,
      "à®®à®Łà®²": 7597,
      "à®©à®ªà®¤": 7598,
      "à®©à®Łà®ķ": 7599,
      "à®²à®ħà®³à®µ": 7600,
      "à¯Ī---": 7601,
      "à®¯à®¹": 7602,
      "à®µà®Łà®®": 7603,
      "à®µà®³à®ª": 7604,
      "Ġà®ªà®¯à®°": 7605,
      "Ġà®ªà®¯à®®à®Ł": 7606,
      "Ġà®ªà®°à®®à®ļ": 7607,
      "à®ļà®ķà®ª": 7608,
      "à®ļà®®à®¤": 7609,
      "à®ļà®µà®°à®²": 7610,
      "Ġà®®à®²à®ª": 7611,
      "Ġà®ħà®²à®®": 7612,
      "à®¨à®ļ": 7613,
      "à®£à®µà®¤": 7614,
      "Ġà®ļà®·": 7615,
      "Ġà®ĩà®Łà®ķ": 7616,
      "Ġà®ĩà®İà®¸": 7617,
      "Ġà®¨à®µà®Ł": 7618,
      "à®Ļà®ķ": 7619,
      "à®ªà®Łà®°": 7620,
      "à¯į.</": 7621,
      "à¯ĭâĢĻ": 7622,
      "à®µà®°à®£": 7623,
      "Ġà®Ĩà®¤à®®": 7624,
      "Ġà®ĩà®°à®®à®²": 7625,
      "Ġà®ħà®®à®°à®©": 7626,
      "à®°à®ļà®®": 7627,
      "à¯ģ,''": 7628,
      "Ġà®ľà®Ł": 7629,
      "Ġà®ľà®¯": 7630,
      "Ġà®ľà®ļ": 7631,
      "Ġà®ľà®ķà®©": 7632,
      "Ġà®īà®³à®°": 7633,
      "à®·à®ªà®Ļ": 7634,
      "à®°à®®à®°": 7635,
      "à®¤à®°à®¨": 7636,
      "à®¤à®°à®ķà®£": 7637,
      "à®ľà®¯à®°": 7638,
      "à®ľà®ļà®®": 7639,
      "Ġà®®à®ķà®´": 7640,
      "Ġà®ħà®±à®®": 7641,
      "0000": 7642,
      "Ġà®Łà®¤": 7643,
      "Ġà®Ĩà®£à®µà®¤": 7644,
      "Ġà®Ĩà®£à®µà®®": 7645,
      "Ġà®¯à®¸": 7646,
      "Ġà®¤à®©à®ª": 7647,
      "Ġà®Ĭà®©à®¤": 7648,
      "Ġ204": 7649,
      "Ġ2060": 7650,
      "Ġà®²à®¸": 7651,
      "Ġà®īà®£à®°à®ļ": 7652,
      "Ġà®Īà®¯à®®": 7653,
      "à®¿....": 7654,
      "à®ķà®ķà®©": 7655,
      "Ġà®ħà®µà®¨": 7656,
      "à¯Ī.....": 7657,
      "Ġà®¹à®¨": 7658,
      "Ġà®¤à®Łà®¯à®®": 7659,
      "Ġà®ĵà®·": 7660,
      "Ġ1932": 7661,
      "Ġà®īà®Łà®²à®®": 7662,
      "207": 7663,
      "à¯į\";": 7664,
      "à®°à®ķà®Łà®©": 7665,
      "Ġ510": 7666,
      "à®ħà®µà®©": 7667,
      "Ġà®®à®£à®±": 7668,
      "Ġà®®à®£à®®à®ķà®©": 7669,
      "Ġ480": 7670,
      "Ġ445": 7671,
      "anch": 7672,
      "erc": 7673,
      "1947": 7674,
      "1967": 7675,
      "à®©à®µà®´": 7676,
      "Ġà®µà®Łà®ĩà®¨": 7677,
      "à¯ģ:\"": 7678,
      "ĠCel": 7679,
      "ĠCop": 7680,
      "ĠCock": 7681,
      "ĠCCT": 7682,
      "Ġ710": 7683,
      "Ġà®ĩà®Łà®®à®Ł": 7684,
      "Ġà®ĩà®³à®ļ": 7685,
      "aria": 7686,
      "à®Ĳà®¸": 7687,
      "à®²à®ªà®ª": 7688,
      "ĠPre": 7689,
      "ĠPers": 7690,
      "ĠPay": 7691,
      "Ġ840": 7692,
      "ena": 7693,
      "enc": 7694,
      "ende": 7695,
      "Ġ925": 7696,
      "à®Łà®£à®µ": 7697,
      "à®Łà®£à®ļ": 7698,
      "ĠAA": 7699,
      "tie": 7700,
      "ĠMu": 7701,
      "ĠMel": 7702,
      "ĠMid": 7703,
      "ĠMain": 7704,
      "à®¾.,": 7705,
      "ĠBad": 7706,
      "ĠBang": 7707,
      "ĠBag": 7708,
      "ĠBKA": 7709,
      "Ġà®®à®²à®ļà®²": 7710,
      "à®īà®ª": 7711,
      "ĠLocal": 7712,
      "ĠIF": 7713,
      "ĠIBM": 7714,
      "à®ıà®İà®²": 7715,
      "à®ıà®Ĵà®¯": 7716,
      "à®¤à®ķà®®à®¯à®®": 7717,
      "ĠFN": 7718,
      "ĠFram": 7719,
      "ĠFEMA": 7720,
      "ĠDim": 7721,
      "ĠDesh": 7722,
      "ĠDirector": 7723,
      "ĠDKP": 7724,
      "ĠNations": 7725,
      "ĠNIL": 7726,
      "ĠNLD": 7727,
      "ise": 7728,
      "isti": 7729,
      "istics": 7730,
      "ĠTung": 7731,
      "ĠTrich": 7732,
      "ĠTages": 7733,
      "ĠGas": 7734,
      "ĠGul": 7735,
      "ĠGall": 7736,
      "ĠGreg": 7737,
      "ĠRC": 7738,
      "ĠRs": 7739,
      "ĠRam": 7740,
      "ĠRSS": 7741,
      "ĠRomp": 7742,
      "ĠRATP": 7743,
      "Ġ1899": 7744,
      "Ġ1890": 7745,
      "=\"/": 7746,
      "ĠHel": 7747,
      "ĠHold": 7748,
      "Ġà®ĩà®®à®¯à®®": 7749,
      "Ġ011": 7750,
      "301": 7751,
      "305": 7752,
      "171": 7753,
      "à®ªà®¤à®©à®ķ": 7754,
      "ĠWilliam": 7755,
      "ĠUnic": 7756,
      "ĠUNP": 7757,
      "ough": 7758,
      "asht": 7759,
      "adhi": 7760,
      "ĠKim": 7761,
      "ĠKok": 7762,
      "ĠKhal": 7763,
      "ĠJer": 7764,
      "ĠJon": 7765,
      "ĠJune": 7766,
      "ĠJavier": 7767,
      "Ġ266": 7768,
      "Ġ2600": 7769,
      "Ġ237": 7770,
      "unn": 7771,
      "urcs": 7772,
      "à®ĩà®¤à®¯à®¤": 7773,
      "ĠInc": 7774,
      "ĠInqu": 7775,
      "ima": 7776,
      "Ġfile": 7777,
      "167": 7778,
      "à®ªà®¯à®£à®Ļ": 7779,
      "emical": 7780,
      "à®ĥà®Ł": 7781,
      "anga": 7782,
      "à¯Ī''.": 7783,
      "ident": 7784,
      "space": 7785,
      "ĠVVPAT": 7786,
      "Ġ354": 7787,
      "Ġ359": 7788,
      "opit": 7789,
      "à¯į.......": 7790,
      "aye": 7791,
      "ĠChall": 7792,
      "CRC": 7793,
      "PDP": 7794,
      "room": 7795,
      "à®ªà®´à®¤": 7796,
      "ĠZarqawi": 7797,
      "abe": 7798,
      "248": 7799,
      "ecc": 7800,
      "irst": 7801,
      "131": 7802,
      "Ã©e": 7803,
      "ĠLevy": 7804,
      "ĠHein": 7805,
      "235": 7806,
      "409": 7807,
      "ĠStar": 7808,
      "apan": 7809,
      "theus": 7810,
      "3333": 7811,
      "Ġcourt": 7812,
      "ommy": 7813,
      "ĠReform": 7814,
      "aka": 7815,
      "Ġ381": 7816,
      "ICFI": 7817,
      "ĠWSF": 7818,
      "Inter": 7819,
      "Internet": 7820,
      "auche": 7821,
      "444": 7822,
      "994": 7823,
      "996": 7824,
      "Ġhas": 7825,
      "TAD": 7826,
      "ASHA": 7827,
      "acht": 7828,
      "384": 7829,
      "à¯į....?": 7830,
      "oga": 7831,
      "Ġdel": 7832,
      "Ġduring": 7833,
      "MAY": 7834,
      "ĠAnn": 7835,
      "ĠForbes": 7836,
      "ĠPromotion": 7837,
      "Ġ588": 7838,
      "ARN": 7839,
      "ĠMarch": 7840,
      "pper": 7841,
      "vey": 7842,
      "343": 7843,
      "987": 7844,
      "777": 7845,
      "ĠSher": 7846,
      "uds": 7847,
      "ĠâĢĻâĢĻ": 7848,
      "PMM": 7849,
      "uval": 7850,
      "ERI": 7851,
      "ĠGuadeloup": 7852,
      "NCERT": 7853,
      "NCTAD": 7854,
      "NPC": 7855,
      "ĠBruno": 7856,
      "ongyang": 7857,
      "ynes": 7858,
      "ĠXP": 7859,
      "ĠAgric": 7860,
      "Ġex": 7861,
      "ĠProject": 7862,
      "afe": 7863,
      "ĠDemocrat": 7864,
      "ĠCounty": 7865,
      "olutions": 7866,
      "ather": 7867,
      "Prince": 7868,
      "wehr": 7869,
      "ĠCFTC": 7870,
      "ĠCentral": 7871,
      "Start": 7872,
      "ĠPhilippe": 7873,
      "ĠJosef": 7874,
      "ĠCNE": 7875,
      "ĠTrain": 7876,
      "ĠAcad": 7877,
      "ĠMedia": 7878,
      "fering": 7879,
      "ĠTRIM": 7880,
      "ĠReport": 7881,
      "ĠMoD": 7882,
      "Ã¶rg": 7883,
      "Ġ600028": 7884,
      "ĠAssociated": 7885,
      "WCs": 7886,
      "ĠSeine": 7887,
      "à¯ĩ...'": 7888,
      "ĠKoizumi": 7889,
      "khaz": 7890,
      "ĠSLD": 7891,
      "ĠScotsman": 7892,
      "ĠSPLM": 7893,
      "ĠMÃ©ry": 7894,
      "reguem": 7895,
      "ĠVolkswagen": 7896,
      "Centre": 7897,
      "hua": 7898,
      "ĠMaur": 7899,
      "ĠPlan": 7900,
      "ĠEmpire": 7901,
      "ĠSarreguem": 7902,
      "ĠZhang": 7903,
      "ĠEngine": 7904,
      "ĠCommunista": 7905,
      "rastructure": 7906,
      "ĠPhilip": 7907,
      "ĠMEDEF": 7908,
      "ĠICAR": 7909,
      "zhou": 7910,
      "ĠVincent": 7911,
      "ĠIslamic": 7912,
      "ĠSciences": 7913,
      "ĠPHD": 7914,
      "ĠOfcom": 7915,
      "ĠAnalysis": 7916,
      "FACT": 7917,
      "ĠCZTI": 7918,
      "ĠGoldman": 7919,
      "ĠAustralian": 7920,
      "ledge": 7921,
      "ĠSafety": 7922,
      "ĠWidmer": 7923,
      "ĠKalyan": 7924,
      "ĠBlair": 7925,
      "ĠDAX": 7926,
      "aksha": 7927,
      "ĠDietmar": 7928,
      "Jacoby": 7929,
      "ĠAffairs": 7930,
      "ĠGyurcs": 7931,
      "ĠMarseille": 7932,
      "ĠHinchingbrooke": 7933,
      "socialequ": 7934,
      "ĠSaxony": 7935,
      "ĠSydney": 7936,
      "ĠAubry": 7937,
      "ĠItalia": 7938,
      "ĠSteinbr": 7939,
      "Democratic": 7940,
      "ĠTrichet": 7941,
      "ĠSarreguemines": 7942,
      "ĠGyurcsany": 7943,
      "117": 7944,
      "1200": 7945,
      "230": 7946,
      "324": 7947,
      "410": 7948,
      "425": 7949,
      "422": 7950,
      "588": 7951,
      "620": 7952,
      "660": 7953,
      "675": 7954,
      "730": 7955,
      "785": 7956,
      "930": 7957,
      "950": 7958,
      "Ay": 7959,
      "Bas": 7960,
      "Com": 7961,
      "CCI": 7962,
      "Comp": 7963,
      "CEO": 7964,
      "DD": 7965,
      "FR": 7966,
      "Fre": 7967,
      "Federation": 7968,
      "Free": 7969,
      "Ger": 7970,
      "Gaz": 7971,
      "Glob": 7972,
      "HM": 7973,
      "HR": 7974,
      "HS": 7975,
      "Har": 7976,
      "Hartz": 7977,
      "ITE": 7978,
      "Jam": 7979,
      "Jang": 7980,
      "Jose": 7981,
      "Mob": 7982,
      "MIS": 7983,
      "Mass": 7984,
      "Modi": 7985,
      "Ol": 7986,
      "Pak": 7987,
      "PLO": 7988,
      "Res": 7989,
      "Sa": 7990,
      "Sub": 7991,
      "SED": 7992,
      "South": 7993,
      "Ts": 7994,
      "Ter": 7995,
      "Tom": 7996,
      "Tran": 7997,
      "UT": 7998,
      "URD": 7999,
      "Women": 8000,
      "bana": 8001,
      "bio": 8002,
      "car": 8003,
      "col": 8004,
      "dog": 8005,
      "feld": 8006,
      "ga": 8007,
      "gu": 8008,
      "ho": 8009,
      "hard": 8010,
      "haya": 8011,
      "iar": 8012,
      "iency": 8013,
      "itical": 8014,
      "kha": 8015,
      "mca": 8016,
      "nc": 8017,
      "ny": 8018,
      "now": 8019,
      "ple": 8020,
      "rs": 8021,
      "rent": 8022,
      "sà®·": 8023,
      "str": 8024,
      "stein": 8025,
      "tra": 8026,
      "tto": 8027,
      "tnet": 8028,
      "trib": 8029,
      "uit": 8030,
      "wn": 8031,
      "yr": 8032,
      "yam": 8033,
      "zy": 8034,
      "zz": 8035,
      "Âĳ": 8036,
      "Ġ000": 8037,
      "Ġel": 8038,
      "Ġiss": 8039,
      "Ġoper": 8040,
      "à¯į&": 8041,
      "à¯ģ\\": 8042,
      "à®ķà®·à®©": 8043,
      "à®¤à®ľ": 8044,
      "à®¾/": 8045,
      "à®ªà®¯à®°": 8046,
      "à®ªà®µà®¨": 8047,
      "à®²à®µà®¤": 8048,
      "à®²à®ļà®®": 8049,
      "à®±à®Ĭà®¤": 8050,
      "à®¯à®µà®¤à®±": 8051,
      "à®³à®ļà®²": 8052,
      "à®µà®ľà®©": 8053,
      "à®ķà®³à®ķà®°à®®": 8054,
      "Ġà®ķà®ªà®Łà®¤": 8055,
      "à®ļà®¤à®©": 8056,
      "à®ļà®ķà®ķ": 8057,
      "à®ļà®ĥà®ª": 8058,
      "Ġà®ħà®°à®®": 8059,
      "Ġà®ļà®Łà®ķ": 8060,
      "Ġà®ļà®µà®°à®®": 8061,
      "Ġà®ĩà®¯à®¤": 8062,
      "Ġà®¨à®µà®ª": 8063,
      "à®Ļà®©à®®": 8064,
      "à¯į.âĢľ": 8065,
      "à¯ĭâĢĿ": 8066,
      "Ġà®Ĩà®¯à®²": 8067,
      "Ġà®Ĩà®¤à®µ": 8068,
      "à¯Ĩà®¾à®¾": 8069,
      "Ġà®ĩà®°à®µà®©": 8070,
      "Ġà®ħà®¤à®²": 8071,
      "à®¤à®²à®±": 8072,
      "à®ķà®¤à®ķà®©": 8073,
      "Ġà®ıà®³à®©": 8074,
      "Ġà®ıà®³à®©à®¤": 8075,
      "Ġà®ľà®ľ": 8076,
      "Ġà®ľà®²à®Ļ": 8077,
      "Ġà®ľà®¹": 8078,
      "Ġà®īà®³à®ª": 8079,
      "à®ķà®°à®£": 8080,
      "à®ķà®°à®ªà®¤": 8081,
      "à®ķà®µà®®": 8082,
      "à®·à®¯à®°": 8083,
      "à®¤à®°à®µà®°": 8084,
      "à®¯à®®à®®": 8085,
      "à®¤à®®à®³à®µ": 8086,
      "à®Łà®°à®°": 8087,
      "Ġà®¤à®²à®µ": 8088,
      "Ġ(%)": 8089,
      "à®ļà®°à®ķà®Ļ": 8090,
      "Ġà®Łà®¸": 8091,
      "Ġà®ªà®Łà®²à®®": 8092,
      "Ġà®¯à®ķ": 8093,
      "Ġà®¯à®¨": 8094,
      "Ġà®ķà®£à®£": 8095,
      "Ġà®ªà®°à®£": 8096,
      "à¯į;.": 8097,
      "Ġ207": 8098,
      "Ġà®Ĳà®İà®ª": 8099,
      "à®µà®®à®¯": 8100,
      "à®µà®®à®°à®¤": 8101,
      "Ġà®²à®¯": 8102,
      "Ġà®ľà®©à®ķà®°": 8103,
      "Ġà®Īà®°à®¤": 8104,
      "à®ķà®²à®µ": 8105,
      "à®¿..": 8106,
      "Ġà®ħà®µà®ªà®ķ": 8107,
      "à¯Ī..": 8108,
      "à®ļà®²à®£": 8109,
      "à®µà®²à®ķà®°": 8110,
      "à®©à®®à®¯à®¤": 8111,
      "à®¤à®°à®µà®´": 8112,
      "Ġà®ħà®¤à®©à®Ł": 8113,
      "Ġà®īà®¤à®µà®®": 8114,
      "Ġà®Ĩà®©à®²": 8115,
      "Ġà®ħà®´à®ķà®°": 8116,
      "Ġ327": 8117,
      "Ġà®¨à®²à®¨": 8118,
      "Ġà®ĵà®¯à®ª": 8119,
      "à®ĩà®¤à®°": 8120,
      "à®ĩà®µà®±": 8121,
      "à®ĩà®ļà®Ł": 8122,
      "Ġà®īà®¤à®¯à®ª": 8123,
      "à®°à®µà®³à®®": 8124,
      "à®°à®µà®£à®ķ": 8125,
      "Ġà®ħà®ķà®ľ": 8126,
      "à®ħà®ķà®°": 8127,
      "Ġà®®à®£à®²à®¤": 8128,
      "Ġà®¤à®ķà®µà®²à®±": 8129,
      "Ġ435": 8130,
      "à®ªà®²à®Ł": 8131,
      "anz": 8132,
      "anti": 8133,
      "anne": 8134,
      "anish": 8135,
      "Ġà®ħà®ļà®ª": 8136,
      "eric": 8137,
      "191": 8138,
      "1995": 8139,
      "1985": 8140,
      "1962": 8141,
      "à®¹à®°à®©": 8142,
      "à®¹à®©à®©": 8143,
      "à®µà®©à®®à®¯à®®": 8144,
      "à®©à®µà®ª": 8145,
      "Ġ660": 8146,
      "Ġ680": 8147,
      "Ġ670": 8148,
      "Ġ690": 8149,
      "Ġà®·à®Ł": 8150,
      "ĠCas": 8151,
      "ĠCap": 8152,
      "ĠCell": 8153,
      "ĠCost": 8154,
      "ĠCey": 8155,
      "ĠCDC": 8156,
      "ĠSO": 8157,
      "ĠSw": 8158,
      "ĠSak": 8159,
      "ĠSup": 8160,
      "ĠSED": 8161,
      "ĠSAP": 8162,
      "ĠSupp": 8163,
      "ĠSociety": 8164,
      "indi": 8165,
      "Ġà®Ĩà®±à®Ł": 8166,
      "à¯ĩ....": 8167,
      "Ġà®¨à®©à®µà®±": 8168,
      "Ġà®ķà®´à®Ł": 8169,
      "Ġà®ķà®´à®©": 8170,
      "Ġà®¨à®°à®ķà®®": 8171,
      "ĠPim": 8172,
      "ĠPais": 8173,
      "ĠPVSM": 8174,
      "ĠPriv": 8175,
      "ĠPiech": 8176,
      "Ġ860": 8177,
      "enry": 8178,
      "Ġà®µà®³à®°à®¤": 8179,
      "Ġà®µà®³à®Ĩà®¤": 8180,
      "à®Łà®£à®ķ": 8181,
      "ĠAK": 8182,
      "ĠARD": 8183,
      "ĠAIADMK": 8184,
      "tik": 8185,
      "ĠMol": 8186,
      "ĠMof": 8187,
      "ĠMig": 8188,
      "ĠMDP": 8189,
      "ĠBac": 8190,
      "Ġ1270": 8191,
      "à®īà®ľ": 8192,
      "Ġà®ªà®ļà®Ł": 8193,
      "ĠLE": 8194,
      "ĠLar": 8195,
      "ĠLes": 8196,
      "ĠLang": 8197,
      "ĠList": 8198,
      "ĠLance": 8199,
      "ĠIz": 8200,
      "à®¤à®ļà®Ł": 8201,
      "181": 8202,
      "à®ıà®ıà®Ł": 8203,
      "ĠFl": 8204,
      "ĠFTA": 8205,
      "ĠFilm": 8206,
      "ĠFillon": 8207,
      "ĠDah": 8208,
      "ĠNT": 8209,
      "ĠNAS": 8210,
      "ĠNuclear": 8211,
      "istry": 8212,
      "Ġà®ªà®©à®¸": 8213,
      "ĠTur": 8214,
      "ĠTay": 8215,
      "ĠTDP": 8216,
      "ĠTAR": 8217,
      "ĠTamil": 8218,
      "ĠGri": 8219,
      "ĠGrand": 8220,
      "ĠGotab": 8221,
      "Ġ258": 8222,
      "Ġ259": 8223,
      "ĠRM": 8224,
      "ĠRh": 8225,
      "ĠRay": 8226,
      "ĠRod": 8227,
      "ĠRain": 8228,
      "ĠRock": 8229,
      "ĠRPF": 8230,
      "ĠRESF": 8231,
      "ĠRoland": 8232,
      "ĠRaffarin": 8233,
      "Ġ184": 8234,
      "Ġà®Ĩà®¤à®°à®Ļ": 8235,
      "rez": 8236,
      "itan": 8237,
      "ĠHand": 8238,
      "ĠHos": 8239,
      "ĠHue": 8240,
      "ĠHaw": 8241,
      "ĠHind": 8242,
      "ĠHigh": 8243,
      "Ġ243": 8244,
      "Ġ246": 8245,
      "ily": 8246,
      "ictor": 8247,
      "à®°à®³à®¯à®¤": 8248,
      "à®¤à®°à®®à®Ł": 8249,
      "à¯į!âĢĿ": 8250,
      "Ġà®¤à®°à®®à®¤": 8251,
      "Ġ213": 8252,
      "Ġ216": 8253,
      "ĠEL": 8254,
      "ĠEis": 8255,
      "ĠEric": 8256,
      "ĠWindows": 8257,
      "ĠWagon": 8258,
      "ĠUÃİ": 8259,
      "ases": 8260,
      "ollah": 8261,
      "Ġ403": 8262,
      "Ġ315": 8263,
      "riya": 8264,
      "ĠKy": 8265,
      "ĠKam": 8266,
      "ĠKle": 8267,
      "ĠKir": 8268,
      "ĠKiel": 8269,
      "ĠKKE": 8270,
      "andra": 8271,
      "ĠJung": 8272,
      "die": 8273,
      "Ġ263": 8274,
      "Ġ--\"": 8275,
      "à®ĵà®İà®©": 8276,
      "103": 8277,
      "Ġ233": 8278,
      "uster": 8279,
      "ustice": 8280,
      "ury": 8281,
      "urch": 8282,
      "Ġ279": 8283,
      "à®Īà®ª": 8284,
      "ĠIntern": 8285,
      "edu": 8286,
      "ova": 8287,
      "ove": 8288,
      "Ġfl": 8289,
      "Ġfight": 8290,
      "defence": 8291,
      "Ġà®ķà®µà®°à®Ł": 8292,
      "à®·à®¯à®®à®²": 8293,
      "Ġà®ķà®®à®²à®¹": 8294,
      "à®£à®±à®Ł": 8295,
      "anger": 8296,
      "Ġ7500": 8297,
      "idl": 8298,
      "agn": 8299,
      "ĠVI": 8300,
      "Ġ352": 8301,
      "Ġ353": 8302,
      "Ġà®ļà®®à®°à®ļà®Ļ": 8303,
      "149": 8304,
      "acy": 8305,
      "ĠChÃ©r": 8306,
      "Ġ***": 8307,
      "uture": 8308,
      "rank": 8309,
      "046": 8310,
      "ums": 8311,
      "umer": 8312,
      "ots": 8313,
      "243": 8314,
      "244": 8315,
      "ird": 8316,
      "irbhar": 8317,
      "136": 8318,
      "139": 8319,
      "Ã©d": 8320,
      "293": 8321,
      "ĠCPT": 8322,
      "406": 8323,
      "Ġpe": 8324,
      "ĠStay": 8325,
      "Ġà®®à®°à®£à®ķ": 8326,
      "apak": 8327,
      "owing": 8328,
      "EPFO": 8329,
      "Ġcr": 8330,
      "266": 8331,
      "Ġ364": 8332,
      "ivatives": 8333,
      "953": 8334,
      "ICA": 8335,
      "ICEF": 8336,
      "453": 8337,
      "ĠDekh": 8338,
      "government": 8339,
      "Institute": 8340,
      "allum": 8341,
      "aux": 8342,
      "448": 8343,
      "855": 8344,
      "avel": 8345,
      "eller": 8346,
      "Ġinter": 8347,
      "387": 8348,
      "à¯į....'": 8349,
      "ĠUnit": 8350,
      "ogistics": 8351,
      "ubb": 8352,
      "ubli": 8353,
      "uez": 8354,
      "NAA": 8355,
      "472": 8356,
      "Ġmovement": 8357,
      "à®°à®¹à®²": 8358,
      "576": 8359,
      "ĠFort": 8360,
      "CPE": 8361,
      "ECL": 8362,
      "ĠPres": 8363,
      "ĠProme": 8364,
      "orders": 8365,
      "Ã¨que": 8366,
      "à¯Ī!\"": 8367,
      "estag": 8368,
      "ĠShri": 8369,
      "ĠShak": 8370,
      "Ġ642": 8371,
      "anski": 8372,
      "IRCTC": 8373,
      "come": 8374,
      "awa": 8375,
      "udh": 8376,
      "à¯ģ......": 8377,
      "Ġ543": 8378,
      "884": 8379,
      "ific": 8380,
      "iforn": 8381,
      "iere": 8382,
      "ĠArmy": 8383,
      "ika": 8384,
      "ikh": 8385,
      "ske": 8386,
      "ĠRoach": 8387,
      "ERB": 8388,
      "php": 8389,
      "ĠQuds": 8390,
      "atis": 8391,
      "868": 8392,
      "ĠConference": 8393,
      "ĠUNF": 8394,
      "ĠCOP": 8395,
      "ĠAbkhaz": 8396,
      "ESCO": 8397,
      "RIPS": 8398,
      "Ġtra": 8399,
      "ĠAgha": 8400,
      "ockdown": 8401,
      "ĠGenscher": 8402,
      "Ġ-------": 8403,
      "TMT": 8404,
      "prom": 8405,
      "prop": 8406,
      "ĠCFE": 8407,
      "arner": 8408,
      "ĠAsset": 8409,
      "State": 8410,
      "ĠLibÃ©ration": 8411,
      "ĠJosÃ©": 8412,
      "ĠSecurities": 8413,
      "ĠDiaby": 8414,
      "NGO": 8415,
      "Ġ001": 8416,
      "ildren": 8417,
      "UNF": 8418,
      "ĠClichy": 8419,
      "ushadhi": 8420,
      "ufact": 8421,
      "Ã¶der": 8422,
      "instein": 8423,
      "ridge": 8424,
      "à®¿...'": 8425,
      "ĠATS": 8426,
      "ĠPatasse": 8427,
      "ĠFAST": 8428,
      "George": 8429,
      "resse": 8430,
      "Parti": 8431,
      "ĠBuff": 8432,
      "ĠScotland": 8433,
      "ĠSEB": 8434,
      "ĠBeno": 8435,
      "ĠMedical": 8436,
      "KVY": 8437,
      "ĠLaguiller": 8438,
      "ĠIllinois": 8439,
      "ĠChristine": 8440,
      "ĠMcCallum": 8441,
      "ĠJoseph": 8442,
      "NDMA": 8443,
      "ĠGazeta": 8444,
      "ultural": 8445,
      "block": 8446,
      "fficile": 8447,
      "Express": 8448,
      "ĠBrian": 8449,
      "ĠBritish": 8450,
      "ĠTerrorism": 8451,
      "tificial": 8452,
      "Socialist": 8453,
      "ĠGSTR": 8454,
      "ĠDepartment": 8455,
      "ĠSuddeutsche": 8456,
      "ĠAPEC": 8457,
      "Ã¼rgen": 8458,
      "ĠSoar": 8459,
      "ĠAndrew": 8460,
      "ĠIRGC": 8461,
      "ĠFriedman": 8462,
      "Ġrail": 8463,
      "SCOM": 8464,
      "ĠRajapak": 8465,
      "electr": 8466,
      "dnance": 8467,
      "sltnet": 8468,
      "Ġresp": 8469,
      "ĠMohammed": 8470,
      "ĠRasmussen": 8471,
      "realism": 8472,
      "Department": 8473,
      "ĠCitigroup": 8474,
      "ĠElectric": 8475,
      "ĠChamberlain": 8476,
      "ĠChristophe": 8477,
      "ĠTreaty": 8478,
      "ĠJuncker": 8479,
      "ĠEPFO": 8480,
      "Ã©cresse": 8481,
      "ĠMilitant": 8482,
      "ĠBeckstein": 8483,
      "ĠRailways": 8484,
      "nesty": 8485,
      "index": 8486,
      "ĠInitiative": 8487,
      "ĠInnovation": 8488,
      "ĠRochelle": 8489,
      "ĠKaufmann": 8490,
      "ĠYasukuni": 8491,
      "Revolution": 8492,
      "ĠCockpit": 8493,
      "ĠRompuy": 8494,
      "eccable": 8495,
      "socialequality": 8496,
      "ĠSteinbrÃ¼ck": 8497,
      "ĠTARP": 8498,
      "ĠGotabhaya": 8499,
      "ĠChÃ©rÃ¨que": 8500,
      "ĠDekho": 8501,
      "ublique": 8502,
      "ĠPrometheus": 8503,
      "ifornia": 8504,
      "ĠRajapakse": 8505,
      "%.": 8506,
      ",âĢĿ": 8507,
      "-(": 8508,
      "016": 8509,
      "028": 8510,
      "118": 8511,
      "225": 8512,
      "3500": 8513,
      "340": 8514,
      "4000": 8515,
      "490": 8516,
      "510": 8517,
      "531": 8518,
      "557": 8519,
      "630": 8520,
      "614": 8521,
      "760": 8522,
      "706": 8523,
      "824": 8524,
      "940": 8525,
      "980": 8526,
      "<=": 8527,
      "AD": 8528,
      "BJ": 8529,
      "BY": 8530,
      "BBC": 8531,
      "CE": 8532,
      "CAP": 8533,
      "Dav": 8534,
      "El": 8535,
      "Eur": 8536,
      "FN": 8537,
      "FIR": 8538,
      "Federal": 8539,
      "GL": 8540,
      "High": 8541,
      "Homo": 8542,
      "Joint": 8543,
      "JJM": 8544,
      "LCO": 8545,
      "MB": 8546,
      "MIG": 8547,
      "Myl": 8548,
      "MHP": 8549,
      "NSA": 8550,
      "North": 8551,
      "NDRF": 8552,
      "NIPER": 8553,
      "OL": 8554,
      "OTM": 8555,
      "Pan": 8556,
      "Pand": 8557,
      "Party": 8558,
      "PMAY": 8559,
      "SW": 8560,
      "Se": 8561,
      "Ste": 8562,
      "SCTIMST": 8563,
      "Tbilisi": 8564,
      "UMANG": 8565,
      "VHP": 8566,
      "].": 8567,
      "bin": 8568,
      "beit": 8569,
      "cr": 8570,
      "cat": 8571,
      "cell": 8572,
      "cast": 8573,
      "cines": 8574,
      "da": 8575,
      "dy": 8576,
      "dom": 8577,
      "ders": 8578,
      "eph": 8579,
      "fr": 8580,
      "gr": 8581,
      "gall": 8582,
      "ias": 8583,
      "ko": 8584,
      "ken": 8585,
      "lot": 8586,
      "lrich": 8587,
      "met": 8588,
      "no": 8589,
      "nst": 8590,
      "oo": 8591,
      "oiber": 8592,
      "par": 8593,
      "pad": 8594,
      "plor": 8595,
      "rel": 8596,
      "ration": 8597,
      "rÃ¶der": 8598,
      "sous": 8599,
      "tt": 8600,
      "tà®®": 8601,
      "tle": 8602,
      "tag": 8603,
      "uen": 8604,
      "uze": 8605,
      "val": 8606,
      "vit": 8607,
      "vers": 8608,
      "ware": 8609,
      "yo": 8610,
      "Ġà¯ĩ": 8611,
      "Ġer": 8612,
      "Ġar": 8613,
      "Ġas": 8614,
      "Ġid": 8615,
      "Ġass": 8616,
      "Ġ========": 8617,
      "à¯įà®¾": 8618,
      "à®¿\\": 8619,
      "à®¿âĢľ": 8620,
      "à®ķà®±à®¤": 8621,
      "à®ķà®ļà®ķ": 8622,
      "à®ķà®īà®³": 8623,
      "à®¤à®³à®©": 8624,
      "à®°à®ķà®³": 8625,
      "à®°à®ķà®µ": 8626,
      "à®Łà®·": 8627,
      "à®Łà®£à®ª": 8628,
      "à®ªà®©à®°": 8629,
      "à®ªà®¯à®ķ": 8630,
      "à®ªà®µà®¤à®±": 8631,
      "à®ªà®µà®ķ": 8632,
      "à®ªà®±à®µ": 8633,
      "à®ªà®°à®ļà®©": 8634,
      "à®®à®ķà®°": 8635,
      "à®®à®·": 8636,
      "à®®à®¤à®°": 8637,
      "à®®à®±à®¨": 8638,
      "à®®à®ļà®ķ": 8639,
      "à®©à®¯à®©": 8640,
      "à®©à®ļà®®": 8641,
      "à®©à®®à®©": 8642,
      "à®©à®µà®ļ": 8643,
      "à®²à®³à®°": 8644,
      "à®±à®°à®¤": 8645,
      "à®±à®®à®¤": 8646,
      "à®³à®®à®©": 8647,
      "à®µà®µà®ļà®©à®®": 8648,
      "Ġà®ªà®´à®¨": 8649,
      "Ġà®ªà®·à®°": 8650,
      "Ġà®ķà®±à®µ": 8651,
      "Ġà®ķà®°à®®à®©": 8652,
      "à®ļà®µà®°": 8653,
      "à®ļà®ľ": 8654,
      "à®ļà®µà®®": 8655,
      "Ġà®¤à®´à®²": 8656,
      "à®¨à®¯à®¸": 8657,
      "Ġà®ļà®ªà®¤à®¤": 8658,
      "Ġà®īà®µà®°": 8659,
      "Ġà®īà®ķà®£": 8660,
      "à¯Ģ;": 8661,
      "à®µà®°à®£à®¤": 8662,
      "Ġà®Ĩà®³à®µ": 8663,
      "à¯ģ.<": 8664,
      "à®¸à®Ł": 8665,
      "à®¸à®ª": 8666,
      "à®ķà®®à®£": 8667,
      "à®°à®ļà®°": 8668,
      "à®°à®¤à®ķ": 8669,
      "à¯ģ,'": 8670,
      "à¯ģ,.": 8671,
      "Ġà®ĩà®¤à®¯à®¨": 8672,
      "Ġà®ıà®²à®ļ": 8673,
      "Ġà®ľà®ªà®°": 8674,
      "Ġà®ħà®°à®ļà®Ļ": 8675,
      "Ġ218": 8676,
      "à®Łà®°à®Ł": 8677,
      "à®¤à®µà®³à®Ļ": 8678,
      "Ġà®ļà®®à®¯à®±": 8679,
      "Ġà®ļà®®à®¤à®°à®ª": 8680,
      "Ġà®ļà®®à®®à®±": 8681,
      "Ġà®¤à®²à®ķ": 8682,
      "Ġà®®à®ķà®°à®ļà®Ļ": 8683,
      "à®®à®°à®µ": 8684,
      "Ġà®īà®°à®ª": 8685,
      "Ġà®ªà®²à®µà®´": 8686,
      "à®ļà®°à®©": 8687,
      "002": 8688,
      "007": 8689,
      "Ġà®Łà®£": 8690,
      "Ġà®Łà®¯à®Ł": 8691,
      "Ġà®ªà®Łà®²": 8692,
      "Ġà®Ĩà®£à®Ł": 8693,
      "à®²à®ķà®ļ": 8694,
      "à®¤à®ķà®²": 8695,
      "Ġà®ªà®£à®¯à®ķ": 8696,
      "à®ļà®®à®²": 8697,
      "Ġà®ªà®ķà®©": 8698,
      "Ġ2031": 8699,
      "Ġà®Ĳà®ļà®©": 8700,
      "Ġà®Ĳà®²à®©": 8701,
      "Ġà®ļà®°à®µ": 8702,
      "Ġà®ľà®©à®ļà®Ļ": 8703,
      "Ġà®Ĵà®ªà®®": 8704,
      "Ġà®®à®©à®µà®°": 8705,
      "à®ķà®´à®ļ": 8706,
      "Ġà®ħà®µà®ª": 8707,
      "Ġà®ħà®µà®²à®¤": 8708,
      "à®®à®©à®®": 8709,
      "à®³à®©à®Ļ": 8710,
      "à®ļà®²à®Ł": 8711,
      "à®©à®®à®¯à®ª": 8712,
      "Ġà®ħà®´à®µ": 8713,
      "Ġà®¤à®Łà®ķà®³à®ª": 8714,
      "Ġ319": 8715,
      "Ġ328": 8716,
      "Ġ399": 8717,
      "à®°à®ªà®²à®¤": 8718,
      "Ġà®ħà®µà®©à®£": 8719,
      "Ġ192": 8720,
      "Ġ1911": 8721,
      "Ġà®ļà®ķà®¸": 8722,
      "Ġà®ļà®ķà®·": 8723,
      "Ġà®ļà®ķà®ľ": 8724,
      "à®ĩà®°à®ļ": 8725,
      "à®ĩà®©à®µ": 8726,
      "à®ĩà®ĵ": 8727,
      "à®ļà®©à®²": 8728,
      "205": 8729,
      "à®Ĩà®ķà®ķ": 8730,
      "Ġà®ħà®ķà®¸": 8731,
      "à®ªà®£à®Ļ": 8732,
      "Ġ534": 8733,
      "à®ħà®¯à®©": 8734,
      "à®ħà®ľà®¯": 8735,
      "à®ħà®©à®¨": 8736,
      "Ġà®¨à®ķà®°à®®à®©": 8737,
      "Ġ470": 8738,
      "anj": 8739,
      "ante": 8740,
      "1948": 8741,
      "1979": 8742,
      "à®¹à®¯": 8743,
      "Ġ625": 8744,
      "Ġà®·à®ªà®©": 8745,
      "Ġà®µà®Łà®İà®²": 8746,
      "ĠCI": 8747,
      "ĠCulture": 8748,
      "ĠCITU": 8749,
      "ĠCaen": 8750,
      "online": 8751,
      "ĠSad": 8752,
      "ĠSoc": 8753,
      "ĠSIS": 8754,
      "ĠSRS": 8755,
      "insey": 8756,
      "Ġà®ªà®´à®¤": 8757,
      "aren": 8758,
      "arian": 8759,
      "à¯ĩ.'": 8760,
      "à®Ĳà®Ĵ": 8761,
      "à®Ĳà®İà®ª": 8762,
      "ĠPas": 8763,
      "ĠPhar": 8764,
      "ĠPath": 8765,
      "ĠPoint": 8766,
      "enz": 8767,
      "Ġ950": 8768,
      "ĠAR": 8769,
      "ĠAx": 8770,
      "ĠAra": 8771,
      "ĠADC": 8772,
      "ĠAAA": 8773,
      "ĠADEDY": 8774,
      "orf": 8775,
      "ores": 8776,
      "''-": 8777,
      "''.": 8778,
      "à®¤à®Łà®¯": 8779,
      "ĠMill": 8780,
      "ĠMaw": 8781,
      "ĠMust": 8782,
      "ĠMiller": 8783,
      "ĠModern": 8784,
      "à®¤à®ªà®Łà®®": 8785,
      "ĠBa": 8786,
      "ĠBul": 8787,
      "ĠBIS": 8788,
      "ĠBund": 8789,
      "ĠBNP": 8790,
      "ĠBIRAC": 8791,
      "à®ľà®©à®ªà®¨": 8792,
      "à®īà®ķ": 8793,
      "à®īà®¨": 8794,
      "à®īà®¤à®¯": 8795,
      "ĠLA": 8796,
      "ĠLad": 8797,
      "ĠLand": 8798,
      "ĠLau": 8799,
      "ĠLakh": 8800,
      "ĠLURD": 8801,
      "ĠLidl": 8802,
      "Ġà®ķà®©à®ķà®°à®¤": 8803,
      "ĠIX": 8804,
      "ĠIm": 8805,
      "ĠIan": 8806,
      "ĠIran": 8807,
      "184": 8808,
      "à®ıà®ŀ": 8809,
      "ĠFos": 8810,
      "ĠFail": 8811,
      "ĠFact": 8812,
      "ĠFBU": 8813,
      "ĠFirst": 8814,
      "Ġ301": 8815,
      "ĠDC": 8816,
      "ĠDun": 8817,
      "ĠDDT": 8818,
      "ĠDuval": 8819,
      "ĠNan": 8820,
      "ĠNon": 8821,
      "ĠNow": 8822,
      "ĠNDP": 8823,
      "ĠNIC": 8824,
      "ĠNord": 8825,
      "ĠNLF": 8826,
      "ĠNapo": 8827,
      "cha": 8828,
      "isa": 8829,
      "Ġà®ªà®©à®ķ": 8830,
      "ĠTal": 8831,
      "ĠThi": 8832,
      "ĠTony": 8833,
      "ĠTask": 8834,
      "ĠTISC": 8835,
      "ĠTRIPS": 8836,
      "ĠGren": 8837,
      "ĠRa": 8838,
      "ĠRog": 8839,
      "ĠRue": 8840,
      "ĠRup": 8841,
      "ĠRoss": 8842,
      "ĠRudd": 8843,
      "à¯į?.": 8844,
      "Ġ189": 8845,
      "Ġ18000": 8846,
      "Ġ1848": 8847,
      "elius": 8848,
      "=\"-": 8849,
      "Ġ149": 8850,
      "Ġ507": 8851,
      "rem": 8852,
      "ream": 8853,
      "ito": 8854,
      "à®°à®´à®µ": 8855,
      "ĠHum": 8856,
      "ĠHir": 8857,
      "à®ķà®¨à®ªà®°": 8858,
      "ats": 8859,
      "Ġ245": 8860,
      "ico": 8861,
      "Ġ1792": 8862,
      "Ġ1789": 8863,
      "Ġ162": 8864,
      "à®ļà®¨à®²": 8865,
      "304": 8866,
      "ĠWin": 8867,
      "ĠWol": 8868,
      "ĠWFP": 8869,
      "ĠWood": 8870,
      "ĠWASG": 8871,
      "ĠWarner": 8872,
      "ĠUDD": 8873,
      "ougl": 8874,
      "asi": 8875,
      "tha": 8876,
      "ĠOc": 8877,
      "ĠOz": 8878,
      "ĠOil": 8879,
      "ĠOpp": 8880,
      "Ġà®ªà®°à®µà®µ": 8881,
      "Ġà®ªà®°à®µà®ļà®¤": 8882,
      "à®¿)-": 8883,
      "ofess": 8884,
      "ĠKa": 8885,
      "ĠKol": 8886,
      "ĠKYC": 8887,
      "ando": 8888,
      "ĠJEE": 8889,
      "ĠJuan": 8890,
      "ĠJÃ¼rgen": 8891,
      "tefering": 8892,
      "dier": 8893,
      "à®ĵà®°à®®": 8894,
      "101": 8895,
      "106": 8896,
      "igs": 8897,
      "igation": 8898,
      "etti": 8899,
      "etrov": 8900,
      "à®®à®¨à®²": 8901,
      "enton": 8902,
      "ĠIns": 8903,
      "edes": 8904,
      "Ġ294": 8905,
      "Ġ295": 8906,
      "Ġ299": 8907,
      "Ġfund": 8908,
      "151": 8909,
      "156": 8910,
      "1500": 8911,
      "rak": 8912,
      "raw": 8913,
      "Ġà®ķà®µà®°à®µ": 8914,
      "Ġsh": 8915,
      "Ġsw": 8916,
      "Ġserv": 8917,
      "129": 8918,
      "à¯Ī'.": 8919,
      "anghai": 8920,
      "ido": 8921,
      "idel": 8922,
      "idhi": 8923,
      "ĠVM": 8924,
      "Ġ358": 8925,
      "ocess": 8926,
      "ope": 8927,
      "ĠChennai": 8928,
      "ibb": 8929,
      "rants": 8930,
      "abour": 8931,
      "Ġ455": 8932,
      "ume": 8933,
      "umm": 8934,
      "ota": 8935,
      "oto": 8936,
      "247": 8937,
      "137": 8938,
      "138": 8939,
      "Ġ373": 8940,
      "Ã©es": 8941,
      "IBM": 8942,
      "295": 8943,
      "299": 8944,
      "Ġ655": 8945,
      "istance": 8946,
      "Ġpour": 8947,
      "Ġpage": 8948,
      "Ġplat": 8949,
      "ĠStoiber": 8950,
      "Ġà®®à®°à®£à®ªà®°": 8951,
      "285": 8952,
      "ape": 8953,
      "aps": 8954,
      "Ġ334": 8955,
      "owitz": 8956,
      "Ġcent": 8957,
      "261": 8958,
      "265": 8959,
      "267": 8960,
      "Ġà®ķà®µà®ļà®ª": 8961,
      "Ġ363": 8962,
      "270": 8963,
      "275": 8964,
      "aking": 8965,
      "iva": 8966,
      "Ġ341": 8967,
      "Ġ345": 8968,
      "Ġà®ķà®²à®ķà®²à®¤": 8969,
      "Ġ384": 8970,
      "758": 8971,
      "berman": 8972,
      "452": 8973,
      "ĠDef": 8974,
      "ĠDeal": 8975,
      "odo": 8976,
      "mance": 8977,
      "auer": 8978,
      "enda": 8979,
      "illage": 8980,
      "702": 8981,
      "ston": 8982,
      "stal": 8983,
      "à®īà®²à®ķà®¨": 8984,
      "neider": 8985,
      "à¯į....\"": 8986,
      "ĠFranco": 8987,
      "Ġwar": 8988,
      "Ġmed": 8989,
      "373": 8990,
      "à®°à®¹à®¨": 8991,
      "à®°à®¹à®£à®®": 8992,
      "à®°à®¹à®£à®¤": 8993,
      "ĠFord": 8994,
      "ĠPrÃ©v": 8995,
      "azine": 8996,
      "Ġ462": 8997,
      "onds": 8998,
      "ĠAsian": 8999,
      "ĠSchw": 9000,
      "ĠSchrÃ¶der": 9001,
      "ĠSchneider": 9002,
      "ISO": 9003,
      "ISSE": 9004,
      "eitY": 9005,
      "Ã¨res": 9006,
      "Ã¨OTM": 9007,
      "ĠShin": 9008,
      "oston": 9009,
      "ostov": 9010,
      "comet": 9011,
      "764": 9012,
      "964": 9013,
      "à¯ĪâĢĻ,": 9014,
      "Ġ6800": 9015,
      "COVID": 9016,
      "888": 9017,
      "ifeline": 9018,
      "PMC": 9019,
      "ervÃ©": 9020,
      "ĠRoj": 9021,
      "ERA": 9022,
      "ĠQala": 9023,
      "ebs": 9024,
      "ĠParedes": 9025,
      "ĠConvention": 9026,
      "rene": 9027,
      "oyono": 9028,
      "ĠColle": 9029,
      "ĠCollection": 9030,
      "493": 9031,
      "conf": 9032,
      "Ġà®ķà®°à®®à®©à®²": 9033,
      "ĠEUFOR": 9034,
      "ĠTher": 9035,
      "itive": 9036,
      "ĠXia": 9037,
      "Ġvan": 9038,
      "Ġviii": 9039,
      "ipe": 9040,
      "Ġ769": 9041,
      "ĠProgress": 9042,
      "BSNL": 9043,
      "NSDC": 9044,
      "board": 9045,
      "inder": 9046,
      "ĠFinance": 9047,
      "ĠCooper": 9048,
      "ĠCoordination": 9049,
      "ĠCountry": 9050,
      "Standard": 9051,
[...]
