{
  "version": "1.0",
  "truncation": null,
  "padding": null,
  "added_tokens": [
    {
      "id": 0,
      "content": "[UNK]",
      "single_word": false,
      "lstrip": false,
      "rstrip": false,
      "normalized": false,
      "special": true
    },
    {
      "id": 1,
      "content": "[PAD]",
      "single_word": false,
      "lstrip": false,
      "rstrip": false,
      "normalized": false,
      "special": true
    },
    {
      "id": 2,
      "content": "[SOS]",
      "single_word": false,
      "lstrip": false,
      "rstrip": false,
      "normalized": false,
      "special": true
    },
    {
      "id": 3,
      "content": "[EOS]",
      "single_word": false,
      "lstrip": false,
      "rstrip": false,
      "normalized": false,
      "special": true
    }
  ],
  "normalizer": null,
  "pre_tokenizer": {
    "type": "ByteLevel",
    "add_prefix_space": true,
    "trim_offsets": true,
    "use_regex": true
  },
  "post_processor": null,
  "decoder": {
    "type": "ByteLevel",
    "add_prefix_space": true,
    "trim_offsets": true,
    "use_regex": true
  },
  "model": {
    "type": "BPE",
    "dropout": null,
    "unk_token": "[UNK]",
    "continuing_subword_prefix": null,
    "end_of_word_suffix": null,
    "fuse_unk": false,
    "byte_fallback": false,
    "ignore_merges": false,
    "vocab": {
      "[UNK]": 0,
      "[PAD]": 1,
      "[SOS]": 2,
      "[EOS]": 3,
      "!": 4,
      "\"": 5,
      "#": 6,
      "$": 7,
      "%": 8,
      "&": 9,
      "'": 10,
      "(": 11,
      ")": 12,
      "*": 13,
      "+": 14,
      ",": 15,
      "-": 16,
      ".": 17,
      "/": 18,
      "0": 19,
      "1": 20,
      "2": 21,
      "3": 22,
      "4": 23,
      "5": 24,
      "6": 25,
      "7": 26,
      "8": 27,
      "9": 28,
      ":": 29,
      ";": 30,
      "<": 31,
      "=": 32,
      ">": 33,
      "?": 34,
      "@": 35,
      "A": 36,
      "B": 37,
      "C": 38,
      "D": 39,
      "E": 40,
      "F": 41,
      "G": 42,
      "H": 43,
      "I": 44,
      "J": 45,
      "K": 46,
      "L": 47,
      "M": 48,
      "N": 49,
      "O": 50,
      "P": 51,
      "Q": 52,
      "R": 53,
      "S": 54,
      "T": 55,
      "U": 56,
      "V": 57,
      "W": 58,
      "X": 59,
      "Y": 60,
      "Z": 61,
      "[": 62,
      "\\": 63,
      "]": 64,
      "_": 65,
      "`": 66,
      "a": 67,
      "b": 68,
      "c": 69,
      "d": 70,
      "e": 71,
      "f": 72,
      "g": 73,
      "h": 74,
      "i": 75,
      "j": 76,
      "k": 77,
      "l": 78,
      "m": 79,
      "n": 80,
      "o": 81,
      "p": 82,
      "q": 83,
      "r": 84,
      "s": 85,
      "t": 86,
      "u": 87,
      "v": 88,
      "w": 89,
      "x": 90,
      "y": 91,
      "z": 92,
      "|": 93,
      "~": 94,
      "¡": 95,
      "¢": 96,
      "£": 97,
      "¤": 98,
      "¦": 99,
      "§": 100,
      "¨": 101,
      "©": 102,
      "ª": 103,
      "«": 104,
      "¬": 105,
      "®": 106,
      "¯": 107,
      "°": 108,
      "±": 109,
      "³": 110,
      "´": 111,
      "¶": 112,
      "¸": 113,
      "¹": 114,
      "¼": 115,
      "½": 116,
      "Â": 117,
      "Ã": 118,
      "â": 119,
      "Ċ": 120,
      "Ġ": 121,
      "Ģ": 122,
      "ģ": 123,
      "Ĥ": 124,
      "ĥ": 125,
      "Ī": 126,
      "ī": 127,
      "Į": 128,
      "İ": 129,
      "Ĳ": 130,
      "ĳ": 131,
      "Ĵ": 132,
      "ĵ": 133,
      "ķ": 134,
      "ĸ": 135,
      "ĺ": 136,
      "Ł": 137,
      "ł": 138,
      "Ń": 139,
      "Ġt": 140,
      "he": 141,
      "Ġa": 142,
      "in": 143,
      "Ġthe": 144,
      "Ġo": 145,
      "re": 146,
      "er": 147,
      "nd": 148,
      "on": 149,
      "at": 150,
      "Ġs": 151,
      "en": 152,
      "is": 153,
      "Ġof": 154,
      "Ġw": 155,
      "or": 156,
      "it": 157,
      "Ġc": 158,
      "ed": 159,
      "al": 160,
      "es": 161,
      "Ġp": 162,
      "an": 163,
      "ar": 164,
      "Ġf": 165,
      "Ġb": 166,
      "Ġin": 167,
      "ing": 168,
      "ion": 169,
      "Ġand": 170,
      "Ġto": 171,
      "ou": 172,
      "as": 173,
      "Ġh": 174,
      "ic": 175,
      "Ġm": 176,
      "ent": 177,
      "Ġd": 178,
      "il": 179,
      "ro": 180,
      "Ġth": 181,
      "le": 182,
      "ĠT": 183,
      "ĠS": 184,
      "ĠI": 185,
      "ve": 186,
      "Ġre": 187,
      "Ġe": 188,
      "ct": 189,
      "ĠA": 190,
      "ation": 191,
      "Ġbe": 192,
      "st": 193,
      "ĠM": 194,
      "Ġn": 195,
      "om": 196,
      "ri": 197,
      "Ġfor": 198,
      "id": 199,
      "ra": 200,
      "Ġl": 201,
      "ĠP": 202,
      "ist": 203,
      "Ġg": 204,
      "ment": 205,
      "ce": 206,
      "ĠC": 207,
      "ver": 208,
      "Ġis": 209,
      "ur": 210,
      "ol": 211,
      "Ġon": 212,
      "ut": 213,
      "ad": 214,
      "Ġthat": 215,
      "ĠThe": 216,
      "im": 217,
      "ly": 218,
      "ay": 219,
      "ot": 220,
      "et": 221,
      "am": 222,
      "se": 223,
      "ir": 224,
      "Ġst": 225,
      "Ġu": 226,
      "ers": 227,
      "Ġhe": 228,
      "ill": 229,
      "ith": 230,
      "ĠB": 231,
      "Ġpro": 232,
      "el": 233,
      "ig": 234,
      "Ġal": 235,
      "ch": 236,
      "ow": 237,
      "Ġde": 238,
      "res": 239,
      "Ġy": 240,
      "Ġwith": 241,
      "Ġas": 242,
      "op": 243,
      "ul": 244,
      "ĠR": 245,
      "Ġcon": 246,
      "ĠN": 247,
      "ate": 248,
      "Ġby": 249,
      "Ġwh": 250,
      "ĠG": 251,
      "th": 252,
      "Ġha": 253,
      "ak": 254,
      "ĠH": 255,
      "Ġan": 256,
      "ĠD": 257,
      "Ġit": 258,
      "ia": 259,
      "pp": 260,
      "inist": 261,
      "est": 262,
      "Ġhas": 263,
      "her": 264,
      "nt": 265,
      "ld": 266,
      "ort": 267,
      "us": 268,
      "ab": 269,
      "ĠF": 270,
      "ĠInd": 271,
      "and": 272,
      "art": 273,
      "ity": 274,
      "ĠU": 275,
      "ci": 276,
      "Ġ2": 277,
      "Ġwas": 278,
      "Ġare": 279,
      "ĠL": 280,
      "Ġ'": 281,
      "ge": 282,
      "Ġat": 283,
      "ĠW": 284,
      "Ġcom": 285,
      "Ġsu": 286,
      "ain": 287,
      "od": 288,
      "Ġwe": 289,
      "Ġhave": 290,
      "'s": 291,
      "Ġ1": 292,
      "ect": 293,
      "ĠE": 294,
      "ess": 295,
      "ies": 296,
      "ĠMinist": 297,
      "em": 298,
      "Ġwor": 299,
      "Ġsh": 300,
      "ter": 301,
      "Ġv": 302,
      "Ġyou": 303,
      "iv": 304,
      "all": 305,
      "ry": 306,
      "rom": 307,
      "Ġwill": 308,
      "ive": 309,
      "ac": 310,
      "over": 311,
      "Ġex": 312,
      "ore": 313,
      "Ġfrom": 314,
      "os": 315,
      "gh": 316,
      "ĠJ": 317,
      "un": 318,
      "if": 319,
      "Ġnot": 320,
      "red": 321,
      "me": 322,
      "Ġne": 323,
      "um": 324,
      "Ġcou": 325,
      "Ġ(": 326,
      "ant": 327,
      "Ġsa": 328,
      "Ġse": 329,
      "overn": 330,
      "Ġthis": 331,
      "ast": 332,
      "ud": 333,
      "ĠO": 334,
      "ions": 335,
      "ĠK": 336,
      "00": 337,
      "pe": 338,
      "overnment": 339,
      "ĠIndia": 340,
      "ary": 341,
      "Ġle": 342,
      "qu": 343,
      "Ġall": 344,
      "Ġhis": 345,
      "ich": 346,
      "rou": 347,
      "ard": 348,
      "so": 349,
      "ure": 350,
      "ust": 351,
      "Ġsaid": 352,
      "ian": 353,
      "ff": 354,
      "ĠMinister": 355,
      "Ġch": 356,
      "ap": 357,
      "oc": 358,
      "ated": 359,
      "ear": 360,
      "Ġag": 361,
      "Ġbeen": 362,
      "Ġor": 363,
      "ĠIn": 364,
      "Ġim": 365,
      "Ġwork": 366,
      "igh": 367,
      "ous": 368,
      "cial": 369,
      "ther": 370,
      "ical": 371,
      "Ġtheir": 372,
      "ru": 373,
      "our": 374,
      "Ġwhich": 375,
      "Ġad": 376,
      "Ġso": 377,
      "ress": 378,
      "Ġpol": 379,
      "ice": 380,
      "ĠSh": 381,
      "Ġint": 382,
      "Ġk": 383,
      "Ġpe": 384,
      "Ġalso": 385,
      "ational": 386,
      "ance": 387,
      "Ġme": 388,
      "ations": 389,
      "Ġcount": 390,
      "pl": 391,
      "cc": 392,
      "hi": 393,
      "ction": 394,
      "Ġpart": 395,
      "ong": 396,
      "Ġ20": 397,
      "Ġpl": 398,
      "Ġinc": 399,
      "ould": 400,
      "ĠHe": 401,
      "Ġr": 402,
      "Ġen": 403,
      "are": 404,
      "ost": 405,
      "nder": 406,
      "ĠTh": 407,
      "ag": 408,
      "vel": 409,
      "ass": 410,
      "ep": 411,
      "ial": 412,
      "Ġres": 413,
      "ĠV": 414,
      "Ġgovernment": 415,
      "ence": 416,
      "Ġits": 417,
      "ign": 418,
      "ire": 419,
      "port": 420,
      "ĠAnd": 421,
      "ber": 422,
      "Ġwere": 423,
      "ople": 424,
      "ĠSt": 425,
      "Ġab": 426,
      "Ġun": 427,
      "rime": 428,
      "Ġper": 429,
      "Ġthey": 430,
      "Ġj": 431,
      "Ġpeople": 432,
      "ans": 433,
      "out": 434,
      "iz": 435,
      "Ġyear": 436,
      "ren": 437,
      "Ġcont": 438,
      "hen": 439,
      "Ġwho": 440,
      "du": 441,
      "Ġup": 442,
      "Ġcl": 443,
      "ome": 444,
      "Ġout": 445,
      "ie": 446,
      "Ġhad": 447,
      "age": 448,
      "ident": 449,
      "og": 450,
      "ĠPrime": 451,
      "av": 452,
      "ub": 453,
      "aj": 454,
      "Ġco": 455,
      "ult": 456,
      "Ġoff": 457,
      "Ġman": 458,
      "ell": 459,
      "Ġapp": 460,
      "ke": 461,
      "ĠUS": 462,
      "ition": 463,
      "ight": 464,
      "ide": 465,
      "Ġthem": 466,
      "Ġunder": 467,
      "ght": 468,
      "Ġ-": 469,
      "ack": 470,
      "ine": 471,
      "mer": 472,
      "ake": 473,
      "ish": 474,
      "Ġcomp": 475,
      "ord": 476,
      "Ġover": 477,
      "pt": 478,
      "con": 479,
      "per": 480,
      "ace": 481,
      "ĠShri": 482,
      "ank": 483,
      "Ġshall": 484,
      "Ġagain": 485,
      "lic": 486,
      "Ġdis": 487,
      "ĠUn": 488,
      "orm": 489,
      "ilit": 490,
      "au": 491,
      "Ġcountry": 492,
      "ef": 493,
      "ail": 494,
      "ates": 495,
      "Ġthere": 496,
      "ĠCh": 497,
      "act": 498,
      "ric": 499,
      "ven": 500,
      "ame": 501,
      "rad": 502,
      "velop": 503,
      "one": 504,
      ".'": 505,
      "Ġone": 506,
      "ood": 507,
      "ens": 508,
      "Ġwould": 509,
      "very": 510,
      "Ġfil": 511,
      "ces": 512,
      "erv": 513,
      "ime": 514,
      "Ġour": 515,
      "ob": 516,
      "ree": 517,
      "end": 518,
      "che": 519,
      "Ġ201": 520,
      "Ġbut": 521,
      "Ġsupp": 522,
      "ays": 523,
      "Ġwar": 524,
      "ok": 525,
      "able": 526,
      "ose": 527,
      "Ġother": 528,
      "Ġreg": 529,
      "Ġar": 530,
      "day": 531,
      "ĠIt": 532,
      "Ġdec": 533,
      "Ġhim": 534,
      "Ġmore": 535,
      "ue": 536,
      "Ġcomm": 537,
      "reat": 538,
      "Ġnew": 539,
      "resident": 540,
      "ism": 541,
      "ĠMinistry": 542,
      "Ġfilm": 543,
      "ase": 544,
      "ib": 545,
      "Ġprov": 546,
      "we": 547,
      "Ġagainst": 548,
      "Ġinter": 549,
      "conom": 550,
      "ath": 551,
      "old": 552,
      "Ġpre": 553,
      "form": 554,
      "ĠThis": 555,
      "Ġbet": 556,
      "Ġdo": 557,
      "Ġam": 558,
      "Ġsp": 559,
      "Ġ3": 560,
      "uring": 561,
      "Ġpolit": 562,
      "ĠAs": 563,
      "Ġind": 564,
      "ind": 565,
      "ang": 566,
      "fter": 567,
      "ew": 568,
      "amil": 569,
      "ade": 570,
      "ram": 571,
      "ai": 572,
      "Ġcan": 573,
      "Ġatt": 574,
      "ild": 575,
      "cent": 576,
      "Ġtw": 577,
      "ark": 578,
      "ced": 579,
      "ern": 580,
      "Ġyour": 581,
      "Ġdem": 582,
      "ach": 583,
      "rit": 584,
      "Ġus": 585,
      "ious": 586,
      "ors": 587,
      "rough": 588,
      "Ġabout": 589,
      "Ġimp": 590,
      "ons": 591,
      "ile": 592,
      "ities": 593,
      "ah": 594,
      "ov": 595,
      "ward": 596,
      "ĠCom": 597,
      "Ġact": 598,
      "rat": 599,
      "Ġro": 600,
      "Ġ19": 601,
      "ution": 602,
      "ĠY": 603,
      "Ġri": 604,
      "Ġany": 605,
      "Ġinto": 606,
      "ublic": 607,
      "ove": 608,
      "ject": 609,
      "ite": 610,
      "rib": 611,
      "Ġopp": 612,
      "ip": 613,
      "Ġno": 614,
      "velopment": 615,
      "Ġthrough": 616,
      "Ġte": 617,
      "lect": 618,
      "man": 619,
      "ĠIndian": 620,
      "Ġinv": 621,
      "lud": 622,
      "own": 623,
      "oy": 624,
      "Ġacc": 625,
      "ec": 626,
      "Ġeconom": 627,
      "oll": 628,
      "Ġonly": 629,
      "Ġli": 630,
      "Ġyears": 631,
      "Ġbec": 632,
      "ash": 633,
      "ory": 634,
      "ings": 635,
      "Ġla": 636,
      "Ġlead": 637,
      "int": 638,
      "fe": 639,
      "Ġthese": 640,
      "Ġmy": 641,
      "Ġtwo": 642,
      "ments": 643,
      "iss": 644,
      "ĠIs": 645,
      "ital": 646,
      "ater": 647,
      "Ġthan": 648,
      "Ġpolitical": 649,
      "Ġadd": 650,
      "Ġworld": 651,
      "Ġbeing": 652,
      "ween": 653,
      "gan": 654,
      "ond": 655,
      "und": 656,
      "ush": 657,
      "Ġspe": 658,
      "Ġbetween": 659,
      "ased": 660,
      "irect": 661,
      "Ġtime": 662,
      "ise": 663,
      "row": 664,
      "Ġexp": 665,
      "Ġstate": 666,
      "alth": 667,
      "Ġsocial": 668,
      "ĠPresident": 669,
      "Ġsupport": 670,
      "Ġmilit": 671,
      "cy": 672,
      "te": 673,
      "Ġmade": 674,
      "ll": 675,
      "RD": 676,
      "Ġqu": 677,
      "ĠGovernment": 678,
      "Ġprodu": 679,
      "amp": 680,
      "Ġcap": 681,
      "air": 682,
      "ries": 683,
      "20": 684,
      "ents": 685,
      "Ġem": 686,
      "Ġinclud": 687,
      "Ġsuch": 688,
      "Ġsec": 689,
      "ower": 690,
      "Ġafter": 691,
      "Ġrel": 692,
      "Ġtr": 693,
      "Ġfir": 694,
      "ited": 695,
      "sel": 696,
      "ives": 697,
      "stit": 698,
      "fore": 699,
      "ual": 700,
      "arm": 701,
      "Ġwhen": 702,
      "ris": 703,
      "Ġ5": 704,
      "Ġlike": 705,
      "Ġeff": 706,
      "Ġent": 707,
      "ied": 708,
      "ek": 709,
      "Ġac": 710,
      "ĠLO": 711,
      "ĠUnion": 712,
      "ted": 713,
      "Ġlast": 714,
      "Ġcons": 715,
      "ĠLORD": 716,
      "ration": 717,
      "hip": 718,
      "here": 719,
      "resent": 720,
      "ĠOn": 721,
      "Ġright": 722,
      "Ġsect": 723,
      "Ġworking": 724,
      "Ġtoday": 725,
      "olog": 726,
      "ĠDe": 727,
      "Ġmon": 728,
      "ility": 729,
      "Ġmilitary": 730,
      "000": 731,
      "Ġprog": 732,
      "urn": 733,
      "Ġgo": 734,
      "vers": 735,
      "ĠWe": 736,
      "raq": 737,
      "aking": 738,
      "Ġcro": 739,
      "ĠComm": 740,
      "Ġresp": 741,
      "ĠIraq": 742,
      "oth": 743,
      "Ġher": 744,
      "chn": 745,
      "ound": 746,
      "ts": 747,
      "Ġ4": 748,
      "vent": 749,
      "Ġass": 750,
      "get": 751,
      "Ġevery": 752,
      "har": 753,
      "Ġcall": 754,
      "round": 755,
      "Ġtra": 756,
      "oint": 757,
      "cess": 758,
      "Ġnow": 759,
      "Ġfirst": 760,
      "ener": 761,
      "ved": 762,
      "Ġoffic": 763,
      "Ġserv": 764,
      "Ġappro": 765,
      "ural": 766,
      "Ġra": 767,
      "Ġpos": 768,
      "Ġworkers": 769,
      "ative": 770,
      "ating": 771,
      "Ġpri": 772,
      "Ġdirect": 773,
      "oun": 774,
      "Ġshould": 775,
      "Ġrem": 776,
      "Ġter": 777,
      "hed": 778,
      "ared": 779,
      "ral": 780,
      "ĠFor": 781,
      "Ġincre": 782,
      "Ġfin": 783,
      "Ġeven": 784,
      "ount": 785,
      "rael": 786,
      "han": 787,
      "Ġrec": 788,
      "led": 789,
      "wn": 790,
      "yst": 791,
      "ission": 792,
      "gy": 793,
      "ures": 794,
      "ĠSo": 795,
      "ĠIsrael": 796,
      "read": 797,
      "ĠPart": 798,
      "ploy": 799,
      "Ġpercent": 800,
      "Ġmed": 801,
      "ĠWh": 802,
      "illion": 803,
      "ised": 804,
      "ause": 805,
      "ran": 806,
      "rest": 807,
      "ha": 808,
      "Ġclass": 809,
      "Ġdevelopment": 810,
      "ret": 811,
      "19": 812,
      "ific": 813,
      "Ġwell": 814,
      "uc": 815,
      "uro": 816,
      "ĠPro": 817,
      "Ġsub": 818,
      "Ġpers": 819,
      "meric": 820,
      "Ġ200": 821,
      "su": 822,
      "ĠMod": 823,
      "ystem": 824,
      "ouse": 825,
      "uss": 826,
      "ness": 827,
      "Ġduring": 828,
      "),": 829,
      ",'": 830,
      "Ġsign": 831,
      "Ġcent": 832,
      "Ġkn": 833,
      "ince": 834,
      "Ġtrans": 835,
      "Ġsc": 836,
      "Ġhand": 837,
      "esh": 838,
      "ning": 839,
      "Ġrep": 840,
      "Ġvis": 841,
      "Ġgl": 842,
      "Ġneed": 843,
      "ĠTamil": 844,
      "Ġest": 845,
      "ock": 846,
      "Ġpolic": 847,
      "ĠRe": 848,
      "ĠAmeric": 849,
      "Ġcond": 850,
      "Ġset": 851,
      "Ġorgan": 852,
      "ya": 853,
      "ĠBut": 854,
      "up": 855,
      "ĠRaj": 856,
      "med": 857,
      "Ġday": 858,
      "Ġeconomic": 859,
      "Ġdef": 860,
      "Ġpartic": 861,
      "Ġbu": 862,
      "Ġinte": 863,
      "ocrat": 864,
      "tain": 865,
      "Ġadm": 866,
      "Ġmeet": 867,
      "arly": 868,
      "its": 869,
      "Ġshe": 870,
      "ajor": 871,
      "ĠState": 872,
      "arl": 873,
      "Ġpublic": 874,
      "Ġbl": 875,
      "Ġintern": 876,
      "Ġfac": 877,
      "Ġcontin": 878,
      "Ġconf": 879,
      "ĠNational": 880,
      "ĠInt": 881,
      "Ġdist": 882,
      "ĠSec": 883,
      "Ġsome": 884,
      "ĠCent": 885,
      "Ġext": 886,
      "Ġreport": 887,
      "ather": 888,
      "Ġgiv": 889,
      "ĠAn": 890,
      "ĠRs": 891,
      "akh": 892,
      "aken": 893,
      "ever": 894,
      "ble": 895,
      "chnolog": 896,
      "Ġmake": 897,
      "Ġmany": 898,
      "ines": 899,
      "rent": 900,
      "abl": 901,
      "Ġ6": 902,
      "ĠModi": 903,
      "xt": 904,
      "Ġdes": 905,
      "Ġthose": 906,
      "Ġcountries": 907,
      "ting": 908,
      "ged": 909,
      "Ġimport": 910,
      "Ġif": 911,
      "ndra": 912,
      "ices": 913,
      "iness": 914,
      "ĠParty": 915,
      "Ġincluding": 916,
      "Ġbefore": 917,
      "Ġgreat": 918,
      "urope": 919,
      "als": 920,
      "ible": 921,
      "ron": 922,
      "Ġmonth": 923,
      "ruct": 924,
      "Ġsay": 925,
      "other": 926,
      "ss": 927,
      "inet": 928,
      "ĠPM": 929,
      "urther": 930,
      "ful": 931,
      "ph": 932,
      "ĠEurope": 933,
      "Ġprot": 934,
      "ĠNew": 935,
      "Ġmajor": 936,
      "Ġend": 937,
      "Ġnum": 938,
      "Ġann": 939,
      "Ġcome": 940,
      "ally": 941,
      "Ġcamp": 942,
      "ms": 943,
      "arch": 944,
      "Ġinf": 945,
      "eration": 946,
      "ax": 947,
      "abinet": 948,
      "Ġprogram": 949,
      "Ġtrad": 950,
      "way": 951,
      "pend": 952,
      "Ġwhere": 953,
      "ife": 954,
      "ID": 955,
      "Ġstr": 956,
      "Ġhow": 957,
      "ants": 958,
      "Ġins": 959,
      "Ġmem": 960,
      "ĠCon": 961,
      "Ġjust": 962,
      "gg": 963,
      "Ġocc": 964,
      "ĠBush": 965,
      "istan": 966,
      "ork": 967,
      "ink": 968,
      "der": 969,
      "Ġelect": 970,
      "Ġinternational": 971,
      "Ġconc": 972,
      "Ġtake": 973,
      "ists": 974,
      "Ġgrow": 975,
      "opul": 976,
      "Ġchild": 977,
      "uth": 978,
      "Ġfl": 979,
      "Ġ7": 980,
      "Ġpower": 981,
      "ĠThere": 982,
      "ollow": 983,
      "Ġsystem": 984,
      "ft": 985,
      "Ġhel": 986,
      "urity": 987,
      "ves": 988,
      "iew": 989,
      "Ġstud": 990,
      "Ġadminist": 991,
      "Ġcould": 992,
      "arendra": 993,
      "ered": 994,
      "les": 995,
      "elf": 996,
      "Ġmost": 997,
      "Ġhigh": 998,
      "ided": 999,
      "Ġproject": 1000,
      "ĠNarendra": 1001,
      "Ġmark": 1002,
      "ĠAr": 1003,
      "ands": 1004,
      "min": 1005,
      "Ġoppos": 1006,
      "ner": 1007,
      "Ġcor": 1008,
      "Ġed": 1009,
      "Ġback": 1010,
      "ision": 1011,
      "stitut": 1012,
      "ars": 1013,
      "Ġlar": 1014,
      "enef": 1015,
      "Ġhelp": 1016,
      "Ġown": 1017,
      "eng": 1018,
      "ĠCabinet": 1019,
      "ivers": 1020,
      "ĠCO": 1021,
      "Ġbro": 1022,
      "ook": 1023,
      "Ġob": 1024,
      "Ġgiven": 1025,
      "lection": 1026,
      "Ġboth": 1027,
      "Ġhealth": 1028,
      "lement": 1029,
      "ality": 1030,
      "bers": 1031,
      "ĠGod": 1032,
      "Ġnational": 1033,
      "Ġdet": 1034,
      "ik": 1035,
      "Ġref": 1036,
      "ized": 1037,
      "wards": 1038,
      "Ġfurther": 1039,
      "ĠAt": 1040,
      "Ġthree": 1041,
      "Ġpresent": 1042,
      "Ġop": 1043,
      "Ġ\"": 1044,
      "Ġdif": 1045,
      "Ġplace": 1046,
      "self": 1047,
      "VID": 1048,
      "riend": 1049,
      "Ġcrore": 1050,
      "Ġdecl": 1051,
      "Ġleaders": 1052,
      "Ġofficial": 1053,
      "Ġcle": 1054,
      "ocratic": 1055,
      "ĠMan": 1056,
      "Ġpopul": 1057,
      "obal": 1058,
      "ring": 1059,
      "Ġev": 1060,
      "Ġdisc": 1061,
      "ict": 1062,
      "uch": 1063,
      "Ġdown": 1064,
      "Ġinvest": 1065,
      "ics": 1066,
      "ĠThey": 1067,
      "Ġinterest": 1068,
      "ving": 1069,
      "Ġwhat": 1070,
      "Ġgener": 1071,
      "Ġget": 1072,
      "Ġbecause": 1073,
      "Ġtaken": 1074,
      "Ġrequ": 1075,
      "chnology": 1076,
      "Ġrev": 1077,
      "Ġvery": 1078,
      "eld": 1079,
      "Ġhouse": 1080,
      "ote": 1081,
      "Ġdid": 1082,
      "Ġattack": 1083,
      "Ġcar": 1084,
      "ĠCOVID": 1085,
      "ug": 1086,
      "ched": 1087,
      "Ġthen": 1088,
      "ways": 1089,
      "Ġvar": 1090,
      "Ġamong": 1091,
      "ĠTe": 1092,
      "Ġrole": 1093,
      "olution": 1094,
      "Ġbenef": 1095,
      "Ġfe": 1096,
      "Ġprop": 1097,
      "Ġcapital": 1098,
      "Ġsame": 1099,
      "Ġlong": 1100,
      "Ġrele": 1101,
      "Ġway": 1102,
      "ĠStates": 1103,
      "Ġadministration": 1104,
      "ĠPrad": 1105,
      "Ġdays": 1106,
      "Ġeffort": 1107,
      "ave": 1108,
      "ange": 1109,
      "ror": 1110,
      "ĠAmerican": 1111,
      "Ġmove": 1112,
      "ety": 1113,
      "Ġmass": 1114,
      "Ġcame": 1115,
      "feren": 1116,
      "outh": 1117,
      "ages": 1118,
      "ĠSri": 1119,
      "Ġprom": 1120,
      "Ġfore": 1121,
      "ancial": 1122,
      "ey": 1123,
      "ĠOff": 1124,
      "Ġfollow": 1125,
      "Ġcre": 1126,
      "Ġsector": 1127,
      "usiness": 1128,
      "erman": 1129,
      "iti": 1130,
      "ulture": 1131,
      "Ġmust": 1132,
      "Ġland": 1133,
      "ana": 1134,
      "Ġestabl": 1135,
      "Ġsm": 1136,
      "ala": 1137,
      "Ġadv": 1138,
      "ross": 1139,
      "ier": 1140,
      "Ġissu": 1141,
      "Ġ10": 1142,
      "Ġ2018": 1143,
      "ty": 1144,
      "ressed": 1145,
      "Ġnumber": 1146,
      "Ġmay": 1147,
      "Ġgood": 1148,
      "ording": 1149,
      "ected": 1150,
      "TE": 1151,
      "roup": 1152,
      "Ġoper": 1153,
      "ective": 1154,
      "cheme": 1155,
      "ng": 1156,
      "Ġchildren": 1157,
      "Ġpass": 1158,
      "Ġknow": 1159,
      "Ġlaun": 1160,
      "hold": 1161,
      "ĠMo": 1162,
      "ev": 1163,
      "Ġret": 1164,
      "Ġfact": 1165,
      "Ġlakh": 1166,
      "ield": 1167,
      "ĠAg": 1168,
      "operation": 1169,
      "Ġbel": 1170,
      "..": 1171,
      "cing": 1172,
      "cept": 1173,
      "Ġindust": 1174,
      "aim": 1175,
      "ĠAf": 1176,
      "omen": 1177,
      "airs": 1178,
      "Ġfarm": 1179,
      "Ġvarious": 1180,
      "alk": 1181,
      "Ġ8": 1182,
      "ency": 1183,
      "ract": 1184,
      "Ġcur": 1185,
      "ĠGerman": 1186,
      "ering": 1187,
      "itions": 1188,
      "unity": 1189,
      "Ġmain": 1190,
      "aign": 1191,
      "Ġstart": 1192,
      "ĠSecret": 1193,
      "uman": 1194,
      "ets": 1195,
      "Ġcol": 1196,
      "por": 1197,
      "Ġcomple": 1198,
      "Ġwhile": 1199,
      "Ġregion": 1200,
      "ton": 1201,
      "Ġlife": 1202,
      "imes": 1203,
      "Ġfamil": 1204,
      "Ġdel": 1205,
      "ick": 1206,
      "ĠAb": 1207,
      "Ġbuild": 1208,
      "Ġexpl": 1209,
      "orth": 1210,
      "ĠAl": 1211,
      "ished": 1212,
      "Ġperson": 1213,
      "Ġbas": 1214,
      "Ġparty": 1215,
      "Ġlaw": 1216,
      "Ġpolicy": 1217,
      "ĠIntern": 1218,
      "Ġful": 1219,
      "Ġel": 1220,
      "Ġcris": 1221,
      "Ġopen": 1222,
      "Ġprovide": 1223,
      "Ġav": 1224,
      "reng": 1225,
      "ĠSocial": 1226,
      "Ġglobal": 1227,
      "formation": 1228,
      "tern": 1229,
      "Ġweek": 1230,
      "ĠSing": 1231,
      "osed": 1232,
      "Ġpo": 1233,
      "Ġser": 1234,
      "ias": 1235,
      "ides": 1236,
      ").": 1237,
      "Ġcampaign": 1238,
      "ined": 1239,
      "Ġareas": 1240,
      "Ġcalled": 1241,
      "Ġsince": 1242,
      "ĠAll": 1243,
      "ari": 1244,
      "ĠDel": 1245,
      "ĠDr": 1246,
      "ffairs": 1247,
      "Ġform": 1248,
      "az": 1249,
      "Ġmeas": 1250,
      "Ġemploy": 1251,
      "asion": 1252,
      "Ġ2020": 1253,
      "Ġparticip": 1254,
      "Ġsit": 1255,
      "Ġstreng": 1256,
      "Ġmeeting": 1257,
      "anding": 1258,
      "Ġcrisis": 1259,
      "ĠEx": 1260,
      "ck": 1261,
      "Ġpr": 1262,
      "Ġpress": 1263,
      "Ġfight": 1264,
      "ĠLank": 1265,
      "Ġstri": 1266,
      "ati": 1267,
      "ining": 1268,
      "Ġens": 1269,
      "ivil": 1270,
      "Ġcommit": 1271,
      "Ġ9": 1272,
      "Ġfound": 1273,
      "att": 1274,
      "Ġcontinu": 1275,
      "ĠDevelopment": 1276,
      "Ġpolice": 1277,
      "Ġrul": 1278,
      "Ġprocess": 1279,
      "Ġdevelop": 1280,
      "ĠLe": 1281,
      "ĠGu": 1282,
      "Ġfinancial": 1283,
      "ential": 1284,
      "ĠAd": 1285,
      "Ġsecurity": 1286,
      "riends": 1287,
      "Ġopport": 1288,
      "Ġsur": 1289,
      "Ġgu": 1290,
      "Ġposs": 1291,
      "Ġannoun": 1292,
      "mes": 1293,
      "Ġput": 1294,
      "ribut": 1295,
      "Ġminist": 1296,
      "Ġimportant": 1297,
      "ĠFin": 1298,
      "Ġlevel": 1299,
      "Ġ15": 1300,
      "pr": 1301,
      "Ġacross": 1302,
      "Ġheld": 1303,
      "Ġchar": 1304,
      "ĠRes": 1305,
      "Ġbusiness": 1306,
      "TTE": 1307,
      "Ġwater": 1308,
      "Ġfar": 1309,
      "Ġrece": 1310,
      "Ġph": 1311,
      "ins": 1312,
      "Ġorder": 1313,
      "ases": 1314,
      "ready": 1315,
      "reed": 1316,
      "Ġce": 1317,
      "Ġfund": 1318,
      "ti": 1319,
      "Ġeduc": 1320,
      "Ġcompan": 1321,
      "mber": 1322,
      "com": 1323,
      "Ġuse": 1324,
      "iod": 1325,
      "Ġbank": 1326,
      "Ġking": 1327,
      "mit": 1328,
      "Ġplan": 1329,
      "ĠDelhi": 1330,
      "Ġresult": 1331,
      "ĠDem": 1332,
      "Ġelection": 1333,
      "ĠDep": 1334,
      "ina": 1335,
      "Ġcour": 1336,
      "Ġterror": 1337,
      "Ġwithin": 1338,
      "ĠInternational": 1339,
      "ccess": 1340,
      "Ġloc": 1341,
      "Ġopposition": 1342,
      "Ġrest": 1343,
      "ference": 1344,
      "rol": 1345,
      "Ġtook": 1346,
      "Ġdep": 1347,
      "ĠAffairs": 1348,
      "ĠRep": 1349,
      "ij": 1350,
      "omb": 1351,
      "rast": 1352,
      "Ġfour": 1353,
      "ĠUnited": 1354,
      "arlia": 1355,
      "Ġiniti": 1356,
      "Ġmillion": 1357,
      "ried": 1358,
      "arliament": 1359,
      "Ġmod": 1360,
      "Ġforces": 1361,
      "Ġclaim": 1362,
      "Ġmedia": 1363,
      "atives": 1364,
      "Ġtowards": 1365,
      "epend": 1366,
      "Ġturn": 1367,
      "Ġalready": 1368,
      "The": 1369,
      "arat": 1370,
      "ashing": 1371,
      "Ġmembers": 1372,
      "ned": 1373,
      "Ġfarmers": 1374,
      "chie": 1375,
      "Ġtold": 1376,
      "Ġused": 1377,
      "Ġdiscuss": 1378,
      "tal": 1379,
      "Ġpresident": 1380,
      "Ġimplement": 1381,
      "ĠEuropean": 1382,
      "Ġpur": 1383,
      "ĠBhar": 1384,
      "ified": 1385,
      "ense": 1386,
      "Ġperiod": 1387,
      "empt": 1388,
      "ians": 1389,
      "ĠCentral": 1390,
      "ructure": 1391,
      "Ġbring": 1392,
      "Ġefforts": 1393,
      "Ġsee": 1394,
      "Ġvisit": 1395,
      "ĠCo": 1396,
      "Ġpost": 1397,
      "ization": 1398,
      "isation": 1399,
      "Ġhead": 1400,
      "oot": 1401,
      "Ġfield": 1402,
      "Ġinst": 1403,
      "Ġeconomy": 1404,
      "uation": 1405,
      "ough": 1406,
      "ool": 1407,
      "Ġson": 1408,
      "less": 1409,
      "Ġval": 1410,
      "Ġtrade": 1411,
      "ĠSingh": 1412,
      "Ġleg": 1413,
      "Ġconcern": 1414,
      "Ġfacilit": 1415,
      "Ġbecome": 1416,
      "osp": 1417,
      "Ġdest": 1418,
      "ĠOffice": 1419,
      "orld": 1420,
      "ĠHow": 1421,
      "ĠMay": 1422,
      "Ġwithout": 1423,
      "Ġrecent": 1424,
      "Ġnation": 1425,
      "Ġprof": 1426,
      "uthor": 1427,
      "Ġhist": 1428,
      "ember": 1429,
      "Ġhere": 1430,
      "Ġconn": 1431,
      "Ġstru": 1432,
      "Ġpoint": 1433,
      "Ġanother": 1434,
      "Ġstudents": 1435,
      "ought": 1436,
      "Ġsoci": 1437,
      "Ġaff": 1438,
      "ĠPradesh": 1439,
      "Ġbased": 1440,
      "ĠThese": 1441,
      "Ġnext": 1442,
      "Ġgroup": 1443,
      "ived": 1444,
      "aw": 1445,
      "ĠTr": 1446,
      "ention": 1447,
      "hes": 1448,
      "fic": 1449,
      "ĠJan": 1450,
      "ten": 1451,
      "abor": 1452,
      "Ġpriv": 1453,
      "Ġthous": 1454,
      "Ġprep": 1455,
      "stitution": 1456,
      "Ġestablish": 1457,
      "ix": 1458,
      "Ġsuccess": 1459,
      "rance": 1460,
      "leg": 1461,
      "artment": 1462,
      "une": 1463,
      "Ġparties": 1464,
      "Ġshow": 1465,
      "Ġmet": 1466,
      "Ġur": 1467,
      "Ġachie": 1468,
      "ĠLTTE": 1469,
      "ashington": 1470,
      "elfare": 1471,
      "Ġlarge": 1472,
      "Ġair": 1473,
      "ale": 1474,
      "Ġrights": 1475,
      "na": 1476,
      "Ġsever": 1477,
      "Ġcost": 1478,
      "Ġadded": 1479,
      "Ġstand": 1480,
      "ĠWorld": 1481,
      "Ġfilms": 1482,
      "Ġgive": 1483,
      "ĠWashington": 1484,
      "ept": 1485,
      "Ġart": 1486,
      "'.": 1487,
      "ained": 1488,
      "mend": 1489,
      "cil": 1490,
      "Ġexper": 1491,
      "Ġpeace": 1492,
      "iving": 1493,
      "Ġequ": 1494,
      "Ġaddress": 1495,
      "Ġthreat": 1496,
      "rench": 1497,
      "ĠChi": 1498,
      "Ġwomen": 1499,
      "aid": 1500,
      "Ġcooperation": 1501,
      "ising": 1502,
      "asing": 1503,
      "Ġstates": 1504,
      "ection": 1505,
      "Ġhapp": 1506,
      "ards": 1507,
      "ĠVice": 1508,
      "idd": 1509,
      "Ġsl": 1510,
      "Ġlet": 1511,
      "Ġplay": 1512,
      "Ġseveral": 1513,
      "Ġquest": 1514,
      "Ġjob": 1515,
      "ĠHealth": 1516,
      "ĠAm": 1517,
      "Ġcity": 1518,
      "Ġaim": 1519,
      "Ġconst": 1520,
      "ici": 1521,
      "ĠBrit": 1522,
      "ior": 1523,
      "Ġtest": 1524,
      "Ġbo": 1525,
      "gin": 1526,
      "Ġprotest": 1527,
      "Ġtotal": 1528,
      "agement": 1529,
      "ateg": 1530,
      "Ġstrugg": 1531,
      "Ġwent": 1532,
      "ĠRail": 1533,
      "itiz": 1534,
      "ĠUN": 1535,
      "ĠBh": 1536,
      "Ġcivil": 1537,
      "rict": 1538,
      "ĠPol": 1539,
      "ination": 1540,
      "Ġkill": 1541,
      "Ġpay": 1542,
      "Ġforeign": 1543,
      "eep": 1544,
      "Ġmen": 1545,
      "ired": 1546,
      "ĠIran": 1547,
      "Ġvill": 1548,
      "Ġener": 1549,
      "Ġmeasures": 1550,
      "Ġdone": 1551,
      "Ġ199": 1552,
      "Ġcut": 1553,
      "ief": 1554,
      "ops": 1555,
      "ĠMah": 1556,
      "ues": 1557,
      "Ġ12": 1558,
      "Ġprojects": 1559,
      "ĠAcc": 1560,
      "Ġpopulation": 1561,
      "Ġentire": 1562,
      "Ġmovement": 1563,
      "ĠShe": 1564,
      "ĠRam": 1565,
      "ured": 1566,
      "ately": 1567,
      "used": 1568,
      "Ġ2017": 1569,
      "Ġdue": 1570,
      "Ġtax": 1571,
      "Ġmaking": 1572,
      "Ġsaying": 1573,
      "ners": 1574,
      "ĠSpe": 1575,
      "Ġavail": 1576,
      "Ġpast": 1577,
      "Ġaround": 1578,
      "ĠAfter": 1579,
      "Ġgra": 1580,
      "ĠFrench": 1581,
      "Ġsent": 1582,
      "ĠCol": 1583,
      "Ġbig": 1584,
      "Ġname": 1585,
      "Ġredu": 1586,
      "Ġimpro": 1587,
      "Ġyoung": 1588,
      "ither": 1589,
      "chool": 1590,
      "Ġwrit": 1591,
      "rastructure": 1592,
      "ruction": 1593,
      "ĠSecretary": 1594,
      "ically": 1595,
      "ferent": 1596,
      "Ġreturn": 1597,
      "war": 1598,
      "Ġmuch": 1599,
      "Ġenergy": 1600,
      "ĠZ": 1601,
      "rought": 1602,
      "Ġoccasion": 1603,
      "Ġservices": 1604,
      "ert": 1605,
      "Ġreal": 1606,
      "Ġeducation": 1607,
      "ĠIndias": 1608,
      "ĠDef": 1609,
      "Ġhuman": 1610,
      "Ġmonths": 1611,
      "ple": 1612,
      "ĠCor": 1613,
      "akistan": 1614,
      "aff": 1615,
      "Ġfut": 1616,
      "Ġsim": 1617,
      "arth": 1618,
      "my": 1619,
      "Ġru": 1620,
      "ability": 1621,
      "Ġofficials": 1622,
      "ĠFrance": 1623,
      "work": 1624,
      "onst": 1625,
      "Ġgrowth": 1626,
      "Ġpres": 1627,
      "Ġactiv": 1628,
      "Ġcurrent": 1629,
      "tee": 1630,
      "Ġword": 1631,
      "oss": 1632,
      "Ġincrease": 1633,
      "Ġaction": 1634,
      "Ġfive": 1635,
      "Ġsituation": 1636,
      "Ġensure": 1637,
      "aring": 1638,
      "Ġcoll": 1639,
      "Ġtoget": 1640,
      "Ġrespons": 1641,
      "Ġtogether": 1642,
      "Ġ2019": 1643,
      "ĠEast": 1644,
      "reement": 1645,
      "Ġhero": 1646,
      "ĠChina": 1647,
      "ban": 1648,
      "ĠAct": 1649,
      "Ġproduct": 1650,
      "Ġchall": 1651,
      "Ġdifferent": 1652,
      "ĠIf": 1653,
      "Ġinvol": 1654,
      "Ġleft": 1655,
      "of": 1656,
      "Ġmarket": 1657,
      "pril": 1658,
      "Ġinterests": 1659,
      "Ġproble": 1660,
      "Ġsociety": 1661,
      "ĠWhen": 1662,
      "Ġes": 1663,
      "Ġ11": 1664,
      "cl": 1665,
      "then": 1666,
      "Ġmin": 1667,
      "Ġscheme": 1668,
      "ĠPakistan": 1669,
      "aries": 1670,
      "ources": 1671,
      "uct": 1672,
      "soci": 1673,
      "Ġrepresent": 1674,
      "Ġalong": 1675,
      "Ġcrit": 1676,
      "ĠBe": 1677,
      "ST": 1678,
      "Ġpoor": 1679,
      "Ġfuture": 1680,
      "Ġfun": 1681,
      "Ġfood": 1682,
      "nel": 1683,
      "aug": 1684,
      "Ġbrought": 1685,
      "ghan": 1686,
      "ĠDepartment": 1687,
      "to": 1688,
      "ĠBharat": 1689,
      "Ġdom": 1690,
      "ĠUnder": 1691,
      "iron": 1692,
      "ĠBank": 1693,
      "ĠNorth": 1694,
      "Ġdemonst": 1695,
      "ĠRepublic": 1696,
      "Ġask": 1697,
      "hing": 1698,
      "the": 1699,
      "adu": 1700,
      "Ġoil": 1701,
      "Ġrelations": 1702,
      "ĠChen": 1703,
      "ression": 1704,
      "riculture": 1705,
      "Ġtechnology": 1706,
      "iding": 1707,
      "Ġformer": 1708,
      "Ġbillion": 1709,
      "Ġtro": 1710,
      "itional": 1711,
      "Ġemer": 1712,
      "ĠRuss": 1713,
      "sp": 1714,
      "Ġwant": 1715,
      "cience": 1716,
      "Ġtalk": 1717,
      "ances": 1718,
      "Ġspecial": 1719,
      "racy": 1720,
      "ront": 1721,
      "ĠApril": 1722,
      "ĠFriends": 1723,
      "reen": 1724,
      "ĠWith": 1725,
      "urs": 1726,
      "action": 1727,
      "nov": 1728,
      "Ġ30": 1729,
      "Ġanti": 1730,
      "ĠTo": 1731,
      "ify": 1732,
      "Ġproduction": 1733,
      "Ġyouth": 1734,
      "Ġsol": 1735,
      "ĠAfghan": 1736,
      "ĠSocialist": 1737,
      "Ġannounced": 1738,
      "ys": 1739,
      "Ġsmall": 1740,
      "eb": 1741,
      "Ġstrengthen": 1742,
      "ĠSa": 1743,
      "Ġstep": 1744,
      "Ġstrong": 1745,
      "Ġsignific": 1746,
      "Ġfew": 1747,
      "Ġseek": 1748,
      "emic": 1749,
      "ĠFinance": 1750,
      "sue": 1751,
      "Ġaway": 1752,
      "ences": 1753,
      "oke": 1754,
      "Ġcand": 1755,
      "ended": 1756,
      "Ġdeclared": 1757,
      "Ġ$": 1758,
      "Ġdeath": 1759,
      "ular": 1760,
      "Ġcommun": 1761,
      "rab": 1762,
      "Ġremain": 1763,
      "Ġcong": 1764,
      "EP": 1765,
      "sh": 1766,
      "Ġcase": 1767,
      "ling": 1768,
      "iversity": 1769,
      "rial": 1770,
      "vention": 1771,
      "ĠWhile": 1772,
      "Ġruling": 1773,
      "ĠMe": 1774,
      "iah": 1775,
      "ĠCommission": 1776,
      "ĠNow": 1777,
      "Ġcare": 1778,
      "ĠSp": 1779,
      "Ġreform": 1780,
      "itor": 1781,
      "Ġbest": 1782,
      "alf": 1783,
      "Ġvot": 1784,
      "ession": 1785,
      "Ġcitiz": 1786,
      "vious": 1787,
      "ibility": 1788,
      "ĠYou": 1789,
      "Ġeach": 1790,
      "Ġfree": 1791,
      "Ġfather": 1792,
      "selves": 1793,
      "Ġconditions": 1794,
      "Ġindustry": 1795,
      "oj": 1796,
      "Ġcontrol": 1797,
      "ize": 1798,
      "ury": 1799,
      "ung": 1800,
      "ospital": 1801,
      "ee": 1802,
      "nai": 1803,
      "Ġeng": 1804,
      "iol": 1805,
      "iddle": 1806,
      "ata": 1807,
      "Ġdoes": 1808,
      "Ġless": 1809,
      "Ġsecond": 1810,
      "ĠAir": 1811,
      "Ġthings": 1812,
      "Ġlaunched": 1813,
      "Ġinformation": 1814,
      "ray": 1815,
      "val": 1816,
      "Ġarea": 1817,
      "iet": 1818,
      "arn": 1819,
      "Ġdecision": 1820,
      "cient": 1821,
      "orn": 1822,
      "Ġlook": 1823,
      "Ġstruggle": 1824,
      "'t": 1825,
      "ĠLanka": 1826,
      "Ġminister": 1827,
      "ask": 1828,
      "Ġdemocratic": 1829,
      "Ġdemand": 1830,
      "Ġaccount": 1831,
      "Ġcandid": 1832,
      "ĠMarch": 1833,
      "land": 1834,
      "abour": 1835,
      "Ġ18": 1836,
      "ĠOne": 1837,
      "Ġlives": 1838,
      "uk": 1839,
      "Ġport": 1840,
      "idence": 1841,
      "Ġface": 1842,
      "Ġinfrastructure": 1843,
      "ours": 1844,
      "Ġkeep": 1845,
      "Ġprovided": 1846,
      "kill": 1847,
      "Ġbeh": 1848,
      "Ġattempt": 1849,
      "ports": 1850,
      "undred": 1851,
      "Ġprogress": 1852,
      "istance": 1853,
      "ĠCoun": 1854,
      "tar": 1855,
      "Ġgoing": 1856,
      "Ġissues": 1857,
      "ites": 1858,
      "Ġitself": 1859,
      "Ġtroops": 1860,
      "gest": 1861,
      "ertain": 1862,
      "ma": 1863,
      "ĠSw": 1864,
      "Ġindepend": 1865,
      "Ġinaug": 1866,
      "Ġdri": 1867,
      "Ġregime": 1868,
      "uge": 1869,
      "standing": 1870,
      "rupt": 1871,
      "ĠWest": 1872,
      "viron": 1873,
      "Ġtar": 1874,
      "eneral": 1875,
      "ĠMed": 1876,
      "Ġclose": 1877,
      "thers": 1878,
      "Ġhost": 1879,
      "vironment": 1880,
      "Ġve": 1881,
      "ony": 1882,
      "Ġcover": 1883,
      "Ġimm": 1884,
      "Ġview": 1885,
      "Ġchange": 1886,
      "Ġfollowing": 1887,
      "Ġauthor": 1888,
      "rem": 1889,
      "Ġmar": 1890,
      "Ġallow": 1891,
      "ĠDay": 1892,
      "line": 1893,
      "aired": 1894,
      "ories": 1895,
      "Ġpossible": 1896,
      "adh": 1897,
      "Ġrun": 1898,
      "Ġregard": 1899,
      "Ġconduct": 1900,
      "ird": 1901,
      "li": 1902,
      "Ġschool": 1903,
      "Ġinstitut": 1904,
      "Ġread": 1905,
      "ĠCouncil": 1906,
      "ultural": 1907,
      "Ġpolicies": 1908,
      "ĠKum": 1909,
      "Ġreceived": 1910,
      "Ġliving": 1911,
      "ĠChennai": 1912,
      "Ġdeep": 1913,
      "ĠCl": 1914,
      "ĠIndust": 1915,
      "iance": 1916,
      "Ġmeans": 1917,
      "cies": 1918,
      "Ġable": 1919,
      "rated": 1920,
      "Ġbuilding": 1921,
      "ĠSouth": 1922,
      "Ġbre": 1923,
      "ama": 1924,
      "Ġstill": 1925,
      "Ġ25": 1926,
      "oday": 1927,
      "Ġold": 1928,
      "Ġviol": 1929,
      "leb": 1930,
      "uary": 1931,
      "Ġquestion": 1932,
      "rid": 1933,
      "ĠJune": 1934,
      "ĠAccording": 1935,
      "ĠDefence": 1936,
      "Ġfunction": 1937,
      "aran": 1938,
      "uly": 1939,
      "ened": 1940,
      "Ġ0": 1941,
      "Ġlocal": 1942,
      "iver": 1943,
      "Ġsan": 1944,
      "Ġchang": 1945,
      "Ġdeb": 1946,
      "ily": 1947,
      "Ġdeal": 1948,
      "Ġsold": 1949,
      "=\"": 1950,
      "Ġfoc": 1951,
      "Ġbasis": 1952,
      "uf": 1953,
      "Ġlo": 1954,
      "Ġappe": 1955,
      "Ġhold": 1956,
      "onse": 1957,
      "ourn": 1958,
      "Ġfull": 1959,
      "down": 1960,
      "Ġlive": 1961,
      "medi": 1962,
      "Ġhig": 1963,
      "ĠSm": 1964,
      "aram": 1965,
      "Ġbelie": 1966,
      "ĠThen": 1967,
      "ware": 1968,
      "yan": 1969,
      "eptember": 1970,
      "Ġconnect": 1971,
      "ĠAfghanistan": 1972,
      "Ġreleased": 1973,
      "Ġfamily": 1974,
      "udget": 1975,
      "Ġservice": 1976,
      "ĠCommit": 1977,
      "ger": 1978,
      "ober": 1979,
      "oura": 1980,
      "ĠCong": 1981,
      "Ġjo": 1982,
      "rant": 1983,
      "Ġ14": 1984,
      "Ġunion": 1985,
      "Ġdra": 1986,
      "Ġcoal": 1987,
      "Ġexperi": 1988,
      "Ġbetter": 1989,
      "Ġincreasing": 1990,
      "IC": 1991,
      "ois": 1992,
      "Ġhowever": 1993,
      "Ġissue": 1994,
      "Ġcities": 1995,
      "wing": 1996,
      "perial": 1997,
      "Ġ13": 1998,
      "ension": 1999,
      "ĠPal": 2000,
      "Ġclear": 2001,
      "Ġevent": 2002,
      "Ġdev": 2003,
      "Ġnat": 2004,
      "ĠGeneral": 2005,
      "Ġincreased": 2006,
      "ĠSab": 2007,
      "oney": 2008,
      "Ġheart": 2009,
      "alled": 2010,
      "ĠOr": 2011,
      "Ġstory": 2012,
      "ĠChief": 2013,
      "Ġdirector": 2014,
      "ĠInstitut": 2015,
      "Ġche": 2016,
      "ĠPh": 2017,
      "Ġhundred": 2018,
      "mp": 2019,
      "ĠHowever": 2020,
      "Ġcases": 2021,
      "Ġheav": 2022,
      "Ġoccup": 2023,
      "ateral": 2024,
      "Ġ100": 2025,
      "ĠThat": 2026,
      "Ġplac": 2027,
      "Ġtaking": 2028,
      "ka": 2029,
      "ĠSeptember": 2030,
      "Ġaccording": 2031,
      "oh": 2032,
      "ĠGe": 2033,
      "Ġ50": 2034,
      "akes": 2035,
      "ribution": 2036,
      "lear": 2037,
      "ĠReg": 2038,
      "aster": 2039,
      "Ġtoo": 2040,
      "Ġnecess": 2041,
      "come": 2042,
      "isting": 2043,
      "Ġgovernments": 2044,
      "ĠDemocratic": 2045,
      "Ġtarget": 2046,
      "mb": 2047,
      "aged": 2048,
      "ification": 2049,
      "udi": 2050,
      "ute": 2051,
      "ones": 2052,
      "acity": 2053,
      "ufact": 2054,
      "Ġparliament": 2055,
      "Ġtop": 2056,
      "Ġattacks": 2057,
      "ually": 2058,
      "Ġinaugur": 2059,
      "Ġavailable": 2060,
      "Ġfail": 2061,
      "ĠMal": 2062,
      "owers": 2063,
      "reet": 2064,
      "Ġpot": 2065,
      "Ġgave": 2066,
      "inci": 2067,
      "ĠJe": 2068,
      "Ġenc": 2069,
      "men": 2070,
      "isions": 2071,
      "ĠCommittee": 2072,
      "Ġhome": 2073,
      "Ġrese": 2074,
      "ats": 2075,
      "Ġforward": 2076,
      "ivity": 2077,
      "Ġelections": 2078,
      "Ġinvestment": 2079,
      "itive": 2080,
      "not": 2081,
      "ĠJuly": 2082,
      "Ġchaired": 2083,
      "Ġopportunity": 2084,
      "ĠToday": 2085,
      "Ġever": 2086,
      "ĠTechnology": 2087,
      "Ġmult": 2088,
      "Ġjud": 2089,
      "Ġseen": 2090,
      "Ġlay": 2091,
      "Ġapproved": 2092,
      "Ġcontinue": 2093,
      "Ġprivate": 2094,
      "Ġimmedi": 2095,
      "ilateral": 2096,
      "Ġcitizens": 2097,
      "Ġrural": 2098,
      "Ġreported": 2099,
      "ging": 2100,
      "ani": 2101,
      "ĠGermany": 2102,
      "Ġident": 2103,
      "Ġstrike": 2104,
      "Ġleadership": 2105,
      "Ġbenefit": 2106,
      "Ġstarted": 2107,
      "Ġsignificant": 2108,
      "Ġsw": 2109,
      "ĠServ": 2110,
      "Ġlit": 2111,
      "apan": 2112,
      "Ġforce": 2113,
      "Ġled": 2114,
      "Ġ24": 2115,
      "Ġide": 2116,
      "Ġvote": 2117,
      "Ġexpressed": 2118,
      "Ġage": 2119,
      "Ġbord": 2120,
      "ovember": 2121,
      "Ġissued": 2122,
      "Ġaccept": 2123,
      "ges": 2124,
      "umb": 2125,
      "reme": 2126,
      "arlier": 2127,
      "Ġactivities": 2128,
      "ĠDirect": 2129,
      "ĠWelfare": 2130,
      "Ġhous": 2131,
      "iqu": 2132,
      "Ġshort": 2133,
      "Ġconsid": 2134,
      "ĠJanuary": 2135,
      "ĠBl": 2136,
      "Ġroad": 2137,
      "imate": 2138,
      "Ġimperial": 2139,
      "Ġgrowing": 2140,
      "Ġtimes": 2141,
      "igital": 2142,
      "rodu": 2143,
      "Ġ17": 2144,
      "ees": 2145,
      "Ġfall": 2146,
      "Ġleader": 2147,
      "Ġcompanies": 2148,
      "Ġthemselves": 2149,
      "iers": 2150,
      "Ġcommand": 2151,
      "ason": 2152,
      "irc": 2153,
      "Ġceleb": 2154,
      "Ġneg": 2155,
      "oses": 2156,
      "Ġprevious": 2157,
      "Ġstat": 2158,
      "Ġspoke": 2159,
      "Ġsix": 2160,
      "Ġothers": 2161,
      "Ġachieve": 2162,
      "Ġtre": 2163,
      "ream": 2164,
      "ators": 2165,
      "Ġdetail": 2166,
      "ĠPe": 2167,
      "ĠIraqi": 2168,
      "ĠNo": 2169,
      "ening": 2170,
      "Ġmight": 2171,
      "ĠHigh": 2172,
      "irit": 2173,
      "omet": 2174,
      "urd": 2175,
      "ĠCongress": 2176,
      "ctober": 2177,
      "oice": 2178,
      "Ġmov": 2179,
      "Ġhop": 2180,
      "ĠNovember": 2181,
      "ĠMission": 2182,
      "ployment": 2183,
      "ĠMoU": 2184,
      "Ġden": 2185,
      "ĠMore": 2186,
      "conomic": 2187,
      "Ġobject": 2188,
      "Ġpowers": 2189,
      "icle": 2190,
      "ĠHis": 2191,
      "ude": 2192,
      "ĠRailways": 2193,
      "Ġhospital": 2194,
      "Ġdecided": 2195,
      "Ġfind": 2196,
      "iber": 2197,
      "uclear": 2198,
      "atter": 2199,
      "Ġdiv": 2200,
      "oz": 2201,
      "Ġcontribut": 2202,
      "Ġmedical": 2203,
      "Ġinfl": 2204,
      "ights": 2205,
      "Ġinnov": 2206,
      "go": 2207,
      "astern": 2208,
      "ensions": 2209,
      "Ġvir": 2210,
      "Ġwhe": 2211,
      "ĠJapan": 2212,
      "Ġaccess": 2213,
      "Ġcomplete": 2214,
      "ĠDuring": 2215,
      "Ġprevent": 2216,
      "Ġfacilities": 2217,
      "Ġmob": 2218,
      "Ġleading": 2219,
      "Ġaut": 2220,
      "Ġleast": 2221,
      "Ġcompet": 2222,
      "Ġmanufact": 2223,
      "Ġ16": 2224,
      "Ġbroad": 2225,
      "amb": 2226,
      "Ġcapacity": 2227,
      "Ġess": 2228,
      "Ġprogramme": 2229,
      "icated": 2230,
      "Ġdou": 2231,
      "ularly": 2232,
      "IT": 2233,
      "tra": 2234,
      "els": 2235,
      "Ġasked": 2236,
      "Ġut": 2237,
      "ini": 2238,
      "Ġthink": 2239,
      "ĠDav": 2240,
      "ĠPublic": 2241,
      "Ġcri": 2242,
      "Ġshoot": 2243,
      "ourge": 2244,
      "Ġlim": 2245,
      "pect": 2246,
      "Ġapproves": 2247,
      "AT": 2248,
      "Ġneeds": 2249,
      "Ġkey": 2250,
      "andemic": 2251,
      "ĠBritish": 2252,
      "ĠSEP": 2253,
      "Ġagreed": 2254,
      "ĠVij": 2255,
      "Ġdirected": 2256,
      "Ġthousands": 2257,
      "Ġjobs": 2258,
      "ĠWar": 2259,
      "Ġproviding": 2260,
      "ĠOctober": 2261,
      "Ġhaving": 2262,
      "ĠTrans": 2263,
      "Ġnear": 2264,
      "Ġspread": 2265,
      "Ġcannot": 2266,
      "ples": 2267,
      "enior": 2268,
      "ĠSe": 2269,
      "Ġhimself": 2270,
      "Ġmoney": 2271,
      "ĠPar": 2272,
      "Ġupon": 2273,
      "ourgeois": 2274,
      "nam": 2275,
      "crib": 2276,
      "Ġfamilies": 2277,
      "Ġopportun": 2278,
      "tle": 2279,
      "Ġ[": 2280,
      "Ġdon": 2281,
      "Ġunions": 2282,
      "18": 2283,
      "Ġgot": 2284,
      "ource": 2285,
      "Ġwhole": 2286,
      "ech": 2287,
      "ĠHome": 2288,
      "amm": 2289,
      "Ġyet": 2290,
      "Ġcertain": 2291,
      "Ġmor": 2292,
      "Ġoffice": 2293,
      "Ġcompl": 2294,
      "Ġago": 2295,
      "Ġrate": 2296,
      "Ġposition": 2297,
      "itation": 2298,
      "ication": 2299,
      "Ġcomb": 2300,
      "for": 2301,
      "Ġself": 2302,
      "Ġet": 2303,
      "Ġconflic": 2304,
      "ĠFore": 2305,
      "Ġsuff": 2306,
      "emor": 2307,
      "Ġsat": 2308,
      "Ġgeneral": 2309,
      "Ġarmy": 2310,
      "ĠAsia": 2311,
      "Ġrelated": 2312,
      "ĠVijay": 2313,
      "ody": 2314,
      "Ġvict": 2315,
      "ored": 2316,
      "pecial": 2317,
      "ĠSu": 2318,
      "nding": 2319,
      "ggest": 2320,
      "Ġweap": 2321,
      "Ġmaintain": 2322,
      "Ġeffective": 2323,
      "Ġbomb": 2324,
      "duc": 2325,
      "ĠCentre": 2326,
      "Ġfire": 2327,
      "ĠLord": 2328,
      "sequ": 2329,
      "Ġhistory": 2330,
      "Ġimprove": 2331,
      "ĠPalest": 2332,
      "Ġplans": 2333,
      "Ġsing": 2334,
      "Ġinstitutions": 2335,
      "ead": 2336,
      "Ġhard": 2337,
      "ĠUt": 2338,
      "Ġpotential": 2339,
      "ocracy": 2340,
      "ĠOb": 2341,
      "Ġsigned": 2342,
      "ipp": 2343,
      "Ġresponse": 2344,
      "ugust": 2345,
      "ĠSince": 2346,
      "Ġlink": 2347,
      "Ġmanagement": 2348,
      "Ġtraining": 2349,
      "pir": 2350,
      "Ġthing": 2351,
      "AN": 2352,
      "oti": 2353,
      "Ġspeak": 2354,
      "Ġbourgeois": 2355,
      "Ġunt": 2356,
      "ĠDavid": 2357,
      "Ġnever": 2358,
      "Ġsuggest": 2359,
      "Ġimpact": 2360,
      "Ġfra": 2361,
      "Ġcorpor": 2362,
      "Ġtrib": 2363,
      "Ġestablishment": 2364,
      "ĠScheme": 2365,
      "ĠAfric": 2366,
      "ority": 2367,
      ".\"": 2368,
      "30": 2369,
      "Ġcred": 2370,
      "Ġsep": 2371,
      "pite": 2372,
      "ategic": 2373,
      "Ġetc": 2374,
      "US": 2375,
      "50": 2376,
      "ades": 2377,
      "Ġkilled": 2378,
      "Ġtreat": 2379,
      "rying": 2380,
      "Ġagreement": 2381,
      "ots": 2382,
      "Ġencoura": 2383,
      "Ġearth": 2384,
      "Ġcoming": 2385,
      "ĠAss": 2386,
      "Ġrelease": 2387,
      "Ġcommunity": 2388,
      "ĠPl": 2389,
      "Ġconference": 2390,
      "Ġ21": 2391,
      "ival": 2392,
      "Ġcommon": 2393,
      "ium": 2394,
      "mir": 2395,
      "Ġlaunch": 2396,
      "Ġaware": 2397,
      "app": 2398,
      "Ġpartners": 2399,
      "Ġcompany": 2400,
      "ojana": 2401,
      "Ġwhy": 2402,
      "Ġtherefore": 2403,
      "Ġelite": 2404,
      "oad": 2405,
      "Ġreview": 2406,
      "cember": 2407,
      "ĠEven": 2408,
      "ogn": 2409,
      "Ġlargest": 2410,
      "Ġchalleng": 2411,
      "Ġpandemic": 2412,
      "aper": 2413,
      "Ġresearch": 2414,
      "ĠBo": 2415,
      "Ġhalf": 2416,
      "hu": 2417,
      "Ġshare": 2418,
      "Ġcentral": 2419,
      "ky": 2420,
      "ises": 2421,
      "Ġproblems": 2422,
      "rations": 2423,
      "ĠAust": 2424,
      "Ġwhose": 2425,
      "usic": 2426,
      "gu": 2427,
      "Ġsocialist": 2428,
      "Ġer": 2429,
      "ĠTimes": 2430,
      "Ġlock": 2431,
      "Ġsum": 2432,
      "Ġspirit": 2433,
      "ĠCommun": 2434,
      "atic": 2435,
      "Ġnuclear": 2436,
      "Ġexpected": 2437,
      "ceed": 2438,
      "Ġsist": 2439,
      "ĠMa": 2440,
      "Ġstated": 2441,
      "Ġdisp": 2442,
      "Ġpromot": 2443,
      "ches": 2444,
      "Ġclean": 2445,
      "Ġresources": 2446,
      "Ġcarried": 2447,
      "Ġfocus": 2448,
      "Ġfear": 2449,
      "ham": 2450,
      "Ġdefence": 2451,
      "Ġdeter": 2452,
      "ĠGuj": 2453,
      "Ġnecessary": 2454,
      "ĠJer": 2455,
      "pecially": 2456,
      "Ġsupply": 2457,
      "Ġsays": 2458,
      "Ġenvironment": 2459,
      "ĠMar": 2460,
      "vey": 2461,
      "ĠMr": 2462,
      "Ġprinci": 2463,
      "formed": 2464,
      "Ġpropos": 2465,
      "Ġassoci": 2466,
      "ĠScience": 2467,
      "ĠGand": 2468,
      "antri": 2469,
      "Ġwritten": 2470,
      "17": 2471,
      "Ġpract": 2472,
      "Ġrecord": 2473,
      "atform": 2474,
      "ellig": 2475,
      "ĠMy": 2476,
      "eral": 2477,
      "Ġsuccessful": 2478,
      "Ġthroughout": 2479,
      "Ġscen": 2480,
      "ĠOur": 2481,
      "Ġord": 2482,
      "chemes": 2483,
      "Ġhistor": 2484,
      "ĠInstitute": 2485,
      "Ġsy": 2486,
      "Ġbegin": 2487,
      "Ġpopular": 2488,
      "rist": 2489,
      "ĠAugust": 2490,
      "ĠFeb": 2491,
      "ledge": 2492,
      "ĠEn": 2493,
      "phas": 2494,
      "Ġtem": 2495,
      "Ġsal": 2496,
      "ĠDecember": 2497,
      "ĠWhat": 2498,
      "We": 2499,
      "Ġded": 2500,
      "Ġline": 2501,
      "ada": 2502,
      "Ã©": 2503,
      "Ġtransport": 2504,
      "Ġlist": 2505,
      "Ġstatement": 2506,
      "encies": 2507,
      "Ġnor": 2508,
      "ĠHouse": 2509,
      "Ġans": 2510,
      "Ġcollabor": 2511,
      "ruary": 2512,
      "Ġrevolution": 2513,
      "ME": 2514,
      "Ġcharact": 2515,
      "AR": 2516,
      "de": 2517,
      "Ġnon": 2518,
      "Ġ198": 2519,
      "Ġofficers": 2520,
      "Ġpati": 2521,
      "Ġgas": 2522,
      "ĠPr": 2523,
      "Ġground": 2524,
      "Ġsoldiers": 2525,
      "Ġessential": 2526,
      "ĠUttar": 2527,
      "ensive": 2528,
      "anth": 2529,
      "illions": 2530,
      "ently": 2531,
      "ler": 2532,
      "most": 2533,
      "Ġfig": 2534,
      "ĠWork": 2535,
      "Ġtill": 2536,
      "rep": 2537,
      "Ġmount": 2538,
      "Ġcreated": 2539,
      "part": 2540,
      "uty": 2541,
      "ĠGujarat": 2542,
      "ĠJud": 2543,
      "Ġgroups": 2544,
      "Ġtru": 2545,
      "Ġearly": 2546,
      "Ġmajority": 2547,
      "Ġcreate": 2548,
      "Ġoperations": 2549,
      "Ġwords": 2550,
      "Ġespecially": 2551,
      "ĠPort": 2552,
      "Ġdoing": 2553,
      "Ġrequire": 2554,
      "dom": 2555,
      "ĠIsl": 2556,
      "Ġscient": 2557,
      "Ġnothing": 2558,
      "Ġbudget": 2559,
      "ĠPalestin": 2560,
      "lim": 2561,
      "Ġjourn": 2562,
      "Ġsecret": 2563,
      "Ġquality": 2564,
      "Ġskill": 2565,
      "Ġcapitalist": 2566,
      "ĠJust": 2567,
      "ĠIsraeli": 2568,
      "Ġdeveloped": 2569,
      "ĠSabha": 2570,
      "Ġopportunities": 2571,
      "ĠUniversity": 2572,
      "Ġcourse": 2573,
      "ator": 2574,
      "Ġcirc": 2575,
      "Ġoffer": 2576,
      "Ġemployment": 2577,
      "Ġcontinued": 2578,
      "ĠKer": 2579,
      "Ġsons": 2580,
      "arent": 2581,
      "atory": 2582,
      "ait": 2583,
      "Ġlow": 2584,
      "Ġincome": 2585,
      "apak": 2586,
      "ĠAustral": 2587,
      "PD": 2588,
      "ĠMantri": 2589,
      "Ġteam": 2590,
      "ament": 2591,
      "ĠNav": 2592,
      "hers": 2593,
      "light": 2594,
      "Ġmember": 2595,
      "rate": 2596,
      "Ġamount": 2597,
      "ĠEU": 2598,
      "Ġimplementation": 2599,
      "Ġhours": 2600,
      "etro": 2601,
      "vi": 2602,
      "ying": 2603,
      "Ġmother": 2604,
      "Ġcast": 2605,
      "Ġtele": 2606,
      "reedom": 2607,
      "ĠApp": 2608,
      "Ġbanks": 2609,
      "Ġshooting": 2610,
      "ĠPost": 2611,
      "ricts": 2612,
      "Ġknown": 2613,
      "ably": 2614,
      "ivid": 2615,
      "ĠSin": 2616,
      "Ġreach": 2617,
      "cer": 2618,
      "ne": 2619,
      "aled": 2620,
      "rison": 2621,
      "unt": 2622,
      "ached": 2623,
      "ĠRajapak": 2624,
      "Ġjoint": 2625,
      "Ġinteg": 2626,
      "ĠKash": 2627,
      "Ġweapons": 2628,
      "Ġalways": 2629,
      "side": 2630,
      "Ġsaw": 2631,
      "Ġchief": 2632,
      "Ġpolitics": 2633,
      "ĠRussia": 2634,
      "ĠFebruary": 2635,
      "Ġhands": 2636,
      "atch": 2637,
      "ĠColomb": 2638,
      "Ġinitiatives": 2639,
      "vest": 2640,
      "Ġintrodu": 2641,
      "Ġinclude": 2642,
      "isc": 2643,
      "Ġregist": 2644,
      "Ġthousand": 2645,
      "Ġcharacter": 2646,
      "Ġwin": 2647,
      "elligence": 2648,
      "ĠLankan": 2649,
      "ĠBa": 2650,
      "ĠNadu": 2651,
      "Ġkind": 2652,
      "Ġserious": 2653,
      "raf": 2654,
      "ĠBi": 2655,
      "Ġusing": 2656,
      "ratul": 2657,
      "ilities": 2658,
      "IS": 2659,
      "usal": 2660,
      "Ġbook": 2661,
      "lus": 2662,
      "Ġearlier": 2663,
      "oga": 2664,
      "Th": 2665,
      "Ġparticularly": 2666,
      "Ġonce": 2667,
      "rs": 2668,
      "use": 2669,
      "estic": 2670,
      "itness": 2671,
      "nes": 2672,
      "Ġround": 2673,
      "agar": 2674,
      "Ġca": 2675,
      "gypt": 2676,
      "ĠRajapakse": 2677,
      "Ġimportance": 2678,
      "Ġwhom": 2679,
      "Ġabove": 2680,
      "ĠSur": 2681,
      "ĠEgypt": 2682,
      "Ġthird": 2683,
      "Ġemphas": 2684,
      "engal": 2685,
      "ĠSim": 2686,
      "ĠMinisters": 2687,
      "Ġblood": 2688,
      "Ġprepared": 2689,
      "ĠGST": 2690,
      "pur": 2691,
      "ĠParliament": 2692,
      "gency": 2693,
      "ilt": 2694,
      "ĠBengal": 2695,
      "airman": 2696,
      "pid": 2697,
      "Ġey": 2698,
      "Ġplatform": 2699,
      "ureau": 2700,
      "Ġmess": 2701,
      "omes": 2702,
      "ulation": 2703,
      "ester": 2704,
      "Ġrespect": 2705,
      "VP": 2706,
      "ividual": 2707,
      "sec": 2708,
      "Ind": 2709,
      "Ġterrorism": 2710,
      "Ġbr": 2711,
      "ĠSam": 2712,
      "Ġsoon": 2713,
      "ĠComp": 2714,
      "Ġdestro": 2715,
      "Ġdiffic": 2716,
      "Ġvillages": 2717,
      "ex": 2718,
      "Ġsenior": 2719,
      "Ġnegoti": 2720,
      "ĠAmerica": 2721,
      "Ġproducts": 2722,
      "Ġcoalition": 2723,
      "ĠSol": 2724,
      "Ġ31": 2725,
      "angu": 2726,
      "ĠPradhan": 2727,
      "ĠGandhi": 2728,
      "Ġspok": 2729,
      "Ġsections": 2730,
      "Ġside": 2731,
      "ains": 2732,
      "Ġnoted": 2733,
      "avan": 2734,
      "ara": 2735,
      "Ġ40": 2736,
      "Ġtalks": 2737,
      "Ġborder": 2738,
      "anda": 2739,
      "uel": 2740,
      "Ġplant": 2741,
      "ĠMS": 2742,
      "Ġmention": 2743,
      "Ġnet": 2744,
      "Ġdifficult": 2745,
      "Ġassistance": 2746,
      "Ġloss": 2747,
      "earch": 2748,
      "ĠStal": 2749,
      "gar": 2750,
      "reg": 2751,
      "quality": 2752,
      "igned": 2753,
      "road": 2754,
      "Ġlaid": 2755,
      "Ġrail": 2756,
      "by": 2757,
      "Ġforth": 2758,
      "Ġresol": 2759,
      "pective": 2760,
      "Ġtravel": 2761,
      "Ġestim": 2762,
      "ĠAgriculture": 2763,
      "Ġrecogn": 2764,
      "Ġoccupation": 2765,
      "ĠProg": 2766,
      "Ġstrength": 2767,
      "Ġcourt": 2768,
      "Ġbreak": 2769,
      "ĠYojana": 2770,
      "nergy": 2771,
      "ĠTel": 2772,
      "Ġemb": 2773,
      "Ġdistrict": 2774,
      "Ġchallenges": 2775,
      "ously": 2776,
      "Ġbehind": 2777,
      "ĠGeor": 2778,
      "view": 2779,
      "orrow": 2780,
      "ift": 2781,
      "Ġhol": 2782,
      "ĠDirector": 2783,
      "II": 2784,
      "ĠArab": 2785,
      "Ġweb": 2786,
      "Ġtour": 2787,
      "Ġinvolved": 2788,
      "ĠLabour": 2789,
      "Ġsust": 2790,
      "ĠEconomic": 2791,
      "Ġpressure": 2792,
      "Ġindividual": 2793,
      "ali": 2794,
      "Ġapplic": 2795,
      "Ġweeks": 2796,
      "SS": 2797,
      "fer": 2798,
      "ilar": 2799,
      "ĠTra": 2800,
      "Ġrecently": 2801,
      "Ġ22": 2802,
      "ĠSecurity": 2803,
      "ls": 2804,
      "itude": 2805,
      "Ġlight": 2806,
      "Ġnearly": 2807,
      "Ġuntil": 2808,
      "izing": 2809,
      "Ġmind": 2810,
      "ption": 2811,
      "Ġbegan": 2812,
      "Ġlockdown": 2813,
      "esterday": 2814,
      "fety": 2815,
      "Ġconstruction": 2816,
      "Ġsou": 2817,
      "Ġcollect": 2818,
      "Ġneither": 2819,
      "Ġappre": 2820,
      "ĠKashmir": 2821,
      "Ġwhether": 2822,
      "inary": 2823,
      "Ġthought": 2824,
      "Ġmanner": 2825,
      "Ġconstitution": 2826,
      "Ġadop": 2827,
      "imum": 2828,
      "Ġ202": 2829,
      "Ġrequest": 2830,
      "Ġrequired": 2831,
      "Ġbenefits": 2832,
      "ozy": 2833,
      "mar": 2834,
      "acy": 2835,
      "arkozy": 2836,
      "Ġmodern": 2837,
      "Ġmusic": 2838,
      "Ġpromote": 2839,
      "Ġsteps": 2840,
      "Ġhon": 2841,
      "Ġori": 2842,
      "Ġwel": 2843,
      "ĠPer": 2844,
      "abad": 2845,
      "ĠResearch": 2846,
      "DP": 2847,
      "Ġgold": 2848,
      "Ġcongratul": 2849,
      "Ġexam": 2850,
      "ĠColombo": 2851,
      "bit": 2852,
      "irth": 2853,
      "Ġdau": 2854,
      "ashtra": 2855,
      "ĠIndustry": 2856,
      "ĠSarkozy": 2857,
      "Ġvision": 2858,
      "ĠObama": 2859,
      "ample": 2860,
      "Ġinitiative": 2861,
      "Ġhigher": 2862,
      "ĠCour": 2863,
      "Ġexec": 2864,
      "Ġhuge": 2865,
      "Ġparts": 2866,
      "Ġris": 2867,
      "Ġreforms": 2868,
      "Ġtit": 2869,
      "ese": 2870,
      "Ġbelieve": 2871,
      "ull": 2872,
      "Ġdecades": 2873,
      "Ġschemes": 2874,
      "Ġcy": 2875,
      "ĠPS": 2876,
      "Ġmiddle": 2877,
      "rop": 2878,
      "Ġexisting": 2879,
      "thing": 2880,
      "ĠEng": 2881,
      "Ġdemocracy": 2882,
      "Ġculture": 2883,
      "ĠJes": 2884,
      "Ġlikely": 2885,
      "ĠBang": 2886,
      "merce": 2887,
      "hood": 2888,
      "head": 2889,
      "Ġsong": 2890,
      "oms": 2891,
      "ĠCons": 2892,
      "Ġcrores": 2893,
      "Ġunderst": 2894,
      "Ġfinal": 2895,
      "now": 2896,
      "ott": 2897,
      "rene": 2898,
      "Ġbrothers": 2899,
      "Ġdead": 2900,
      "isha": 2901,
      "Ġpriest": 2902,
      "ĠCorpor": 2903,
      "MS": 2904,
      "anced": 2905,
      "utions": 2906,
      "ami": 2907,
      "ubl": 2908,
      "Ġestablished": 2909,
      "Ġworth": 2910,
      "Ġexch": 2911,
      "ĠKore": 2912,
      "ideo": 2913,
      "ĠChand": 2914,
      "Ġcritic": 2915,
      "Ġaddition": 2916,
      "Ġconflict": 2917,
      "Ġdistricts": 2918,
      "Ġgreater": 2919,
      "Ġcommitment": 2920,
      "Ġcommitted": 2921,
      "Ġterms": 2922,
      "ĠEnergy": 2923,
      "Ġseries": 2924,
      "Ġdemands": 2925,
      "Ġheard": 2926,
      "Ġaward": 2927,
      "Ġfell": 2928,
      "Ġproposed": 2929,
      "ĠBritain": 2930,
      "Ġdate": 2931,
      "Ġnations": 2932,
      "Ġseven": 2933,
      "ĠSub": 2934,
      "Ġreason": 2935,
      "isted": 2936,
      "Ġsuper": 2937,
      "ĠEduc": 2938,
      "PA": 2939,
      "Ġreserv": 2940,
      "isl": 2941,
      "ĠGo": 2942,
      "ĠChrist": 2943,
      "Ġwon": 2944,
      "cell": 2945,
      "arant": 2946,
      "Ġthank": 2947,
      "endra": 2948,
      "ively": 2949,
      "Ġoffering": 2950,
      "aily": 2951,
      "Ġcreat": 2952,
      "ĠDist": 2953,
      "ĠFamil": 2954,
      "Ġproduced": 2955,
      "Ġagriculture": 2956,
      "Ġ2016": 2957,
      "Ġelectric": 2958,
      "Ġstop": 2959,
      "ogra": 2960,
      "ault": 2961,
      "Ġmot": 2962,
      "Ġaccom": 2963,
      "Ġresponsibility": 2964,
      "ery": 2965,
      "ented": 2966,
      "ĠSat": 2967,
      "rand": 2968,
      "aya": 2969,
      "Ġfundament": 2970,
      "Ġemp": 2971,
      "Ġdoub": 2972,
      "Ġsisters": 2973,
      "Ġi": 2974,
      "Ġlangu": 2975,
      "Ġtechn": 2976,
      "ĠKumar": 2977,
      "ĠMus": 2978,
      "Ġeffect": 2979,
      "Ġpatients": 2980,
      "rif": 2981,
      "udd": 2982,
      "Ġpurp": 2983,
      "Ġreject": 2984,
      "avi": 2985,
      "Ġknowledge": 2986,
      "Ġviolence": 2987,
      "ump": 2988,
      "...": 2989,
      "Ġturned": 2990,
      "igation": 2991,
      "reprene": 2992,
      "Ġdestroy": 2993,
      "araj": 2994,
      "roll": 2995,
      "Ġacting": 2996,
      "Ġspeech": 2997,
      "hel": 2998,
      "verage": 2999,
      "rade": 3000,
      "cific": 3001,
      "ĠJerusal": 3002,
      "ĠJerusalem": 3003,
      "Ġbilateral": 3004,
      "Ġundert": 3005,
      "Ġbecame": 3006,
      "Ġapproval": 3007,
      "ĠAdd": 3008,
      "Ġlove": 3009,
      "Ġund": 3010,
      "Ġlegal": 3011,
      "ĠFamily": 3012,
      "pris": 3013,
      "Ġ26": 3014,
      "eft": 3015,
      "ĠMemor": 3016,
      "oman": 3017,
      "Ġ197": 3018,
      "eg": 3019,
      "ĠCan": 3020,
      "io": 3021,
      "Ġwelfare": 3022,
      "ĠPri": 3023,
      "Ġconsider": 3024,
      "Ġlab": 3025,
      "Ġworks": 3026,
      "Ġdetails": 3027,
      "Ġappear": 3028,
      "Ġindependent": 3029,
      "Ġplaces": 3030,
      "ĠMadh": 3031,
      "ĠBill": 3032,
      "Ġrapid": 3033,
      "Ġstrategic": 3034,
      "minal": 3035,
      "Ġpubl": 3036,
      "Ġnatural": 3037,
      "icles": 3038,
      "Ġconsum": 3039,
      "Ġperspective": 3040,
      "Ġexample": 3041,
      "Ġstandards": 3042,
      "Ġgovern": 3043,
      "Ġinteract": 3044,
      "Ġlater": 3045,
      "ĠBoth": 3046,
      "Ġpresidential": 3047,
      "ĠSpecial": 3048,
      "Ġfav": 3049,
      "ocu": 3050,
      "Ġthereof": 3051,
      "istic": 3052,
      "Ġgather": 3053,
      "Ġperform": 3054,
      "Ġarrest": 3055,
      "ĠSome": 3056,
      "Ġnewsp": 3057,
      "Ġaimed": 3058,
      "ĠProgram": 3059,
      "kar": 3060,
      "Ġsea": 3061,
      "Ġboost": 3062,
      "ĠSpeaking": 3063,
      "Ġappreci": 3064,
      "ĠJesus": 3065,
      "enge": 3066,
      "Ġdr": 3067,
      "ĠSmt": 3068,
      "Ġproper": 3069,
      "Ġenter": 3070,
      "well": 3071,
      "Ġdigital": 3072,
      "Ġsubs": 3073,
      "Ġten": 3074,
      "Ġrise": 3075,
      "Ġpersons": 3076,
      "Ġprice": 3077,
      "Ġpric": 3078,
      "ĠSy": 3079,
      "Ġdomestic": 3080,
      "Ġcause": 3081,
      "add": 3082,
      "Ġactions": 3083,
      "ames": 3084,
      "Ġobs": 3085,
      "Ġlittle": 3086,
      "umbai": 3087,
      "Ġsimilar": 3088,
      "Ġdream": 3089,
      "ĠSch": 3090,
      "Ġpartnership": 3091,
      "Ġ28": 3092,
      "Ġunp": 3093,
      "CI": 3094,
      "Ġmatter": 3095,
      "Ġagg": 3096,
      "Ġcandidate": 3097,
      "Ġlost": 3098,
      "Ġdirectly": 3099,
      "lad": 3100,
      "Ġsought": 3101,
      "hra": 3102,
      "ipl": 3103,
      "het": 3104,
      "co": 3105,
      "ĠSum": 3106,
      "Ġbasic": 3107,
      "Ġresponsible": 3108,
      "ER": 3109,
      "aron": 3110,
      "asi": 3111,
      "ĠDes": 3112,
      "ĠLeft": 3113,
      "ems": 3114,
      "Ġsac": 3115,
      "Ġcentury": 3116,
      "Ġdescrib": 3117,
      "Ġmission": 3118,
      "Ġ23": 3119,
      "Ġarmed": 3120,
      "ovid": 3121,
      "arsh": 3122,
      "Ġtesting": 3123,
      "ĠBoard": 3124,
      "ĠIslam": 3125,
      "Ġwis": 3126,
      "Ġlat": 3127,
      "Ġsectors": 3128,
      "Ġmassive": 3129,
      "âĢ": 3130,
      "Ġwitness": 3131,
      "Ġprison": 3132,
      "ĠIC": 3133,
      "Ġcuts": 3134,
      "Ġrupe": 3135,
      "Ġhouses": 3136,
      "âĢĺ": 3137,
      "ĠSar": 3138,
      "Ġlot": 3139,
      "ighb": 3140,
      "aterial": 3141,
      "Ġinflu": 3142,
      "Ġbuilt": 3143,
      "ĠPers": 3144,
      "chan": 3145,
      "Ġdefend": 3146,
      "Ġauthorities": 3147,
      "ĠKar": 3148,
      "range": 3149,
      "Ġsubject": 3150,
      "icit": 3151,
      "Ġprotests": 3152,
      "Ġcomment": 3153,
      "Ġparticipation": 3154,
      "Ġstrik": 3155,
      "Ġindustrial": 3156,
      "ĠRegion": 3157,
      "uru": 3158,
      "overty": 3159,
      "Ġpersonnel": 3160,
      "Ġaid": 3161,
      "ederal": 3162,
      "Ġdise": 3163,
      "Ġcapitalism": 3164,
      "Ġregional": 3165,
      "Ġconducted": 3166,
      "Ġbase": 3167,
      "ĠGovernments": 3168,
      "Ġrelig": 3169,
      "ĠOrgan": 3170,
      "ĠSinh": 3171,
      "Ġpaid": 3172,
      "Ġwithd": 3173,
      "cast": 3174,
      "ĠPat": 3175,
      "ĠYoga": 3176,
      "Ġsingle": 3177,
      "ike": 3178,
      "Ġz": 3179,
      "Ġpar": 3180,
      "Ġnight": 3181,
      "hib": 3182,
      "ammu": 3183,
      "Ġfoundation": 3184,
      "PM": 3185,
      "Ġmillions": 3186,
      "ĠMumbai": 3187,
      "iles": 3188,
      "Ġren": 3189,
      "ĠRoad": 3190,
      "Ġapproach": 3191,
      "Ġreports": 3192,
      "Ġrule": 3193,
      "ĠBlair": 3194,
      "ĠMuslim": 3195,
      "Ġfriends": 3196,
      "Ġbri": 3197,
      "Ġdata": 3198,
      "Ġnorth": 3199,
      "rely": 3200,
      "Ġmer": 3201,
      "Ġeas": 3202,
      "Ġyesterday": 3203,
      "Ġ60": 3204,
      "Ġfeat": 3205,
      "Ġban": 3206,
      "Ġwealth": 3207,
      "Ġworked": 3208,
      "ĠâĢĺ": 3209,
      "ĠJammu": 3210,
      "aving": 3211,
      "Ġvalue": 3212,
      "Ġdire": 3213,
      "ĠMoses": 3214,
      "uv": 3215,
      "Ġtechnolog": 3216,
      "orage": 3217,
      "ĠDo": 3218,
      "isations": 3219,
      "vision": 3220,
      "ĠFood": 3221,
      "athy": 3222,
      "Ġevents": 3223,
      "inated": 3224,
      "rac": 3225,
      "Ġexperience": 3226,
      "af": 3227,
      "hest": 3228,
      "Ġ27": 3229,
      "cont": 3230,
      "Ġunem": 3231,
      "Ġplayed": 3232,
      "Ġtown": 3233,
      "Ġorganized": 3234,
      "iversary": 3235,
      "Ġbar": 3236,
      "Ġcomes": 3237,
      "Ġunc": 3238,
      "Ġproblem": 3239,
      "ĠRussian": 3240,
      "Ġmanufacturing": 3241,
      "Ġtreatment": 3242,
      "raw": 3243,
      "Ġdefe": 3244,
      "ĠForeign": 3245,
      "ainable": 3246,
      "Ġfighting": 3247,
      "repreneurs": 3248,
      "SE": 3249,
      "ĠSund": 3250,
      "ĠFund": 3251,
      "Ġgeneration": 3252,
      "Ġsepar": 3253,
      "hab": 3254,
      "ona": 3255,
      "mework": 3256,
      "Ġpresence": 3257,
      "ĠMiddle": 3258,
      "urance": 3259,
      "irst": 3260,
      "Ġvoice": 3261,
      "Ġscreen": 3262,
      "ique": 3263,
      "cise": 3264,
      "oral": 3265,
      "Ġpra": 3266,
      "icy": 3267,
      "Ġthus": 3268,
      "raj": 3269,
      "Ġdeleg": 3270,
      "ĠCooperation": 3271,
      "Ġsil": 3272,
      "Ġsus": 3273,
      "uses": 3274,
      "IA": 3275,
      "ps": 3276,
      "Ġclos": 3277,
      "ĠCont": 3278,
      "ariat": 3279,
      "Ġhappy": 3280,
      "Ġesc": 3281,
      "based": 3282,
      "ĠJudah": 3283,
      "be": 3284,
      "ĠAy": 3285,
      "ĠEducation": 3286,
      "elines": 3287,
      "aka": 3288,
      "Ġneighb": 3289,
      "Ġfeel": 3290,
      "ĠCommunist": 3291,
      "Ġclaims": 3292,
      "Ġfollowed": 3293,
      "ĠDemocrat": 3294,
      "ĠCourt": 3295,
      "Ġlatest": 3296,
      "ĠSan": 3297,
      "Ġrather": 3298,
      "WS": 3299,
      "anger": 3300,
      "semb": 3301,
      "Ġfreedom": 3302,
      "ĠKam": 3303,
      "Ġcandidates": 3304,
      "Ġreve": 3305,
      "Ġinformed": 3306,
      "Ġgen": 3307,
      "ĠEastern": 3308,
      "ĠVen": 3309,
      "Ġcompleted": 3310,
      "year": 3311,
      "Ġaltern": 3312,
      "ows": 3313,
      "Ġrecom": 3314,
      "ĠTherefore": 3315,
      "Ġprices": 3316,
      "Ġimperialism": 3317,
      "Ġdepend": 3318,
      "Ġprotect": 3319,
      "JP": 3320,
      "ĠĠ": 3321,
      "Ġpoverty": 3322,
      "Ġdepart": 3323,
      "mical": 3324,
      "Ġadditional": 3325,
      "ureauc": 3326,
      "Ã¢": 3327,
      "ghter": 3328,
      "Ġpersonal": 3329,
      "Ġmarkets": 3330,
      "Ġconcerned": 3331,
      "ĠSect": 3332,
      "Ġappoint": 3333,
      "Ġopposed": 3334,
      "ĠAfrica": 3335,
      "Ġwife": 3336,
      "Ġeat": 3337,
      "ĠPra": 3338,
      "Ġdoct": 3339,
      "Ġhousehold": 3340,
      "ĠAgreement": 3341,
      "Ġstorage": 3342,
      "ressing": 3343,
      "Ġevidence": 3344,
      "CR": 3345,
      "Ġsomet": 3346,
      "Ġpositive": 3347,
      "Ġveh": 3348,
      "Ġrepe": 3349,
      "Ġnews": 3350,
      "ĠAssoci": 3351,
      "Ġliber": 3352,
      "Ġbenefici": 3353,
      "rug": 3354,
      "ricultural": 3355,
      "Ġteac": 3356,
      "Ġpack": 3357,
      "ications": 3358,
      "ĠPa": 3359,
      "ĠHind": 3360,
      "Ġ196": 3361,
      "PF": 3362,
      "erve": 3363,
      "aji": 3364,
      "Ġbureauc": 3365,
      "Ġreb": 3366,
      "ĠCovid": 3367,
      "Ġimmig": 3368,
      "Ġdirection": 3369,
      "Ġfest": 3370,
      "Ġstay": 3371,
      "inese": 3372,
      "Ġintelligence": 3373,
      "Ġcontribution": 3374,
      "ĠNe": 3375,
      "ods": 3376,
      "achh": 3377,
      "Ġbeginning": 3378,
      "',": 3379,
      "Ġpred": 3380,
      "pped": 3381,
      "10": 3382,
      "let": 3383,
      "ĠTro": 3384,
      "ĠBal": 3385,
      "Ġoutside": 3386,
      "Ġvillage": 3387,
      "ancing": 3388,
      "Ġarri": 3389,
      "Ġsection": 3390,
      "Ġple": 3391,
      "ĠNot": 3392,
      "ĠYork": 3393,
      "Ġfulf": 3394,
      "Ġrepresentatives": 3395,
      "Ġobjective": 3396,
      "Ġmessage": 3397,
      "Ġpath": 3398,
      "ley": 3399,
      "resp": 3400,
      "Ġlakhs": 3401,
      "Ġmut": 3402,
      "ĠEm": 3403,
      "ĠEnt": 3404,
      "ili": 3405,
      "ĠBab": 3406,
      "Ġparticular": 3407,
      "Ġextreme": 3408,
      "Ġfunds": 3409,
      "Ġrupees": 3410,
      "ĠQ": 3411,
      "Ġalmost": 3412,
      "hens": 3413,
      "Ġbrother": 3414,
      "iting": 3415,
      "ĠMSME": 3416,
      "ĠWater": 3417,
      "ĠKh": 3418,
      "going": 3419,
      "iplom": 3420,
      "Ġmaterial": 3421,
      "Ġrepl": 3422,
      "Ġmorning": 3423,
      "Ġfundamental": 3424,
      ",\"": 3425,
      "Ġsouth": 3426,
      "Ġsupported": 3427,
      "Ġimmediately": 3428,
      "Ġreaction": 3429,
      "ĠMany": 3430,
      "Ġchanges": 3431,
      "Ġfriend": 3432,
      "Ġhar": 3433,
      "ĠTer": 3434,
      "Ġcounter": 3435,
      "ĠThus": 3436,
      "ĠCommerce": 3437,
      "Ġbirth": 3438,
      "Ġarticle": 3439,
      "called": 3440,
      "Ġdocu": 3441,
      "ĠHuman": 3442,
      "Ġcoun": 3443,
      "Ġbehold": 3444,
      "ĠGroup": 3445,
      "Ġhope": 3446,
      "rew": 3447,
      "ĠChinese": 3448,
      "Ġevil": 3449,
      "Ġgetting": 3450,
      "ĠSecretariat": 3451,
      "Ġprofit": 3452,
      "Ġdaily": 3453,
      "Ġforced": 3454,
      "Ġonline": 3455,
      "than": 3456,
      "Ġsafety": 3457,
      "ĠProject": 3458,
      "Ġill": 3459,
      "ĠMond": 3460,
      "ĠElect": 3461,
      "Ġcontract": 3462,
      "Ġcollap": 3463,
      "Ġlack": 3464,
      "ĠNet": 3465,
      "Ġstaff": 3466,
      "ĠNaid": 3467,
      "ĠHon": 3468,
      "Ġanal": 3469,
      "ertil": 3470,
      "Ġpros": 3471,
      "ĠGl": 3472,
      "Ġseeking": 3473,
      "Ġhundreds": 3474,
      "Ġvast": 3475,
      "oviet": 3476,
      "Ġnetwork": 3477,
      "iter": 3478,
      "tsky": 3479,
      "Ġgiving": 3480,
      "Ġreduce": 3481,
      "arian": 3482,
      "Ġmiss": 3483,
      "Ġ29": 3484,
      "Ġblock": 3485,
      "Ġtoward": 3486,
      "riev": 3487,
      "Ġmentioned": 3488,
      "Ġwide": 3489,
      "ann": 3490,
      "Ġhit": 3491,
      "Ġlabour": 3492,
      "andum": 3493,
      "ĠNaidu": 3494,
      "Ġvideo": 3495,
      "ĠPolicy": 3496,
      "ograph": 3497,
      "Ġaverage": 3498,
      "Ġfront": 3499,
      "Ġstake": 3500,
      "hern": 3501,
      "ĠJVP": 3502,
      "Ġdestruction": 3503,
      "care": 3504,
      "Ġrank": 3505,
      "attle": 3506,
      "ĠMin": 3507,
      "Ġstone": 3508,
      "Ġeveryone": 3509,
      "ĠOffic": 3510,
      "ĠGovern": 3511,
      "ĠServices": 3512,
      "Ġtri": 3513,
      "200": 3514,
      "Ġtask": 3515,
      "ĠTur": 3516,
      "utes": 3517,
      "Ġreflect": 3518,
      "Ġclaimed": 3519,
      "ĠSwachh": 3520,
      "Ġindependence": 3521,
      "hance": 3522,
      "ctions": 3523,
      "ĠBer": 3524,
      "Ġsides": 3525,
      "Ġcredit": 3526,
      "ĠGang": 3527,
      "Ġmonitor": 3528,
      "Ġsetting": 3529,
      "Ġlegisl": 3530,
      "Ġdetermin": 3531,
      "Ġestimated": 3532,
      "itial": 3533,
      "ĠBy": 3534,
      "Ġexplained": 3535,
      "ĠSinhala": 3536,
      "Ġaffected": 3537,
      "NA": 3538,
      "Ġspace": 3539,
      "Ġmasses": 3540,
      "ĠLet": 3541,
      "Ġtell": 3542,
      "Ġbody": 3543,
      "Ġchallenge": 3544,
      "Ġdwell": 3545,
      "ĠTrib": 3546,
      "ĠSen": 3547,
      "Ġrich": 3548,
      "Ġbless": 3549,
      "Ġdeveloping": 3550,
      "inem": 3551,
      "Ġwro": 3552,
      "ategy": 3553,
      "orthern": 3554,
      "ĠForce": 3555,
      "Ġstrategy": 3556,
      "Ġurged": 3557,
      "Ġrecommend": 3558,
      "ĠEl": 3559,
      "Ġlear": 3560,
      "Ġserve": 3561,
      "ĠFarm": 3562,
      "Ġcalls": 3563,
      "Ġmeth": 3564,
      "ĠPalestinian": 3565,
      "Ġelectricity": 3566,
      "Ġrad": 3567,
      "Ġfast": 3568,
      "ĠTw": 3569,
      "Ġmean": 3570,
      "Ġprovides": 3571,
      "Ġsuppl": 3572,
      "ĠCro": 3573,
      "Ġsubst": 3574,
      "Ġpublished": 3575,
      "ground": 3576,
      "ane": 3577,
      "Ġshared": 3578,
      "Ġproduce": 3579,
      "hand": 3580,
      "Ġdam": 3581,
      "Ġimmediate": 3582,
      "imal": 3583,
      "iy": 3584,
      "ĠInformation": 3585,
      "Ġpoll": 3586,
      "Ġcorrupt": 3587,
      "Ġalone": 3588,
      "Ġexplo": 3589,
      "ĠTour": 3590,
      "Ġexport": 3591,
      "Ġinvasion": 3592,
      "Ġrespond": 3593,
      "ĠTrotsky": 3594,
      "rants": 3595,
      "lege": 3596,
      "Ġsafe": 3597,
      "Ġsupporters": 3598,
      "vis": 3599,
      "Ġnorm": 3600,
      "Ġremark": 3601,
      "ĠTax": 3602,
      "ĠKerala": 3603,
      "Ġoperation": 3604,
      "Ġlevels": 3605,
      "ĠTransport": 3606,
      "Ġheroine": 3607,
      "Ġcollaboration": 3608,
      "arashtra": 3609,
      "ĠSoviet": 3610,
      "izations": 3611,
      "Ġele": 3612,
      "Ġcentre": 3613,
      "Ġorganised": 3614,
      "Ġnewspaper": 3615,
      "25": 3616,
      "bed": 3617,
      "Ġpray": 3618,
      "Ġregul": 3619,
      "Ġincluded": 3620,
      "Ġinaugurated": 3621,
      "Ġpat": 3622,
      "Ġdoll": 3623,
      "mercial": 3624,
      "CO": 3625,
      "arp": 3626,
      "ria": 3627,
      "Ġste": 3628,
      "ĠLok": 3629,
      "Ġorganisations": 3630,
      "Ġinj": 3631,
      "Ġcompared": 3632,
      "Ġpresented": 3633,
      "Ġcritical": 3634,
      "Ġmakes": 3635,
      "Ġeither": 3636,
      "Ġinterview": 3637,
      "Ġdistribut": 3638,
      "Ġprofession": 3639,
      "icient": 3640,
      "Ġ<": 3641,
      "ĠLast": 3642,
      "Ġeyes": 3643,
      "pay": 3644,
      "tion": 3645,
      "ĠWomen": 3646,
      "Ġpursu": 3647,
      "Ġready": 3648,
      "icians": 3649,
      "ĠNations": 3650,
      "sha": 3651,
      "Ġwid": 3652,
      "Ġwalk": 3653,
      "Ġexer": 3654,
      "ocation": 3655,
      "Ġlimited": 3656,
      "Ġhear": 3657,
      "ĠJay": 3658,
      "Ġpassed": 3659,
      "Ġschools": 3660,
      "back": 3661,
      "Ġcultural": 3662,
      "ĠFrom": 3663,
      "Ġrespective": 3664,
      "Ġhighlight": 3665,
      "Ġpasseng": 3666,
      "Ġemployees": 3667,
      "eed": 3668,
      "Ġprime": 3669,
      "adi": 3670,
      "Ġconserv": 3671,
      "Ġrenew": 3672,
      "Ġstock": 3673,
      "ĠOver": 3674,
      "Ġexecut": 3675,
      "ĠAh": 3676,
      "atever": 3677,
      "Ġenhance": 3678,
      "Ġvisited": 3679,
      "Ġannounce": 3680,
      "yl": 3681,
      "agon": 3682,
      "aging": 3683,
      "ĠStalinist": 3684,
      "Ġrisk": 3685,
      "idelines": 3686,
      "Ġprosper": 3687,
      "ĠWS": 3688,
      "Ġamb": 3689,
      "ĠConference": 3690,
      "ĠMemorandum": 3691,
      "16": 3692,
      "Ġwage": 3693,
      "Ġcontain": 3694,
      "Ġ2014": 3695,
      "Ġspeed": 3696,
      "Ġrelief": 3697,
      "anch": 3698,
      "ĠChirac": 3699,
      "Ġahead": 3700,
      "Ġconnectivity": 3701,
      "Ġjoined": 3702,
      "oper": 3703,
      "Ġimplemented": 3704,
      "Ġcivilians": 3705,
      "Ġextended": 3706,
      "Ġappeal": 3707,
      "Ġcru": 3708,
      "ĠIm": 3709,
      "eva": 3710,
      "ladesh": 3711,
      "lin": 3712,
      "alam": 3713,
      "ohn": 3714,
      "Ġcorporate": 3715,
      "ĠRef": 3716,
      "Ġenhan": 3717,
      "Ġcoast": 3718,
      "Ġconclud": 3719,
      "Ġlaws": 3720,
      "Ġvirt": 3721,
      "wer": 3722,
      "Ġscience": 3723,
      "Ġwarned": 3724,
      "Ġ2002": 3725,
      "Ġwrote": 3726,
      "ura": 3727,
      "ĠRed": 3728,
      "Ġutil": 3729,
      "omin": 3730,
      "Ġconsequ": 3731,
      "Ġkm": 3732,
      "Ġresolution": 3733,
      "Ġactive": 3734,
      "ception": 3735,
      "force": 3736,
      "AS": 3737,
      "Ġthough": 3738,
      "vere": 3739,
      "idents": 3740,
      "Ġdeliver": 3741,
      "Ġterrorist": 3742,
      "Ġfacilitate": 3743,
      "ĠService": 3744,
      "ĠWSWS": 3745,
      "Ġstage": 3746,
      "oyal": 3747,
      "volution": 3748,
      "era": 3749,
      "wh": 3750,
      "iled": 3751,
      "Ġbeg": 3752,
      "ĠEquality": 3753,
      "Ġcarry": 3754,
      "Ġcommunal": 3755,
      "ĠParis": 3756,
      "ressive": 3757,
      "Ġattend": 3758,
      "Ġextend": 3759,
      "Ġfa": 3760,
      "ĠWhite": 3761,
      "Ġfacility": 3762,
      "Ġrefused": 3763,
      "Ġalternative": 3764,
      "ĠSPD": 3765,
      "elt": 3766,
      "Ġoffered": 3767,
      "ĠMaharashtra": 3768,
      "Ġincreasingly": 3769,
      "CC": 3770,
      "nda": 3771,
      "arter": 3772,
      "Ġagencies": 3773,
      "ialog": 3774,
      "ĠSummit": 3775,
      "ĠLiber": 3776,
      "Ġhighest": 3777,
      "athe": 3778,
      "Ġdiplom": 3779,
      "ĠAndhra": 3780,
      "ĠArmy": 3781,
      "rish": 3782,
      "Ġanniversary": 3783,
      "Ġrefuge": 3784,
      "Ġensuring": 3785,
      "Ġnature": 3786,
      "ĠJustice": 3787,
      "ĠKorea": 3788,
      "15": 3789,
      "Ġamend": 3790,
      "Ġwages": 3791,
      "oming": 3792,
      "Ġlif": 3793,
      "iment": 3794,
      "Ãĥ": 3795,
      "though": 3796,
      "ĠWeb": 3797,
      "Ġdiscussed": 3798,
      "ĠDemocrats": 3799,
      "Ġdrive": 3800,
      "Ġallowed": 3801,
      "Ġjoin": 3802,
      "band": 3803,
      "wan": 3804,
      "Ġbal": 3805,
      "raft": 3806,
      "Ġscale": 3807,
      "Ġcreating": 3808,
      "ĠSector": 3809,
      "aration": 3810,
      "cious": 3811,
      "Ġterm": 3812,
      "ĠJohn": 3813,
      "Ġurban": 3814,
      "Ġassociated": 3815,
      "Ġinitial": 3816,
      "ĠAuthor": 3817,
      "ĠChe": 3818,
      "ĠVik": 3819,
      "Ġgoods": 3820,
      "Ġbeneficiaries": 3821,
      "illed": 3822,
      "Ġleave": 3823,
      "Ġmand": 3824,
      "imately": 3825,
      "Ġproc": 3826,
      "dd": 3827,
      "Ġir": 3828,
      "Ġcapt": 3829,
      "Ġdiscussion": 3830,
      "Ġabs": 3831,
      "ĠHus": 3832,
      "Ġshot": 3833,
      "Ġvol": 3834,
      "ĠRailway": 3835,
      "ĠPhil": 3836,
      "ĠMon": 3837,
      "ĠIndians": 3838,
      "Ġproposal": 3839,
      "Ġpurpose": 3840,
      "Ġconv": 3841,
      "Ġintervention": 3842,
      "ployed": 3843,
      "Ġdiscussions": 3844,
      "ĠSystem": 3845,
      "ĠFil": 3846,
      "ugu": 3847,
      "Ġcreation": 3848,
      "eds": 3849,
      "istics": 3850,
      "uls": 3851,
      "arters": 3852,
      "ĠMedical": 3853,
      "Ġinnovation": 3854,
      ".,": 3855,
      "Ġrou": 3856,
      "Ġmom": 3857,
      "ardhan": 3858,
      "Ġintens": 3859,
      "Ġdism": 3860,
      "ape": 3861,
      "Ġexpect": 3862,
      "ĠPower": 3863,
      "Ġgone": 3864,
      "Ġship": 3865,
      "Ġattention": 3866,
      "Ġparticipate": 3867,
      "ertiliz": 3868,
      "AI": 3869,
      "antly": 3870,
      "ological": 3871,
      "ĠTelugu": 3872,
      "Ġexchange": 3873,
      "know": 3874,
      "mark": 3875,
      "Ġreached": 3876,
      "Ġdespite": 3877,
      "Ġstatus": 3878,
      "ires": 3879,
      "Ġsolution": 3880,
      "isf": 3881,
      "asc": 3882,
      "Ġtrain": 3883,
      "Ġunderstand": 3884,
      "Ġge": 3885,
      "ishing": 3886,
      "Ġraised": 3887,
      "Ġreply": 3888,
      "Ġ70": 3889,
      "Ġsacrif": 3890,
      "Ġinfluence": 3891,
      "Ġaspect": 3892,
      "Ġanger": 3893,
      "chedul": 3894,
      "Ġframework": 3895,
      "Ġspokes": 3896,
      "IR": 3897,
      "Ġmag": 3898,
      "Ġeast": 3899,
      "Ġnav": 3900,
      "owerment": 3901,
      "Ġextra": 3902,
      "ĠManagement": 3903,
      "ĠUnderstanding": 3904,
      "Ġty": 3905,
      "Ġregarding": 3906,
      "play": 3907,
      "Ġtransp": 3908,
      "It": 3909,
      "ĠAnn": 3910,
      "Ġsystems": 3911,
      "Ġtrue": 3912,
      "ĠSuch": 3913,
      "Ġisland": 3914,
      "ĠRajini": 3915,
      "Ġconstruct": 3916,
      "oor": 3917,
      "Ġhy": 3918,
      "Ġstar": 3919,
      "Ġcoord": 3920,
      "Ġrelationship": 3921,
      "ĠNat": 3922,
      "Ġprogrammes": 3923,
      "11": 3924,
      "illeg": 3925,
      "ĠFront": 3926,
      "ĠFirst": 3927,
      "Ġeditor": 3928,
      "off": 3929,
      "Ġaspir": 3930,
      "Ġtwent": 3931,
      "Ġresults": 3932,
      "Ġdecisions": 3933,
      "Ġdedicated": 3934,
      "equ": 3935,
      "ĠAj": 3936,
      "irmed": 3937,
      "oved": 3938,
      "ww": 3939,
      "ĠSun": 3940,
      "ĠBJP": 3941,
      "ulated": 3942,
      "ĠUr": 3943,
      "ĠInvest": 3944,
      "ĠIts": 3945,
      "ĠTourism": 3946,
      "Ġdanger": 3947,
      "Ġconfidence": 3948,
      "Ġgathering": 3949,
      "Ġdrink": 3950,
      "ĠKamal": 3951,
      "Ġrepeated": 3952,
      "Ġcr": 3953,
      "Ġisol": 3954,
      "ĠEvery": 3955,
      "Ġprior": 3956,
      "Ġdelive": 3957,
      "Ġstrengthening": 3958,
      "Ġcateg": 3959,
      "rown": 3960,
      "Ġplanned": 3961,
      "ĠPolice": 3962,
      "Ġawareness": 3963,
      "Ġenem": 3964,
      "ĠBihar": 3965,
      "ĠProgramme": 3966,
      "ĠKarn": 3967,
      "holders": 3968,
      "uri": 3969,
      "Ġindic": 3970,
      "Ġadvance": 3971,
      "adha": 3972,
      "ancell": 3973,
      "iban": 3974,
      "Ġrecover": 3975,
      "Ġmedic": 3976,
      "ika": 3977,
      "Ġemergency": 3978,
      "ĠBangladesh": 3979,
      "Ġbound": 3980,
      "Ġdied": 3981,
      "Ġlog": 3982,
      "Ġwithdraw": 3983,
      "Ġsomething": 3984,
      "ĠImp": 3985,
      "ĠBen": 3986,
      "Ġclearly": 3987,
      "Ġopened": 3988,
      "ming": 3989,
      "sc": 3990,
      "Ġsource": 3991,
      "oples": 3992,
      "ĠJac": 3993,
      "Ġprotection": 3994,
      "ext": 3995,
      "Ġsubsid": 3996,
      "ĠCivil": 3997,
      "Ġdelivered": 3998,
      "Ġties": 3999,
      "Ġeth": 4000,
      "elled": 4001,
      "athan": 4002,
      "Ġtrust": 4003,
      "Ġconcerns": 4004,
      "Ġsin": 4005,
      "ĠFollow": 4006,
      "Ġholy": 4007,
      "ĠTal": 4008,
      "ĠPrab": 4009,
      "Ġjournal": 4010,
      "ĠFarmers": 4011,
      "odies": 4012,
      "Ġsett": 4013,
      "ĠInter": 4014,
      "Ġfully": 4015,
      "Ġequip": 4016,
      "\">": 4017,
      "oid": 4018,
      "ĠGre": 4019,
      "aint": 4020,
      "Ġparticipated": 4021,
      "ĠPeople": 4022,
      "Ġaudi": 4023,
      "Ġmechan": 4024,
      "Ġenable": 4025,
      "Ġattended": 4026,
      "ĠAlliance": 4027,
      "Ġpointed": 4028,
      "Ġaims": 4029,
      "Ġparliamentary": 4030,
      "prises": 4031,
      "In": 4032,
      "ken": 4033,
      "Ġterrit": 4034,
      "Ġfinance": 4035,
      "oo": 4036,
      "Ġstood": 4037,
      "Ġmobil": 4038,
      "Ġbourgeoisie": 4039,
      "Ġtakes": 4040,
      "Ġsharp": 4041,
      "Ġsend": 4042,
      "wered": 4043,
      "ĠBudd": 4044,
      "Ġproceed": 4045,
      "ĠFour": 4046,
      "Ġcommercial": 4047,
      "Ġwelcom": 4048,
      "sembly": 4049,
      "ĠIT": 4050,
      "ĠBet": 4051,
      "Ġproducer": 4052,
      "pri": 4053,
      "Ġopt": 4054,
      "Ġneeded": 4055,
      "ĠFinancial": 4056,
      "Ġphys": 4057,
      "Ġdescribed": 4058,
      "Ġargu": 4059,
      "ĠMonday": 4060,
      "Ġpension": 4061,
      "ovt": 4062,
      "ondon": 4063,
      "Ġlonger": 4064,
      "Ġafford": 4065,
      "ĠSunday": 4066,
      "icip": 4067,
      "aman": 4068,
      "Ġincludes": 4069,
      "la": 4070,
      "ĠCS": 4071,
      "Ġagree": 4072,
      "Ġ2003": 4073,
      "Ġtransfer": 4074,
      "ĠAssociation": 4075,
      "21": 4076,
      "mission": 4077,
      "Ġarrange": 4078,
      "ĠWhy": 4079,
      "Ġvictory": 4080,
      "Ġcollapse": 4081,
      "where": 4082,
      "onents": 4083,
      "asthan": 4084,
      "Ġeight": 4085,
      "ĠCP": 4086,
      "ĠLeban": 4087,
      "ras": 4088,
      "Ġwind": 4089,
      "Ġmil": 4090,
      "ĠHer": 4091,
      "ĠDis": 4092,
      "Ġalliance": 4093,
      "Mo": 4094,
      "ares": 4095,
      "ĠNIT": 4096,
      "Ġquick": 4097,
      "Ġcross": 4098,
      "RO": 4099,
      "Ġ2004": 4100,
      "Ġachieved": 4101,
      "ĠSpace": 4102,
      "cheduled": 4103,
      "Ġilleg": 4104,
      "Ġways": 4105,
      "Ġwoman": 4106,
      "ĠSc": 4107,
      "ĠAay": 4108,
      "Ġforms": 4109,
      "ĠRepublican": 4110,
      "Ġfailed": 4111,
      "ties": 4112,
      "any": 4113,
      "Ġgrant": 4114,
      "Ġpled": 4115,
      "Ġ194": 4116,
      "Ġidentified": 4117,
      "Ġnegotiations": 4118,
      "gel": 4119,
      "Ġsell": 4120,
      "itter": 4121,
      "Ġnone": 4122,
      "right": 4123,
      "thern": 4124,
      "Ġconsult": 4125,
      "ĠWorkers": 4126,
      "ĠHindi": 4127,
      "rong": 4128,
      "icro": 4129,
      "lying": 4130,
      "ĠChild": 4131,
      "ĠConstitution": 4132,
      "ĠTrade": 4133,
      "Ġrates": 4134,
      "Ġdesign": 4135,
      "ĠKarnat": 4136,
      "ĠFollowing": 4137,
      "wise": 4138,
      "Ġtom": 4139,
      "rage": 4140,
      "Ġlies": 4141,
      "ĠFurther": 4142,
      "Ġabroad": 4143,
      "Ġdisci": 4144,
      "Ġ2015": 4145,
      "Ġencourage": 4146,
      "Ġbra": 4147,
      "Ġdeg": 4148,
      "ĠLondon": 4149,
      "ague": 4150,
      "Ġbelow": 4151,
      "yond": 4152,
      "Ġpen": 4153,
      "ansion": 4154,
      "ĠBehold": 4155,
      "Ġanswered": 4156,
      "respond": 4157,
      "ĠChairman": 4158,
      "Ġpoints": 4159,
      "Ġtensions": 4160,
      "itendra": 4161,
      "Ġbeyond": 4162,
      "Ġalle": 4163,
      "ĠAsian": 4164,
      "Ġcrimes": 4165,
      "RI": 4166,
      "ship": 4167,
      "Ġsession": 4168,
      "Ġbill": 4169,
      "ĠNep": 4170,
      "Ġinclus": 4171,
      "Ġrising": 4172,
      "idered": 4173,
      "Ġnumbers": 4174,
      "ĠDespite": 4175,
      "BC": 4176,
      "pro": 4177,
      "Ġ,": 4178,
      "Ġtrying": 4179,
      "ĠII": 4180,
      "urg": 4181,
      "Ġenough": 4182,
      "overed": 4183,
      "Ġletter": 4184,
      "Ġaccounts": 4185,
      "ĠMoreover": 4186,
      "Ġvictim": 4187,
      "ĠMadhya": 4188,
      "ĠBro": 4189,
      "Ġtribal": 4190,
      "Ġsubstant": 4191,
      "onial": 4192,
      "ruit": 4193,
      "2020": 4194,
      "Ġloans": 4195,
      "Ġheaven": 4196,
      "Ġimperialist": 4197,
      "Ġteachers": 4198,
      "itable": 4199,
      "ĠIS": 4200,
      "amed": 4201,
      "Ġopin": 4202,
      "Ġsecretary": 4203,
      "Ġdaughter": 4204,
      "rievances": 4205,
      "Ġfaith": 4206,
      "Ġmoment": 4207,
      "Ġunivers": 4208,
      "Ġunemployment": 4209,
      "Ġ.": 4210,
      "Ġspending": 4211,
      "Ġpriority": 4212,
      "Ġcondem": 4213,
      "Ġflag": 4214,
      "Ġintroduced": 4215,
      "Ġorigin": 4216,
      "ĠKarnataka": 4217,
      "ze": 4218,
      "Ġfle": 4219,
      "Ġlines": 4220,
      "eter": 4221,
      "Ġoutl": 4222,
      "Ġtrains": 4223,
      "Ġ75": 4224,
      "Ġquestions": 4225,
      "ĠJoint": 4226,
      "ankar": 4227,
      "Ġvalues": 4228,
      "ĠGlobal": 4229,
      "atma": 4230,
      "Ġbul": 4231,
      "ĠSup": 4232,
      "ĠGreen": 4233,
      "ums": 4234,
      "ĠRajasthan": 4235,
      "Ġreceive": 4236,
      "Ġtechnologies": 4237,
      "ira": 4238,
      "Ġbus": 4239,
      "Ġvac": 4240,
      "iven": 4241,
      "Ġimpl": 4242,
      "arma": 4243,
      "ĠRajya": 4244,
      "Ġinstitution": 4245,
      "ĠHy": 4246,
      "Ġexpress": 4247,
      "Ġcharge": 4248,
      "ipping": 4249,
      "Ġgir": 4250,
      "ĠNAT": 4251,
      "Ġselect": 4252,
      "Ġconsidered": 4253,
      "Ġcurrently": 4254,
      "unga": 4255,
      "Ġdebt": 4256,
      "Ġcheck": 4257,
      "Ġcriminal": 4258,
      "Ġstressed": 4259,
      "ĠPakistani": 4260,
      "ĠAustralian": 4261,
      "oned": 4262,
      "ederation": 4263,
      "Ġfoot": 4264,
      "Ġbrid": 4265,
      "Ġhomes": 4266,
      "Ġongoing": 4267,
      "ĠBusiness": 4268,
      "ĠItal": 4269,
      "Ġcorrespond": 4270,
      "Ġlanguage": 4271,
      "Ch": 4272,
      "nic": 4273,
      "Ġgreet": 4274,
      "ĠShah": 4275,
      "Ġkept": 4276,
      "ushar": 4277,
      "ĠOnly": 4278,
      "Ġtomorrow": 4279,
      "Ġbur": 4280,
      "Ġ35": 4281,
      "Ġexpand": 4282,
      "Ġ2001": 4283,
      "Ġinsp": 4284,
      "Ġinside": 4285,
      "Ġrunning": 4286,
      "Ġstrikes": 4287,
      "12": 4288,
      "Ġcinem": 4289,
      "Ġunits": 4290,
      "Ġji": 4291,
      "lt": 4292,
      "Ġfif": 4293,
      "ĠOf": 4294,
      "ounded": 4295,
      "Ġassault": 4296,
      "ĠBagh": 4297,
      "rehens": 4298,
      "Ġattract": 4299,
      "Ġsolutions": 4300,
      "Ġagenda": 4301,
      "Ġsatisf": 4302,
      "Ġvia": 4303,
      "acle": 4304,
      "Ġorganizations": 4305,
      "Ġheavy": 4306,
      "ĠGeorg": 4307,
      "ustoms": 4308,
      "ĠHead": 4309,
      "Ġhealthcare": 4310,
      "Ġguarant": 4311,
      "sein": 4312,
      "ĠBar": 4313,
      "urement": 4314,
      "Ġhistorical": 4315,
      "India": 4316,
      "usharraf": 4317,
      "PP": 4318,
      "Ġmid": 4319,
      "ĠAz": 4320,
      "Ġlabor": 4321,
      "aced": 4322,
      "aches": 4323,
      "Ġrevolutionary": 4324,
      "FP": 4325,
      "arge": 4326,
      "Ġstudy": 4327,
      "Ġopening": 4328,
      "rd": 4329,
      "Ġfederal": 4330,
      "Ġchanged": 4331,
      "annel": 4332,
      "Ġlate": 4333,
      "Ġfigures": 4334,
      "Ġdrug": 4335,
      "leum": 4336,
      "ĠKal": 4337,
      "Ġentrepreneurs": 4338,
      "Ġcommittee": 4339,
      "Ġfathers": 4340,
      "ES": 4341,
      "ĠIM": 4342,
      "oted": 4343,
      "Ġsave": 4344,
      "Ġhospitals": 4345,
      "inar": 4346,
      "ĠMusharraf": 4347,
      "Ġant": 4348,
      "ĠInf": 4349,
      "Ġfaced": 4350,
      "Ġbringing": 4351,
      "Ġreligious": 4352,
      "lish": 4353,
      "Ġtal": 4354,
      "ĠProdu": 4355,
      "Ġtraditional": 4356,
      "ĠHighways": 4357,
      "etroleum": 4358,
      "BI": 4359,
      "ĠÃ¢": 4360,
      "Ġmis": 4361,
      "Ġwishes": 4362,
      "PS": 4363,
      "Ġremains": 4364,
      "ode": 4365,
      "ĠOd": 4366,
      "ferences": 4367,
      "Ġvoters": 4368,
      "Ġcal": 4369,
      "ology": 4370,
      "Ġmutual": 4371,
      "ĠTwo": 4372,
      "ĠAuthority": 4373,
      "ĠNITI": 4374,
      "Ġdict": 4375,
      "ĠJew": 4376,
      "Ġassess": 4377,
      "Ġcentres": 4378,
      "ref": 4379,
      "ature": 4380,
      "ĠTheir": 4381,
      "Ġservants": 4382,
      "Ġmeetings": 4383,
      "ĠAustralia": 4384,
      "ED": 4385,
      "inate": 4386,
      "Ġpet": 4387,
      "Ġdialog": 4388,
      "ĠFl": 4389,
      "ĠExp": 4390,
      "ĠAayog": 4391,
      "ĠFound": 4392,
      "Ġcontact": 4393,
      "Ġunderstanding": 4394,
      "ĠProt": 4395,
      "Ġadvanced": 4396,
      "Ġindustries": 4397,
      "aratunga": 4398,
      "ĠGreens": 4399,
      "oe": 4400,
      "pread": 4401,
      "ĠIN": 4402,
      "ĠArt": 4403,
      "ĠKumaratunga": 4404,
      "wide": 4405,
      "rig": 4406,
      "Ġshown": 4407,
      "ĠGanga": 4408,
      "Ġlower": 4409,
      "Ġoperational": 4410,
      "ta": 4411,
      "quarters": 4412,
      "Ġcontext": 4413,
      "Ġaccused": 4414,
      "Ġexpansion": 4415,
      "Ġorganisation": 4416,
      "Ġcontinues": 4417,
      "Ġsens": 4418,
      "Ġwest": 4419,
      "esides": 4420,
      "irm": 4421,
      "osing": 4422,
      "icked": 4423,
      "idespread": 4424,
      "mitted": 4425,
      "Ġhousing": 4426,
      "Ġcompletely": 4427,
      "pal": 4428,
      "aps": 4429,
      "Ġmilitar": 4430,
      "Ġprograms": 4431,
      "Ġtourism": 4432,
      "ĠSupreme": 4433,
      "HA": 4434,
      "otion": 4435,
      "eting": 4436,
      "usion": 4437,
      "Ġsecure": 4438,
      "Ġ500": 4439,
      "Ġmonitoring": 4440,
      "ĠHussein": 4441,
      "Ġfuel": 4442,
      "ĠHar": 4443,
      "Ġdeliber": 4444,
      "Ġdemonstration": 4445,
      "Ġmobile": 4446,
      "ĠEnglish": 4447,
      "oon": 4448,
      "Ġplanning": 4449,
      "Ġmodel": 4450,
      "Ġtechnical": 4451,
      "ĠHa": 4452,
      "ĠDigital": 4453,
      "Ġstudent": 4454,
      "Ġsummit": 4455,
      "Ġsustainable": 4456,
      "Ġ2022": 4457,
      "14": 4458,
      "ols": 4459,
      "term": 4460,
      "Ġdisaster": 4461,
      "aught": 4462,
      "Ġfacing": 4463,
      "bu": 4464,
      "va": 4465,
      "Ġ2000": 4466,
      "Ġregions": 4467,
      "Ġreturned": 4468,
      "Ġpromoting": 4469,
      "ĠJi": 4470,
      "Ġgoes": 4471,
      "Ġimmense": 4472,
      "ene": 4473,
      "ĠTig": 4474,
      "eline": 4475,
      "ĠJitendra": 4476,
      "Ġvotes": 4477,
      "Ġburn": 4478,
      "ĠJos": 4479,
      "fort": 4480,
      "Ġbread": 4481,
      "Ġconcess": 4482,
      "Ġbecoming": 4483,
      "Ġelse": 4484,
      "rich": 4485,
      "ilarly": 4486,
      "ĠGaz": 4487,
      "ĠForces": 4488,
      "ysis": 4489,
      "Ġdenoun": 4490,
      "rolled": 4491,
      "inite": 4492,
      "utr": 4493,
      "ĠDhan": 4494,
      "Ġassist": 4495,
      "Ġinvolve": 4496,
      "Ġobserv": 4497,
      "indu": 4498,
      "Ġwidespread": 4499,
      "anj": 4500,
      "Ġfort": 4501,
      "Ġprovisions": 4502,
      "Ġcalling": 4503,
      "Ġfields": 4504,
      "Ġsolar": 4505,
      "Ġkeeping": 4506,
      "Ġmoved": 4507,
      "Ġregistered": 4508,
      "Ġappreciated": 4509,
      "reets": 4510,
      "ĠCE": 4511,
      "Ġmeasure": 4512,
      "Ġaddressing": 4513,
      "Ġdemonstrations": 4514,
      "Ġengaged": 4515,
      "Ġmechanism": 4516,
      "Ġwelcomed": 4517,
      "AC": 4518,
      "gn": 4519,
      "version": 4520,
      "put": 4521,
      "ply": 4522,
      "Ġhour": 4523,
      "Ġagricultural": 4524,
      "Ġreduced": 4525,
      "ĠEnvironment": 4526,
      "Ġjourney": 4527,
      "inc": 4528,
      "Ġwants": 4529,
      "rog": 4530,
      "Ġstation": 4531,
      "ĠStud": 4532,
      "Ġtransform": 4533,
      "ĠCorona": 4534,
      "och": 4535,
      "Ġteach": 4536,
      "Ġacad": 4537,
      "Ġ80": 4538,
      "ĠIslamic": 4539,
      "ĠNATO": 4540,
      "lean": 4541,
      "urb": 4542,
      "ĠLike": 4543,
      "Ġcompetition": 4544,
      "Ġsports": 4545,
      "ĠSiv": 4546,
      "ĠNa": 4547,
      "ĠInnov": 4548,
      "Ġtruth": 4549,
      "ĠProf": 4550,
      "ĠCrore": 4551,
      "Ġconstitut": 4552,
      "ĠLaw": 4553,
      "Ġresistance": 4554,
      "Ġcove": 4555,
      "Ġsupporting": 4556,
      "Ġengine": 4557,
      "Ġpractices": 4558,
      "Ġscientists": 4559,
      "ters": 4560,
      "ĠThose": 4561,
      "Ġinvestigation": 4562,
      "Ġwait": 4563,
      "icial": 4564,
      "enth": 4565,
      "riday": 4566,
      "ĠOut": 4567,
      "ĠVish": 4568,
      "Ġclimate": 4569,
      "Ġprovision": 4570,
      "Ġ2007": 4571,
      "Ġscientific": 4572,
      "ĠNepal": 4573,
      "Ġhelped": 4574,
      "ĠBhut": 4575,
      "Ġdestroyed": 4576,
      "rehensive": 4577,
      "ĠHarsh": 4578,
      "ĠLa": 4579,
      "ĠSharon": 4580,
      "Ġsupposed": 4581,
      "Ġservant": 4582,
      "Ġinsisted": 4583,
      "ĠMahatma": 4584,
      "Ġcaused": 4585,
      "Ġequipment": 4586,
      "ĠSkill": 4587,
      "ĠRec": 4588,
      "Ġaccepted": 4589,
      "Ġmethods": 4590,
      "ulf": 4591,
      "cif": 4592,
      "Ġfirm": 4593,
      "Ġrequirements": 4594,
      "Ġdefeat": 4595,
      "Ġsubstantial": 4596,
      "ĠOdisha": 4597,
      "Ġcarrying": 4598,
      "ĠCap": 4599,
      "Ġaddressed": 4600,
      "Ġinsurance": 4601,
      "athered": 4602,
      "kash": 4603,
      "inent": 4604,
      "ĠVardhan": 4605,
      "Ġgoal": 4606,
      "ĠArun": 4607,
      "minent": 4608,
      "craft": 4609,
      "dad": 4610,
      "Ġbi": 4611,
      "Ġthr": 4612,
      "olk": 4613,
      "aker": 4614,
      "ĠAsh": 4615,
      "ĠJh": 4616,
      "Ġserved": 4617,
      "Ġwanted": 4618,
      "Ġreality": 4619,
      "elam": 4620,
      "ĠCommand": 4621,
      "Ġfigure": 4622,
      "ĠPun": 4623,
      "Ġgathered": 4624,
      "ĠRa": 4625,
      "ĠViet": 4626,
      "Ġregular": 4627,
      "inton": 4628,
      "Ġsigning": 4629,
      "Ġsimply": 4630,
      "Ġloan": 4631,
      "ped": 4632,
      "entagon": 4633,
      "Ġones": 4634,
      "ĠBerlin": 4635,
      "ĠAc": 4636,
      "Ġexports": 4637,
      "Ġunit": 4638,
      "Ġunique": 4639,
      "Ġresolve": 4640,
      "Ġopinion": 4641,
      "vant": 4642,
      "oph": 4643,
      "Ġlargely": 4644,
      "Ġdeaths": 4645,
      "ertilizers": 4646,
      "Ġeditorial": 4647,
      "ĠBrothers": 4648,
      "ĠSite": 4649,
      "Ġseized": 4650,
      "Ġvirus": 4651,
      "arents": 4652,
      "Ġsense": 4653,
      "umer": 4654,
      "ĠOther": 4655,
      "Ġannual": 4656,
      "ĠWestern": 4657,
      "Ġplaced": 4658,
      "Ġtrial": 4659,
      "iture": 4660,
      "Ġmask": 4661,
      "ĠAY": 4662,
      "oked": 4663,
      "Ġgrand": 4664,
      "Ġconsequences": 4665,
      "ĠBaghdad": 4666,
      "iri": 4667,
      "ĠPentagon": 4668,
      "Ġherit": 4669,
      "ĠUp": 4670,
      "roud": 4671,
      "ĠStreet": 4672,
      "Ġpoliticians": 4673,
      "achal": 4674,
      "Ġinvestors": 4675,
      "ijing": 4676,
      "Ġemerged": 4677,
      "Ġsoul": 4678,
      "set": 4679,
      "Ġtribut": 4680,
      "Ġcat": 4681,
      "Ġhus": 4682,
      "Ġdign": 4683,
      "iab": 4684,
      "auv": 4685,
      "ĠRevolution": 4686,
      "Ġpowerful": 4687,
      "USH": 4688,
      "Ġscenes": 4689,
      "Ġdoubt": 4690,
      "Ġfestival": 4691,
      "resh": 4692,
      "ĠKing": 4693,
      "Ġdecade": 4694,
      "Ġceas": 4695,
      "aranasi": 4696,
      "Ġtemple": 4697,
      "ĠFoundation": 4698,
      "mon": 4699,
      "Ġacqu": 4700,
      "Ġbureaucracy": 4701,
      "Ġheritage": 4702,
      "ĠBec": 4703,
      "ĠGree": 4704,
      "Ġofficer": 4705,
      "Ġroads": 4706,
      "Ġillegal": 4707,
      "CD": 4708,
      "Ġborn": 4709,
      "Ġpartner": 4710,
      "aves": 4711,
      "Ġoffensive": 4712,
      "Ġextent": 4713,
      "Ġrefer": 4714,
      "coming": 4715,
      "Ġign": 4716,
      "ĠCy": 4717,
      "irb": 4718,
      "ĠRak": 4719,
      "thi": 4720,
      "ĠLad": 4721,
      "Ġseats": 4722,
      "Ġcommission": 4723,
      "ovind": 4724,
      "Ġdecline": 4725,
      "Ġbelong": 4726,
      "Ġharm": 4727,
      "ĠAnt": 4728,
      "ĠHindu": 4729,
      "Ġactor": 4730,
      "ependent": 4731,
      "ifying": 4732,
      "ĠPerson": 4733,
      "Ġvehicles": 4734,
      "Ġsupplies": 4735,
      "Ġcorruption": 4736,
      "Ġwat": 4737,
      "ĠSon": 4738,
      "Ġtradition": 4739,
      "ĠBeijing": 4740,
      "Ġbrief": 4741,
      "reced": 4742,
      "enced": 4743,
      "ĠInst": 4744,
      "Ġobtain": 4745,
      "Ġmoving": 4746,
      "Ġtitle": 4747,
      "Ġseparate": 4748,
      "Ġstakeholders": 4749,
      "oud": 4750,
      "Ġnorthern": 4751,
      "Ġ90": 4752,
      "Ġcosts": 4753,
      "ĠAYUSH": 4754,
      "rip": 4755,
      "que": 4756,
      "atters": 4757,
      "Ġprivat": 4758,
      "Ġcoverage": 4759,
      "Ġcriticism": 4760,
      "ĠTaliban": 4761,
      "Ġgives": 4762,
      "ĠHous": 4763,
      "Ġchauv": 4764,
      "Ġwarning": 4765,
      "recedented": 4766,
      "ednes": 4767,
      "Ġmig": 4768,
      "ĠCity": 4769,
      "garh": 4770,
      "Ġperformance": 4771,
      "Ġcouncil": 4772,
      "ednesday": 4773,
      "mod": 4774,
      "ĠMP": 4775,
      "ĠGad": 4776,
      "Ġspecific": 4777,
      "Ġcharges": 4778,
      "oring": 4779,
      "itarian": 4780,
      "Ġball": 4781,
      "Ġeld": 4782,
      "Ġformed": 4783,
      "Ġdoor": 4784,
      "Ġglob": 4785,
      "Ġfailure": 4786,
      "ĠCorporate": 4787,
      "mun": 4788,
      "mary": 4789,
      "ĠMake": 4790,
      "ĠHol": 4791,
      "Ġcooper": 4792,
      "Ġraise": 4793,
      "Ġundertaken": 4794,
      "ho": 4795,
      "Ġfis": 4796,
      "Ġhref": 4797,
      "ĠGas": 4798,
      "abilities": 4799,
      "ĠWho": 4800,
      "ĠAbhi": 4801,
      "ĠSaudi": 4802,
      "Ġhighlighted": 4803,
      "uj": 4804,
      "essel": 4805,
      "Ġproud": 4806,
      "Ġred": 4807,
      "efire": 4808,
      "Ġdocument": 4809,
      "Ġsources": 4810,
      "Ġbodies": 4811,
      "Ġmur": 4812,
      "ĠCIA": 4813,
      "Ġcombat": 4814,
      "ĠAssam": 4815,
      "RA": 4816,
      "ĠSer": 4817,
      "ĠEmp": 4818,
      "key": 4819,
      "Ġinstead": 4820,
      "ient": 4821,
      "yle": 4822,
      "Ġnar": 4823,
      "ida": 4824,
      "ĠAnother": 4825,
      "Ġguidelines": 4826,
      "remony": 4827,
      "Ġrejected": 4828,
      "ni": 4829,
      "una": 4830,
      "ĠVaranasi": 4831,
      "rative": 4832,
      "Ġdemanded": 4833,
      "EA": 4834,
      "ĠDiv": 4835,
      "ĠEelam": 4836,
      "ĠJal": 4837,
      "Ġbiggest": 4838,
      "Ġpackage": 4839,
      "Ġannouncement": 4840,
      "arity": 4841,
      "uster": 4842,
      "ager": 4843,
      "Ġorganization": 4844,
      "Ġinspir": 4845,
      "Ġideas": 4846,
      "Ġunprecedented": 4847,
      "Ġreven": 4848,
      "Ġcomments": 4849,
      "Ġentered": 4850,
      "Ġcamps": 4851,
      "Ġ150": 4852,
      "Ġsuccessfully": 4853,
      "ĠSyria": 4854,
      "Ġalleged": 4855,
      "Ġceasefire": 4856,
      "500": 4857,
      "Ġver": 4858,
      "asons": 4859,
      "Ġprem": 4860,
      "mination": 4861,
      "40": 4862,
      "gment": 4863,
      "ii": 4864,
      "Ġburd": 4865,
      "Ġheight": 4866,
      "Ġshut": 4867,
      "ĠDistrict": 4868,
      "Ġdoctors": 4869,
      "Cs": 4870,
      "Ġwild": 4871,
      "ĠMand": 4872,
      "ela": 4873,
      "Ġlabs": 4874,
      "Ġprosperity": 4875,
      "ĠLebanon": 4876,
      "IO": 4877,
      "ĠNath": 4878,
      "ĠGa": 4879,
      "ĠOp": 4880,
      "Ġkil": 4881,
      "Ġelim": 4882,
      "Ġcovered": 4883,
      "lig": 4884,
      "organ": 4885,
      "Ġpun": 4886,
      "Ġbattle": 4887,
      "ĠMad": 4888,
      "ĠNic": 4889,
      "Ġpassengers": 4890,
      "Ġhusband": 4891,
      "Ġreiter": 4892,
      "ĠMark": 4893,
      "Ġriver": 4894,
      "Ġacknow": 4895,
      "Ġevening": 4896,
      "iction": 4897,
      "ĠUNP": 4898,
      "Ġkilling": 4899,
      "Ġhistoric": 4900,
      "irbhar": 4901,
      "IB": 4902,
      "Ġmouth": 4903,
      "state": 4904,
      "ĠFriday": 4905,
      "Ġremained": 4906,
      "Ġadvoc": 4907,
      "ĠMohan": 4908,
      "Ġrapidly": 4909,
      "ĠMer": 4910,
      "urday": 4911,
      "ĠLim": 4912,
      "Ġsocialism": 4913,
      "Ġlearning": 4914,
      "Ġspokesman": 4915,
      "Ġtab": 4916,
      "Ġsle": 4917,
      "Ġwall": 4918,
      "otal": 4919,
      "Ġwhatever": 4920,
      "Ġamongst": 4921,
      "Ġsatell": 4922,
      "Ġaccord": 4923,
      "iciency": 4924,
      "Ġeffectively": 4925,
      "Ġdisease": 4926,
      "Ġtried": 4927,
      "ĠBudget": 4928,
      "Ġ2006": 4929,
      "Ġportal": 4930,
      "Ġbehalf": 4931,
      "Ġprinciples": 4932,
      "ĠHospital": 4933,
      "ĠUK": 4934,
      "aining": 4935,
      "ĠJose": 4936,
      "ternal": 4937,
      "ĠExcell": 4938,
      "Ġrestrict": 4939,
      "Ġwish": 4940,
      "Ġmach": 4941,
      "Ġchannel": 4942,
      "ĠShak": 4943,
      "Ġimposed": 4944,
      "Ġcommanded": 4945,
      "ÂĢ": 4946,
      "osition": 4947,
      "Ġelected": 4948,
      "Ġadvis": 4949,
      "Ġavoid": 4950,
      "Ġadopted": 4951,
      "Ġvictims": 4952,
      "ĠVietnam": 4953,
      "Os": 4954,
      "eous": 4955,
      "Ġparents": 4956,
      "ĠBel": 4957,
      "ĠClinton": 4958,
      "Ġrailway": 4959,
      "ÂĢÂ": 4960,
      "ĠGDP": 4961,
      "Ġchairman": 4962,
      "Ġplants": 4963,
      "ĠYear": 4964,
      "Ġsword": 4965,
      "Ġcontribute": 4966,
      "Ġcircum": 4967,
      "Ġ*": 4968,
      "ĠWednesday": 4969,
      "Ġjustice": 4970,
      "Ġministers": 4971,
      "ĠSaturday": 4972,
      "DI": 4973,
      "ivery": 4974,
      "penditure": 4975,
      "mendment": 4976,
      "Ġanswer": 4977,
      "Ġgovernance": 4978,
      "Ġ195": 4979,
      "Ġhighly": 4980,
      "ĠIranian": 4981,
      "ĠGeorge": 4982,
      "Ġtwenty": 4983,
      "Ġtheat": 4984,
      "Ġboy": 4985,
      "ĠSchool": 4986,
      "irs": 4987,
      "Ġspent": 4988,
      "Ġtrack": 4989,
      "ables": 4990,
      "Ġbacked": 4991,
      "Ġthreats": 4992,
      "uesday": 4993,
      "Ġimproving": 4994,
      "Ġordinary": 4995,
      "Ġexercise": 4996,
      "CL": 4997,
      "Ġcrime": 4998,
      "ĠTom": 4999,
      "Ġear": 5000,
      "ĠCount": 5001,
      "Ġstations": 5002,
      "owed": 5003,
      "Ġallies": 5004,
      "Ġunity": 5005,
      "Ġanything": 5006,
      "Ġdistribution": 5007,
      "Ġactivity": 5008,
      "Ġsignificance": 5009,
      "Ġextremely": 5010,
      "ĠPre": 5011,
      "Ġsanction": 5012,
      "Ġdebate": 5013,
      "mine": 5014,
      "wa": 5015,
      "ĠSal": 5016,
      "Ġexcell": 5017,
      "Ġdemanding": 5018,
      "kaiah": 5019,
      "Ġdetermined": 5020,
      "MT": 5021,
      "Ġtort": 5022,
      "Ġdie": 5023,
      "ĠPen": 5024,
      "Ġconvey": 5025,
      "Ġlearn": 5026,
      "Ġthreatened": 5027,
      "Ġpush": 5028,
      "Ġwilling": 5029,
      "ĠChh": 5030,
      "Ġphot": 5031,
      "Ġpurch": 5032,
      "Ġlooking": 5033,
      "Ġrequested": 5034,
      "Ġescal": 5035,
      "Ġhouseholds": 5036,
      "Ġpip": 5037,
      "ĠWall": 5038,
      "Ġelements": 5039,
      "ĠRural": 5040,
      "cul": 5041,
      "Ġcam": 5042,
      "Ġconver": 5043,
      "ĠThir": 5044,
      "Ġdesigned": 5045,
      "ĠAtal": 5046,
      "Ġrules": 5047,
      "Ġprocessing": 5048,
      "Ġcivilian": 5049,
      "Ġtelevision": 5050,
      "ĠCorporation": 5051,
      "Ġexist": 5052,
      "pan": 5053,
      "Ġpace": 5054,
      "oured": 5055,
      "ĠTV": 5056,
      "Ġstability": 5057,
      "aryana": 5058,
      "ĠSte": 5059,
      "Ġ2005": 5060,
      "Ġformal": 5061,
      "Ġproposals": 5062,
      "ĠNavy": 5063,
      "Ġaffordable": 5064,
      "cers": 5065,
      "Ġpil": 5066,
      "ĠPress": 5067,
      "Ġflood": 5068,
      "Ġcontinuing": 5069,
      "ĠCoal": 5070,
      "Ġprocurement": 5071,
      "utrition": 5072,
      "80": 5073,
      "nath": 5074,
      "Ġtoil": 5075,
      "Ġmort": 5076,
      "ĠTuesday": 5077,
      "Ġease": 5078,
      "igen": 5079,
      "ĠKovind": 5080,
      "Ġeverything": 5081,
      "ups": 5082,
      "Ġconfron": 5083,
      "Ġclosely": 5084,
      "Ġbrut": 5085,
      "AY": 5086,
      "rary": 5087,
      "ĠProm": 5088,
      "Ġoutcome": 5089,
      "Ġsuggested": 5090,
      "ĠAfrican": 5091,
      "This": 5092,
      "Ġreactionary": 5093,
      "Ġsacrifice": 5094,
      "time": 5095,
      "ĠNam": 5096,
      "ĠFran": 5097,
      "ĠLakh": 5098,
      "Ġseems": 5099,
      "ĠYour": 5100,
      "Ġ2008": 5101,
      "ĠConvention": 5102,
      "Ġindividuals": 5103,
      "Ġaspects": 5104,
      "minist": 5105,
      "Ġbond": 5106,
      "Ġmax": 5107,
      "urt": 5108,
      "Ġjudge": 5109,
      "vail": 5110,
      "ĠMos": 5111,
      "Ġexc": 5112,
      "rating": 5113,
      "Ġelectoral": 5114,
      "Ġdouble": 5115,
      "ĠHonble": 5116,
      "jab": 5117,
      "inism": 5118,
      "Ġtheme": 5119,
      "Ġfelt": 5120,
      "Ġwaste": 5121,
      "Ġadequ": 5122,
      "Ġincident": 5123,
      "Ġinteraction": 5124,
      "ĠTamils": 5125,
      "ĠJacob": 5126,
      "ume": 5127,
      "rect": 5128,
      "Ġvessel": 5129,
      "Ġassured": 5130,
      "Ġcrucial": 5131,
      "PE": 5132,
      "ĠHaryana": 5133,
      "Ġcorporations": 5134,
      "ĠPalestinians": 5135,
      "ĠUrban": 5136,
      "joy": 5137,
      "athi": 5138,
      "Ġoften": 5139,
      "eda": 5140,
      "Ġparam": 5141,
      "Ġlie": 5142,
      "ĠBack": 5143,
      "Ġadj": 5144,
      "Ġprisoners": 5145,
      "inces": 5146,
      "Ġpan": 5147,
      "Ġeuro": 5148,
      "riya": 5149,
      "ĠCustoms": 5150,
      "abil": 5151,
      "Ġcontrad": 5152,
      "Ġadvant": 5153,
      "Ġavailability": 5154,
      "Ġbelieved": 5155,
      "Ġarrested": 5156,
      "micals": 5157,
      "Ġoppose": 5158,
      "Ġquite": 5159,
      "Ġappropri": 5160,
      "ĠSecond": 5161,
      "Ġwithdrawal": 5162,
      "ĠPunjab": 5163,
      "een": 5164,
      "vate": 5165,
      "Ġ:": 5166,
      "Ġdiver": 5167,
      "ĠMost": 5168,
      "ayan": 5169,
      "assad": 5170,
      "ilitary": 5171,
      "ĠVenkaiah": 5172,
      "ĠFourth": 5173,
      "aksh": 5174,
      "ĠOper": 5175,
      "ĠYouth": 5176,
      "Ġsubsequ": 5177,
      "ĠResource": 5178,
      "Ġ1990": 5179,
      "ĠBecause": 5180,
      "Ġram": 5181,
      "itical": 5182,
      "Ġpolitically": 5183,
      "Ġexpression": 5184,
      "porary": 5185,
      "Ġexperts": 5186,
      "Ġskills": 5187,
      "Ġhot": 5188,
      "ĠCal": 5189,
      "Ġstands": 5190,
      "Ġprosec": 5191,
      "ĠTamiln": 5192,
      "Ġfeed": 5193,
      "ĠAirport": 5194,
      "Ġconcluded": 5195,
      "ĠLiberation": 5196,
      "ĠNatural": 5197,
      "bre": 5198,
      "akk": 5199,
      "terror": 5200,
      "umar": 5201,
      "ipur": 5202,
      "Ġtext": 5203,
      "Ġconnections": 5204,
      "Ġphysical": 5205,
      "NC": 5206,
      "kari": 5207,
      "Ġbail": 5208,
      "ĠAre": 5209,
      "osen": 5210,
      "RE": 5211,
      "uine": 5212,
      "was": 5213,
      "Ġswe": 5214,
      "Ġstatements": 5215,
      "Ġconfirmed": 5216,
      "ĠSolom": 5217,
      "regation": 5218,
      "Ġdelegation": 5219,
      "ĠInnovation": 5220,
      "ula": 5221,
      "ĠRiver": 5222,
      "Ġsure": 5223,
      "Ġinvited": 5224,
      "ĠSimilarly": 5225,
      "inance": 5226,
      "ald": 5227,
      "Ġgar": 5228,
      "Ġnote": 5229,
      "Ġassum": 5230,
      "Ġcompletion": 5231,
      "Ġshowed": 5232,
      "Ġrevealed": 5233,
      "ope": 5234,
      "Ġextrem": 5235,
      "Ġopenly": 5236,
      "Ġdevast": 5237,
      "Ġrefugees": 5238,
      "agan": 5239,
      "Ġclosed": 5240,
      "Ġoverall": 5241,
      "Ġacted": 5242,
      "Ġrighteous": 5243,
      "Ġheads": 5244,
      "Ġprepare": 5245,
      "Ġspoken": 5246,
      "Ġaspirations": 5247,
      "Ġburnt": 5248,
      "ĠIMF": 5249,
      "Ġsqu": 5250,
      "Ġreasons": 5251,
      "uted": 5252,
      "ĠBra": 5253,
      "ĠNation": 5254,
      "using": 5255,
      "ĠLt": 5256,
      "Ġtraff": 5257,
      "Ġinstru": 5258,
      "Ġconnected": 5259,
      "Ġvoted": 5260,
      "Ġmurder": 5261,
      "iant": 5262,
      "pic": 5263,
      "Ġdelivery": 5264,
      "SEAN": 5265,
      "ĠTamilnadu": 5266,
      "ĠCG": 5267,
      "ĠNag": 5268,
      "ndering": 5269,
      "Ġindicated": 5270,
      "ĠSaul": 5271,
      "Ġpriests": 5272,
      "ĠFilm": 5273,
      "ĠCD": 5274,
      "Ġenjoy": 5275,
      "Ġsurv": 5276,
      "Ġlegit": 5277,
      "Ġscene": 5278,
      "ĠSurvey": 5279,
      "Ġlosses": 5280,
      "Ġcongratulated": 5281,
      "liness": 5282,
      "onent": 5283,
      "Ġcash": 5284,
      "omic": 5285,
      "cean": 5286,
      "ĠBu": 5287,
      "resents": 5288,
      "ĠGen": 5289,
      "ĠFar": 5290,
      "ĠVis": 5291,
      "ventions": 5292,
      "everal": 5293,
      "Ġinitiated": 5294,
      "Ġminimum": 5295,
      "spect": 5296,
      "Ġtry": 5297,
      "Ġsite": 5298,
      "igar": 5299,
      "ĠRel": 5300,
      "Ġthereby": 5301,
      "Ġanyone": 5302,
      "Ġconfident": 5303,
      "Ġappeared": 5304,
      "ĠSupp": 5305,
      "pet": 5306,
      "ĠPetroleum": 5307,
      "Ġconnection": 5308,
      "lihood": 5309,
      "Ġidea": 5310,
      "SSP": 5311,
      "yal": 5312,
      "Ġcell": 5313,
      "Ġpill": 5314,
      "Ġment": 5315,
      "Ġarm": 5316,
      "Ġfeet": 5317,
      "Ġfunding": 5318,
      "Ġmulti": 5319,
      "Ġemphasized": 5320,
      "Ġanalysis": 5321,
      "OD": 5322,
      "zb": 5323,
      "Ġton": 5324,
      "Ġarms": 5325,
      "ĠCollege": 5326,
      "ĠPlan": 5327,
      "Ġcorresponding": 5328,
      "Ġawards": 5329,
      "Ġtou": 5330,
      "arkhand": 5331,
      "Ġblack": 5332,
      "ursday": 5333,
      "ĠPrakash": 5334,
      "Ġtrou": 5335,
      "rific": 5336,
      "Ġensu": 5337,
      "aren": 5338,
      "60": 5339,
      "Ġtend": 5340,
      "Ġbad": 5341,
      "Ġmatters": 5342,
      "embers": 5343,
      "Ġvent": 5344,
      "Ġroles": 5345,
      "Ġ45": 5346,
      "Ġconfront": 5347,
      "ĠGuard": 5348,
      "ĠCoast": 5349,
      "Ġcommunities": 5350,
      "Ġwebs": 5351,
      "anchay": 5352,
      "Ġdiplomatic": 5353,
      "ĠAjith": 5354,
      "Ġcinema": 5355,
      "Ġinqu": 5356,
      "iry": 5357,
      "Ġperman": 5358,
      "Ġinvestig": 5359,
      "ĠAlso": 5360,
      "prise": 5361,
      "Ġrecovery": 5362,
      "dem": 5363,
      "iya": 5364,
      "rank": 5365,
      "Ġhor": 5366,
      "ĠPhar": 5367,
      "ĠHaving": 5368,
      "ĠLev": 5369,
      "Ġrain": 5370,
      "Ġinternationally": 5371,
      "Ġpromised": 5372,
      "Ġstruggles": 5373,
      "Ġsolid": 5374,
      "Ġremaining": 5375,
      "Ġgenuine": 5376,
      "Ġinjured": 5377,
      "ĠRaksha": 5378,
      "ĠLimited": 5379,
      "point": 5380,
      "van": 5381,
      "Ġaf": 5382,
      "Ġfre": 5383,
      "Ġeastern": 5384,
      "ĠRavi": 5385,
      "arya": 5386,
      "Ġsurround": 5387,
      "Ġaircraft": 5388,
      "Ġinvolving": 5389,
      "ĠPersonnel": 5390,
      "Ġstreets": 5391,
      "ĠJaff": 5392,
      "anti": 5393,
      "Ġnationalist": 5394,
      "Ġceremony": 5395,
      "Ġboard": 5396,
      "addam": 5397,
      "ĠGaza": 5398,
      "TA": 5399,
      "ĠSeveral": 5400,
      "Ġproced": 5401,
      "ĠRen": 5402,
      "Ġbuy": 5403,
      "Ġcolonial": 5404,
      "Ġreduction": 5405,
      "Ġviews": 5406,
      "yanmar": 5407,
      "hibition": 5408,
      "ancellor": 5409,
      "wood": 5410,
      "Ã¶": 5411,
      "Ġpie": 5412,
      "Ġfam": 5413,
      "Ġult": 5414,
      "Ġquarter": 5415,
      "ĠInfrastructure": 5416,
      "13": 5417,
      "70": 5418,
      "AF": 5419,
      "Ġwatch": 5420,
      "itime": 5421,
      "ciences": 5422,
      "ghters": 5423,
      "Ġfiled": 5424,
      "Ġdaughters": 5425,
      "Ġdiseases": 5426,
      "ole": 5427,
      "uram": 5428,
      "alse": 5429,
      "ĠPass": 5430,
      "Ġshift": 5431,
      "Ġhelping": 5432,
      "Ġdeclaring": 5433,
      "Ġtaxes": 5434,
      "ĠAddressing": 5435,
      "MoU": 5436,
      "ĠHousing": 5437,
      "upp": 5438,
      "ĠSports": 5439,
      "Ġcomprehensive": 5440,
      "Ġacts": 5441,
      "ĠForum": 5442,
      "Ġemployers": 5443,
      "Ġinnovative": 5444,
      "Ġmanufacture": 5445,
      "ĠAyush": 5446,
      "Ã¼": 5447,
      "erted": 5448,
      "arc": 5449,
      "irus": 5450,
      "Ġprominent": 5451,
      "ĠGrievances": 5452,
      "ĠHel": 5453,
      "abh": 5454,
      "emb": 5455,
      "apore": 5456,
      "Ġactress": 5457,
      "Ġshows": 5458,
      "Ġexperiences": 5459,
      "Ġvolunt": 5460,
      "LTTE": 5461,
      "iation": 5462,
      "Ġreact": 5463,
      "ĠMicro": 5464,
      "celer": 5465,
      "ĠHam": 5466,
      "ength": 5467,
      "Ġpreviously": 5468,
      "Ġauto": 5469,
      "Ġthanked": 5470,
      "Ġappointed": 5471,
      "Ġexecutive": 5472,
      "ĠInstead": 5473,
      "kel": 5474,
      "Ġfair": 5475,
      "Ġbea": 5476,
      "ellect": 5477,
      "ĠEd": 5478,
      "Ġremember": 5479,
      "fully": 5480,
      "Ġfactory": 5481,
      "Ġresulted": 5482,
      "Ġhappened": 5483,
      "Ġhostility": 5484,
      "Ġautom": 5485,
      "ĠJharkhand": 5486,
      "oration": 5487,
      "ils": 5488,
      "Ġworker": 5489,
      "ĠThursday": 5490,
      "Ġoverse": 5491,
      "ilding": 5492,
      "Ġglory": 5493,
      "Ġgets": 5494,
      "Ġeducational": 5495,
      "ĠSpain": 5496,
      "Ġwelcome": 5497,
      "ĠTribal": 5498,
      "Ġwo": 5499,
      "Ġreally": 5500,
      "ĠBas": 5501,
      "ĠKhan": 5502,
      "Ġgenerations": 5503,
      "Ġministry": 5504,
      "ependence": 5505,
      "Ġreviewed": 5506,
      "ĠKerry": 5507,
      "Ġfriendly": 5508,
      "Ġbalance": 5509,
      "Ġsight": 5510,
      "ĠNad": 5511,
      "ĠStart": 5512,
      "Ġ300": 5513,
      "Ġknew": 5514,
      "Ġextension": 5515,
      "Ġconclus": 5516,
      "ĠLead": 5517,
      "Ġphase": 5518,
      "Ġkingdom": 5519,
      "Ġequal": 5520,
      "araman": 5521,
      "ĠForest": 5522,
      "Ġarrived": 5523,
      "Ġlegislation": 5524,
      "Ġrepeatedly": 5525,
      "ĠTigers": 5526,
      "ĠSolomon": 5527,
      "ĠJaffna": 5528,
      "ga": 5529,
      "Ġchain": 5530,
      "Ġresc": 5531,
      "Ġaband": 5532,
      "2017": 5533,
      "Ġassets": 5534,
      "Ġoffices": 5535,
      "Ġfinally": 5536,
      "Ġrecovered": 5537,
      "Ġadvised": 5538,
      "Ġhumanity": 5539,
      "Ġcareer": 5540,
      "ĠSmart": 5541,
      "Ġradical": 5542,
      "Ġwaters": 5543,
      "onom": 5544,
      "icate": 5545,
      "ĠMajor": 5546,
      "amy": 5547,
      "ĠIndones": 5548,
      "aints": 5549,
      "ĠKa": 5550,
      "Ġability": 5551,
      "ordan": 5552,
      "Ġtransformation": 5553,
      "Ġexplos": 5554,
      "ĠAdminist": 5555,
      "Ġborders": 5556,
      "Ġreiterated": 5557,
      "ĠShakti": 5558,
      "CS": 5559,
      "rel": 5560,
      "Ġhom": 5561,
      "ĠVe": 5562,
      "Ġenth": 5563,
      "ronic": 5564,
      "Ġprocesses": 5565,
      "Ġhappiness": 5566,
      "Ġreducing": 5567,
      "ĠIndustrial": 5568,
      "gent": 5569,
      "heast": 5570,
      "Ġap": 5571,
      "eth": 5572,
      "Ġaltar": 5573,
      "ĠLabor": 5574,
      "atha": 5575,
      "Ġstandard": 5576,
      "Ġcitizen": 5577,
      "iscal": 5578,
      "ki": 5579,
      "ns": 5580,
      "Ġversion": 5581,
      "Ġcert": 5582,
      "Ġfalse": 5583,
      "ĠAmit": 5584,
      "ĠNH": 5585,
      "Ġoffers": 5586,
      "ĠOnce": 5587,
      "Ġadmit": 5588,
      "Ġfighters": 5589,
      "Ġprofits": 5590,
      "Ġestablishing": 5591,
      "Ġeru": 5592,
      "Ġsouthern": 5593,
      "Ġsongs": 5594,
      "dden": 5595,
      "ĠGadkari": 5596,
      "atures": 5597,
      "Ġcust": 5598,
      "Ġgate": 5599,
      "Ġmeant": 5600,
      "Ġproducing": 5601,
      "ĠPartners": 5602,
      "Ġgradu": 5603,
      "Ġcongregation": 5604,
      "Ġcollective": 5605,
      "Ġresponded": 5606,
      "Ġinhab": 5607,
      "ĠASEAN": 5608,
      "struction": 5609,
      "illing": 5610,
      "ĠJordan": 5611,
      "Ġsearch": 5612,
      "Ġdesire": 5613,
      "Ġemerging": 5614,
      "ĠJapanese": 5615,
      "Ġbombing": 5616,
      "casting": 5617,
      "bo": 5618,
      "ued": 5619,
      "atically": 5620,
      "Ġscheduled": 5621,
      "Ġwars": 5622,
      "Ġparticipants": 5623,
      "ĠAccount": 5624,
      "Ġdenied": 5625,
      "Ġcongratulate": 5626,
      "Ġethnic": 5627,
      "Ġwake": 5628,
      "ĠCamp": 5629,
      "Ġenorm": 5630,
      "Ġwarm": 5631,
      "Ġ65": 5632,
      "ĠTele": 5633,
      "Ġpreparing": 5634,
      "Ġimproved": 5635,
      "Ġcommunication": 5636,
      "Ġunders": 5637,
      "Ġrout": 5638,
      "Ġkilomet": 5639,
      "has": 5640,
      "Ġdro": 5641,
      "Ġrecon": 5642,
      "ĠPad": 5643,
      "ĠStaff": 5644,
      "anging": 5645,
      "atively": 5646,
      "Ġneighbour": 5647,
      "ĠMSMEs": 5648,
      "MA": 5649,
      "zz": 5650,
      "Ġwave": 5651,
      "ĠMich": 5652,
      "uties": 5653,
      "ĠLoc": 5654,
      "ĠEarlier": 5655,
      "ĠIns": 5656,
      "Ġrange": 5657,
      "Ġdiss": 5658,
      "Ġactors": 5659,
      "Ġdelay": 5660,
      "Ġairport": 5661,
      "ĠCommissioner": 5662,
      "Ġlimit": 5663,
      "vals": 5664,
      "Ġpaper": 5665,
      "ĠSaddam": 5666,
      "Ġprec": 5667,
      "Ġproducers": 5668,
      "Ġrepresents": 5669,
      "Ġminority": 5670,
      "Ġcombined": 5671,
      "Ġwidely": 5672,
      "Ġwrong": 5673,
      "Ġinher": 5674,
      "Ġbear": 5675,
      "ĠRights": 5676,
      "Ġseed": 5677,
      "Ġchosen": 5678,
      "Ġflesh": 5679,
      "Ġbacking": 5680,
      "Ġbroken": 5681,
      "Ġrelevant": 5682,
      "Ġfourth": 5683,
      "Ġachievements": 5684,
      "Ġlinked": 5685,
      "Ġsymb": 5686,
      "Ġtitled": 5687,
      "Ġburden": 5688,
      "23": 5689,
      "ĠTir": 5690,
      "ett": 5691,
      "Ġstead": 5692,
      "ishment": 5693,
      "rowd": 5694,
      "Ġholding": 5695,
      "inations": 5696,
      "ĠMc": 5697,
      "akers": 5698,
      "alling": 5699,
      "Ġuniversity": 5700,
      "Ġrob": 5701,
      "Ġcomplex": 5702,
      "Ġrestruct": 5703,
      "Ġmotiv": 5704,
      "Ġquickly": 5705,
      "grad": 5706,
      "isgarh": 5707,
      "ita": 5708,
      "Ġfought": 5709,
      "Ġbitter": 5710,
      "ĠMyanmar": 5711,
      "ima": 5712,
      "Ġpropag": 5713,
      "....": 5714,
      "Ġposts": 5715,
      "ĠPras": 5716,
      "Ġapplication": 5717,
      "Ġconcessions": 5718,
      "ĠJoseph": 5719,
      "Ġmaximum": 5720,
      "Ġadequate": 5721,
      "MP": 5722,
      "aeda": 5723,
      "west": 5724,
      "ĠCB": 5725,
      "Ġmerely": 5726,
      "Ġrock": 5727,
      "Ġdeficit": 5728,
      "ĠArmed": 5729,
      "Ġdemonstrated": 5730,
      "ĠMalay": 5731,
      "Ġlayers": 5732,
      "ĠSolar": 5733,
      "Ġapplications": 5734,
      "ĠPrabhu": 5735,
      "Ġappropriate": 5736,
      "rain": 5737,
      "Ġbetray": 5738,
      "Ġassass": 5739,
      "Ġdraw": 5740,
      "Ġtargets": 5741,
      "Ġencouraged": 5742,
      "Ġrequirement": 5743,
      "ĠEmployment": 5744,
      "sy": 5745,
      "ster": 5746,
      "Ġlength": 5747,
      "Ġang": 5748,
      "emed": 5749,
      "apers": 5750,
      "ĠAssembly": 5751,
      "Ġconscious": 5752,
      "ĠGovernor": 5753,
      "ĠVikram": 5754,
      "Ġexpenditure": 5755,
      "Ġspeaking": 5756,
      "Ġdefense": 5757,
      "ĠCentres": 5758,
      "Ġinvestments": 5759,
      "Ġterritory": 5760,
      "with": 5761,
      "Ġinev": 5762,
      "Ġduty": 5763,
      "ĠSel": 5764,
      "utin": 5765,
      "ĠVive": 5766,
      "Ġpositions": 5767,
      "ĠAlthough": 5768,
      "Ġmasks": 5769,
      "?'": 5770,
      "ximately": 5771,
      "ila": 5772,
      "itha": 5773,
      "ĠKrish": 5774,
      "Ġagency": 5775,
      "ĠShi": 5776,
      "Ġmanif": 5777,
      "Ġcondition": 5778,
      "Ġflight": 5779,
      "Ġpossibility": 5780,
      "Ġbankrupt": 5781,
      "Ġdriven": 5782,
      "Ġpractice": 5783,
      "Ġsilver": 5784,
      "ĠTurkey": 5785,
      "24": 5786,
      "NG": 5787,
      "Ġcas": 5788,
      "iling": 5789,
      "ĠShipping": 5790,
      "eping": 5791,
      "Ġrepression": 5792,
      "Ġterrorists": 5793,
      "leges": 5794,
      "Ġattempts": 5795,
      "Ġdivide": 5796,
      "Ġseparat": 5797,
      "iveness": 5798,
      "Ġwicked": 5799,
      "ĠSL": 5800,
      "stances": 5801,
      "Ġforest": 5802,
      "Ġvacc": 5803,
      "ids": 5804,
      "ĠGulf": 5805,
      "anged": 5806,
      "Ġparticipating": 5807,
      "attisgarh": 5808,
      "Ġsanctions": 5809,
      "ĠBharati": 5810,
      "Ġdrawn": 5811,
      "Ġdollar": 5812,
      "Ġdistributed": 5813,
      "Ġadvantage": 5814,
      "RC": 5815,
      "anish": 5816,
      "ĠMor": 5817,
      "essor": 5818,
      "Ġdisapp": 5819,
      "Ġhealthy": 5820,
      "Ġpayment": 5821,
      "ĠMald": 5822,
      "Ġsuffered": 5823,
      "Ġreservo": 5824,
      "arency": 5825,
      "fall": 5826,
      "Ġcabinet": 5827,
      "edd": 5828,
      "Ġine": 5829,
      "veill": 5830,
      "ĠAaron": 5831,
      "ĠJo": 5832,
      "ĠInc": 5833,
      "derabad": 5834,
      "Ġshowc": 5835,
      "veillance": 5836,
      "DA": 5837,
      "ji": 5838,
      "anes": 5839,
      "Ġfans": 5840,
      "Ġdark": 5841,
      "ĠAwards": 5842,
      "Ġstanding": 5843,
      "Ġvital": 5844,
      "ĠAny": 5845,
      "ĠSingapore": 5846,
      "Ġheaded": 5847,
      "ĠHoward": 5848,
      "ĠNaval": 5849,
      "Ġdialogue": 5850,
      "ĠVivek": 5851,
      "ores": 5852,
      "rategic": 5853,
      "erson": 5854,
      "ĠStat": 5855,
      "Ġappl": 5856,
      "Ġpride": 5857,
      "Ġrecalled": 5858,
      "Ġrequires": 5859,
      "Ġfarming": 5860,
      "Ġconcerning": 5861,
      "Ġauthority": 5862,
      "Ġenhancing": 5863,
      "ellectual": 5864,
      "Â¬": 5865,
      "ÂĤ": 5866,
      "orious": 5867,
      "ĠSr": 5868,
      "ĠAII": 5869,
      "Ġhearing": 5870,
      "Ġitems": 5871,
      "ĠLCR": 5872,
      "Ġcourage": 5873,
      "Ġchoice": 5874,
      "ĠNews": 5875,
      "Ġinaugurate": 5876,
      "Ġcircles": 5877,
      "ĠConsumer": 5878,
      "Ġdismiss": 5879,
      "ÂĤÂ¬": 5880,
      "Ġentry": 5881,
      "viation": 5882,
      "Ġenemies": 5883,
      "Ġtabern": 5884,
      "isan": 5885,
      "alai": 5886,
      "Ġunable": 5887,
      "oking": 5888,
      "ĠCommon": 5889,
      "Ġdifferences": 5890,
      "ĠAbout": 5891,
      "Ġphone": 5892,
      "Ġliberal": 5893,
      "ĠQaeda": 5894,
      "Ġinvolvement": 5895,
      "Ġenthus": 5896,
      "Is": 5897,
      "PG": 5898,
      "hat": 5899,
      "ĠPensions": 5900,
      "Ġgreen": 5901,
      "orted": 5902,
      "ushed": 5903,
      "Ġimag": 5904,
      "Ġ1999": 5905,
      "Ġproperty": 5906,
      "Ġtorture": 5907,
      "Ġearn": 5908,
      "ĠPIB": 5909,
      "ĠRad": 5910,
      "Ġsav": 5911,
      "Ġindigen": 5912,
      "Ġacceler": 5913,
      "ĠRajnath": 5914,
      "Ġpromotion": 5915,
      "Ġdollars": 5916,
      "Ġguarantee": 5917,
      "bas": 5918,
      "pol": 5919,
      "Ġtouch": 5920,
      "rence": 5921,
      "Ġrival": 5922,
      "Ġqual": 5923,
      "2018": 5924,
      "Ġconstructed": 5925,
      "ĠInvestment": 5926,
      "Ġarrangements": 5927,
      "bon": 5928,
      "lands": 5929,
      "ĠMembers": 5930,
      "ulner": 5931,
      "Ġneo": 5932,
      "Ġjoy": 5933,
      "Ġdirectors": 5934,
      "Ġended": 5935,
      "Ġcelebrations": 5936,
      "Ġconstitutional": 5937,
      "Ġaccompl": 5938,
      "ĠPrivate": 5939,
      "Ġimmigrants": 5940,
      "assador": 5941,
      "tt": 5942,
      "ĠNaz": 5943,
      "ĠGood": 5944,
      "ĠShankar": 5945,
      "ĠThrough": 5946,
      "order": 5947,
      "ibilities": 5948,
      "Ġjustify": 5949,
      "Ġsuggestions": 5950,
      "Ġ1980": 5951,
      "ĠRegional": 5952,
      "uction": 5953,
      "Ġtens": 5954,
      "ĠDec": 5955,
      "ĠStand": 5956,
      "Ġbusinesses": 5957,
      "Ġprivile": 5958,
      "Ġdeeply": 5959,
      "ĠIndustries": 5960,
      "Ġdreams": 5961,
      "ashed": 5962,
      "roc": 5963,
      "aked": 5964,
      "ĠFertilizers": 5965,
      "ĠAbd": 5966,
      "Ġwebsite": 5967,
      "Ġpermanent": 5968,
      "face": 5969,
      "ĠCe": 5970,
      "Ġconce": 5971,
      "Ġcontest": 5972,
      "Ġextensive": 5973,
      "Ġtowns": 5974,
      "ĠSenate": 5975,
      "Ġselected": 5976,
      "Ġtalent": 5977,
      "uries": 5978,
      "Ġdisplay": 5979,
      "rised": 5980,
      "Ġpublicly": 5981,
      "Ġplaying": 5982,
      "ukh": 5983,
      "Ġutter": 5984,
      "ĠTurk": 5985,
      "CP": 5986,
      "gence": 5987,
      "rates": 5988,
      "Ġec": 5989,
      "ĠMs": 5990,
      "ĠWill": 5991,
      "Ġpeoples": 5992,
      "Ġprete": 5993,
      "Ġindeed": 5994,
      "Ġspecif": 5995,
      "uck": 5996,
      "ĠMarx": 5997,
      "ĠPaul": 5998,
      "ĠHyderabad": 5999,
      "Ġfruit": 6000,
      "ript": 6001,
      "ĠAmericans": 6002,
      "Ġimplementing": 6003,
      "Ġcheap": 6004,
      "Ġintegrated": 6005,
      "Ġaggression": 6006,
      "Ġgirl": 6007,
      "He": 6008,
      "ĠSud": 6009,
      "Ġrej": 6010,
      "riage": 6011,
      "Ġdeployed": 6012,
      "Ġprimary": 6013,
      "ĠInteg": 6014,
      "Ġcleanliness": 6015,
      "Ġprinciple": 6016,
      "Ġfavor": 6017,
      "ĠEnter": 6018,
      "Ġremarks": 6019,
      "ĠPartnership": 6020,
      "Ġnine": 6021,
      "lywood": 6022,
      "owing": 6023,
      "Ġpossess": 6024,
      "ĠResources": 6025,
      "Ġsanct": 6026,
      "Ġ33": 6027,
      "claim": 6028,
      "Ġaudience": 6029,
      "ĠItaly": 6030,
      "ĠMove": 6031,
      "Ġstars": 6032,
      "ĠBay": 6033,
      "pping": 6034,
      "ĠKurd": 6035,
      "Ġplays": 6036,
      "Ġinstruct": 6037,
      "ĠAhmed": 6038,
      "22": 6039,
      "Ts": 6040,
      "Ġhum": 6041,
      "Ġnames": 6042,
      "ĠNor": 6043,
      "apt": 6044,
      "Ġcrops": 6045,
      "ĠProduc": 6046,
      "ictions": 6047,
      "evan": 6048,
      "Ġachieving": 6049,
      "ĠZion": 6050,
      "ĠClimate": 6051,
      "Ġdetailed": 6052,
      "ĠSurya": 6053,
      "ĠChristian": 6054,
      "ĠPatel": 6055,
      "Ġpraise": 6056,
      "Ġcircumstances": 6057,
      "Ġcop": 6058,
      "Ġkings": 6059,
      "ĠVid": 6060,
      "Ġroll": 6061,
      "Ġfaces": 6062,
      "ĠConf": 6063,
      "ĠArabia": 6064,
      "Ġmeaning": 6065,
      "Ġbridge": 6066,
      "eke": 6067,
      "Ġtim": 6068,
      "ĠMob": 6069,
      "idation": 6070,
      "ĠBenef": 6071,
      "ĠJai": 6072,
      "Ġlawy": 6073,
      "Ġhosts": 6074,
      "ĠChandra": 6075,
      "Ġlanguages": 6076,
      "Ġmedicines": 6077,
      "ĠAyushman": 6078,
      "Ġrestructuring": 6079,
      "IM": 6080,
      "Ġnom": 6081,
      "ills": 6082,
      "ĠBroad": 6083,
      "ĠGreat": 6084,
      "osh": 6085,
      "Ġunve": 6086,
      "ĠYet": 6087,
      "Ġdefinite": 6088,
      "Ġrecommendations": 6089,
      "eal": 6090,
      "Ġsize": 6091,
      "ĠSith": 6092,
      "Ġbeast": 6093,
      "Ġnamed": 6094,
      "Ġbanking": 6095,
      "Ġdepos": 6096,
      "Ġentirely": 6097,
      "Ġcelebrate": 6098,
      "Ġsymbol": 6099,
      "cow": 6100,
      "lu": 6101,
      "Ġpit": 6102,
      "Ġinn": 6103,
      "imb": 6104,
      "amber": 6105,
      "ĠEarth": 6106,
      "Ġimage": 6107,
      "Ġimposs": 6108,
      "Ġturning": 6109,
      "Ġdeepening": 6110,
      "Ġlivelihood": 6111,
      "Ġcertainly": 6112,
      "ĠOrganisation": 6113,
      "rigation": 6114,
      "ĠChhattisgarh": 6115,
      "29": 6116,
      "AM": 6117,
      "ses": 6118,
      "Ġtank": 6119,
      "Ġconcept": 6120,
      "ĠGar": 6121,
      "ĠIndo": 6122,
      "Ġsharing": 6123,
      "Ġcho": 6124,
      "Ġrally": 6125,
      "ĠProv": 6126,
      "Ġinternal": 6127,
      "Ġlarger": 6128,
      "Ġowners": 6129,
      "Ġvirtually": 6130,
      "Ġrestrictions": 6131,
      "Ġreservoirs": 6132,
      "tm": 6133,
      "Ġfat": 6134,
      "esty": 6135,
      "Ġintim": 6136,
      "Ġprovince": 6137,
      "Ġopponents": 6138,
      "Ġ2009": 6139,
      "Ġdepartment": 6140,
      "Ġexpert": 6141,
      "Ġmultip": 6142,
      "Ġeasy": 6143,
      "Ġhal": 6144,
      "Ġsun": 6145,
      "Ġresign": 6146,
      "Ġtrillion": 6147,
      "Ġentit": 6148,
      "ĠAcad": 6149,
      "Ġinspiration": 6150,
      "uven": 6151,
      "ĠTotal": 6152,
      "utical": 6153,
      "ĠElection": 6154,
      "tered": 6155,
      "Ġelig": 6156,
      "Ġemployed": 6157,
      "Ġsurvey": 6158,
      "Ġfarmer": 6159,
      "Ġcovering": 6160,
      "Ġsettlement": 6161,
      "ĠBuddh": 6162,
      "Ġinclusive": 6163,
      "Ġinherit": 6164,
      "Ġtabernacle": 6165,
      "lets": 6166,
      "Ġstructure": 6167,
      "Ġeconomies": 6168,
      "Ġcapable": 6169,
      "ĠPMs": 6170,
      "Ġbackground": 6171,
      "Ġpayments": 6172,
      "Ġcelebrated": 6173,
      "Ġsuffering": 6174,
      "Ġintegration": 6175,
      "Ġballot": 6176,
      "ĠScient": 6177,
      "ĠMil": 6178,
      "Ġgrat": 6179,
      "Ġprob": 6180,
      "ĠEconom": 6181,
      "Ġunf": 6182,
      "Ġovercome": 6183,
      "Ġefficiency": 6184,
      "Ġcondol": 6185,
      "Ġattacked": 6186,
      "Ġfollows": 6187,
      "Ġhappen": 6188,
      "Ġseeks": 6189,
      "Ġlooked": 6190,
      "Ġsteel": 6191,
      "ĠHeadquarters": 6192,
      "Ġdenounced": 6193,
      "Ġacademic": 6194,
      "Ġenormous": 6195,
      "IP": 6196,
      "gov": 6197,
      "aling": 6198,
      "ĠAviation": 6199,
      "ĠMet": 6200,
      "ĠPeter": 6201,
      "Ġvulner": 6202,
      "agers": 6203,
      "Ġupto": 6204,
      "ĠDev": 6205,
      "Ġremoved": 6206,
      "ĠSea": 6207,
      "Ġthoughts": 6208,
      "Ġconservative": 6209,
      "ĠEmpowerment": 6210,
      "26": 6211,
      "mi": 6212,
      "Ġbran": 6213,
      "ĠSciences": 6214,
      "ĠMetro": 6215,
      "Ġstories": 6216,
      "ĠNan": 6217,
      "Ġcontent": 6218,
      "ails": 6219,
      "Ġamid": 6220,
      "Ġmassac": 6221,
      "ĠSitharaman": 6222,
      "Ġapart": 6223,
      "amin": 6224,
      "avirus": 6225,
      "Ġliqu": 6226,
      "Ġobvious": 6227,
      "tenance": 6228,
      "Ġaggressive": 6229,
      "Ġrenewable": 6230,
      "Ġmilitarism": 6231,
      "Ġinhabit": 6232,
      "ĠMaldives": 6233,
      "CF": 6234,
      "There": 6235,
      "Ġcrowd": 6236,
      "ĠDi": 6237,
      "astic": 6238,
      "ĠIncome": 6239,
      "Ġmeat": 6240,
      "ĠVad": 6241,
      "ĠVaj": 6242,
      "Ġ36": 6243,
      "erness": 6244,
      "owned": 6245,
      "Ġdesper": 6246,
      "Ġcurren": 6247,
      "ĠMeeting": 6248,
      "Ġempowerment": 6249,
      "break": 6250,
      "oub": 6251,
      "Ġgun": 6252,
      "rators": 6253,
      "Ġchanging": 6254,
      "Ġcontributed": 6255,
      "Ġprofessional": 6256,
      "Ġobserved": 6257,
      "Ġpipeline": 6258,
      "75": 6259,
      "If": 6260,
      "Siv": 6261,
      "ĠHim": 6262,
      "Ġseason": 6263,
      "angana": 6264,
      "Ġfirms": 6265,
      "rising": 6266,
      "Ġcrop": 6267,
      "Ġbroke": 6268,
      "Ġtaxpay": 6269,
      "Ġliter": 6270,
      "Ġtrend": 6271,
      "Ġconflicts": 6272,
      "ĠCGT": 6273,
      "lo": 6274,
      "Ġfled": 6275,
      "Ġinterventions": 6276,
      "ĠAtomic": 6277,
      "ĠTrust": 6278,
      "ĠAmong": 6279,
      "35": 6280,
      "cle": 6281,
      "erous": 6282,
      "ĠPand": 6283,
      "irty": 6284,
      "ĠGold": 6285,
      "Ġdisrupt": 6286,
      "Ġ38": 6287,
      "Ġrose": 6288,
      "Ġoccur": 6289,
      "Ġoperating": 6290,
      "Ġrepresented": 6291,
      "ĠMedic": 6292,
      "Ġtransportation": 6293,
      "ĠTraining": 6294,
      "Ġcommented": 6295,
      "olkata": 6296,
      "ĠAbhiyan": 6297,
      "Ġmanifest": 6298,
      "--": 6299,
      "05": 6300,
      "economic": 6301,
      "iest": 6302,
      "sun": 6303,
      "Ġmal": 6304,
      "etary": 6305,
      "eless": 6306,
      "hermen": 6307,
      "ĠUP": 6308,
      "Ġimpose": 6309,
      "Ġcharged": 6310,
      "theless": 6311,
      "Ġcontributions": 6312,
      "ĠJews": 6313,
      "Ġtonnes": 6314,
      "28": 6315,
      "ison": 6316,
      "Ġhung": 6317,
      "Ġmaster": 6318,
      "ĠMT": 6319,
      "iable": 6320,
      "Ġsugar": 6321,
      "ĠJourn": 6322,
      "ĠVas": 6323,
      "ĠChange": 6324,
      "Ġseeing": 6325,
      "Ġpraised": 6326,
      "Ġtransparent": 6327,
      "Ġtransparency": 6328,
      "Ġacknowled": 6329,
      "ĠMoscow": 6330,
      "Ġtraffic": 6331,
      "cceed": 6332,
      "rend": 6333,
      "Ġforg": 6334,
      "Ġsucceed": 6335,
      "Ġ34": 6336,
      "Ġgreatest": 6337,
      "Ġjudgment": 6338,
      "ipped": 6339,
      "Ġaccompan": 6340,
      "SA": 6341,
      "bh": 6342,
      "ien": 6343,
      "son": 6344,
      "left": 6345,
      "Ġhelic": 6346,
      "Ġconcent": 6347,
      "ĠFest": 6348,
      "unal": 6349,
      "Ġcompass": 6350,
      "rick": 6351,
      "Ġbecomes": 6352,
      "phone": 6353,
      "ixed": 6354,
      "Ġnamely": 6355,
      "ĠControl": 6356,
      "Ġconservation": 6357,
      "ylon": 6358,
      "Ġenhanced": 6359,
      "ĠGeorgia": 6360,
      "ĠVajpay": 6361,
      "Ġalleg": 6362,
      "ules": 6363,
      "ĠRat": 6364,
      "Ġpassing": 6365,
      "ĠReport": 6366,
      "Ġholds": 6367,
      "Ġnorms": 6368,
      "ĠMalayalam": 6369,
      "Ġimpossible": 6370,
      "Ġhelicop": 6371,
      "Ġsam": 6372,
      "arations": 6373,
      "Ġdram": 6374,
      "ĠBesides": 6375,
      "ĠNon": 6376,
      "ĠFort": 6377,
      "Ġcaptain": 6378,
      "haz": 6379,
      "ĠProcess": 6380,
      "Ġaffect": 6381,
      "Ġsentiment": 6382,
      "Ġera": 6383,
      "Ġempower": 6384,
      "WC": 6385,
      "Ġbow": 6386,
      "Ġiniqu": 6387,
      "ashi": 6388,
      "ĠRich": 6389,
      "ĠGuru": 6390,
      "Ġmovements": 6391,
      "ĠDeputy": 6392,
      "Ġurge": 6393,
      "Ġrepresentative": 6394,
      "Ġengagement": 6395,
      "Ġbroader": 6396,
      "Ġmaintained": 6397,
      "Ġordered": 6398,
      "ĠCSIR": 6399,
      "Ġensured": 6400,
      "MR": 6401,
      "whel": 6402,
      "itaries": 6403,
      "level": 6404,
      "Ġlord": 6405,
      "ĠBr": 6406,
      "ĠBol": 6407,
      "ĠNagar": 6408,
      "ĠEst": 6409,
      "Ġdetain": 6410,
      "Ġfocused": 6411,
      "ĠOrd": 6412,
      "Ġjournalists": 6413,
      "Ġsanctioned": 6414,
      "onavirus": 6415,
      "ĠFather": 6416,
      "Ġsoil": 6417,
      "Ġprevail": 6418,
      "Ġdoz": 6419,
      "cession": 6420,
      "Ġcollege": 6421,
      "Ġenterprises": 6422,
      "Ġnormal": 6423,
      "Ġdegree": 6424,
      "Ġbrutal": 6425,
      "ĠVajpayee": 6426,
      "hag": 6427,
      "long": 6428,
      "ĠSil": 6429,
      "ĠGOD": 6430,
      "ĠWhe": 6431,
      "redit": 6432,
      "Ġapparat": 6433,
      "Ġposed": 6434,
      "Ġphil": 6435,
      "Ġattempted": 6436,
      "Ġreserves": 6437,
      "Ġinequality": 6438,
      "rust": 6439,
      "idency": 6440,
      "raham": 6441,
      "ĠPanchay": 6442,
      "ĠCar": 6443,
      "uts": 6444,
      "Ġconven": 6445,
      "ĠIndependence": 6446,
      "Ġsudden": 6447,
      "Ġsevere": 6448,
      "ĠKolkata": 6449,
      "Ġtestim": 6450,
      "Ġautonom": 6451,
      "Ġfellow": 6452,
      "ĠBabylon": 6453,
      "Ġdrugs": 6454,
      "Ġwilderness": 6455,
      "ĠMovement": 6456,
      "UN": 6457,
      "Ġsk": 6458,
      "urch": 6459,
      "ĠRu": 6460,
      "Ġancient": 6461,
      "Ġcountrys": 6462,
      "ips": 6463,
      "Ġpromises": 6464,
      "Ġlocated": 6465,
      "Ġvoting": 6466,
      "Ġmilk": 6467,
      "Ġassessment": 6468,
      "ekend": 6469,
      "fect": 6470,
      "ĠCharge": 6471,
      "ensus": 6472,
      "Ġtests": 6473,
      "shop": 6474,
      "Ġcloser": 6475,
      "Ġcasual": 6476,
      "Ġweekend": 6477,
      "Ġwors": 6478,
      "ĠKen": 6479,
      "Ġarch": 6480,
      "Ġinterven": 6481,
      "Ġguard": 6482,
      "like": 6483,
      "Ġgreetings": 6484,
      "bl": 6485,
      "Ġwounded": 6486,
      "arily": 6487,
      "Ġfasc": 6488,
      "ĠPA": 6489,
      "ĠCulture": 6490,
      "ulate": 6491,
      "Ġworst": 6492,
      "Ġapproximately": 6493,
      "Ġknows": 6494,
      "Ġsurveillance": 6495,
      "ĠTrisha": 6496,
      "Ġproductivity": 6497,
      "Ġmargin": 6498,
      "Ġimprovement": 6499,
      "Ġregulations": 6500,
      "Ġinitially": 6501,
      "Ġcatast": 6502,
      "ĠLtd": 6503,
      "Ġsale": 6504,
      "Ġpain": 6505,
      "ille": 6506,
      "asht": 6507,
      "Ġdevelopments": 6508,
      "Ġfunctioning": 6509,
      "randed": 6510,
      "Ġdelegates": 6511,
      "Ġbegun": 6512,
      "Ġbailout": 6513,
      "CM": 6514,
      "pati": 6515,
      "ĠIIT": 6516,
      "Ġrein": 6517,
      "verse": 6518,
      "abled": 6519,
      "Ġcomprom": 6520,
      "actions": 6521,
      "Ġdecide": 6522,
      "clus": 6523,
      "ĠMao": 6524,
      "Ġorders": 6525,
      "Ġhonour": 6526,
      "Ġwisdom": 6527,
      "Ġvehicle": 6528,
      "sunami": 6529,
      "33": 6530,
      "Ġcult": 6531,
      "rah": 6532,
      "Ġweak": 6533,
      "2019": 6534,
      "Ġdistancing": 6535,
      "Ġruled": 6536,
      "ĠRepublicans": 6537,
      "Ġstrengthened": 6538,
      "Ġsanitation": 6539,
      "Ġinflation": 6540,
      "Ġjointly": 6541,
      "Ġrecognition": 6542,
      "Ġwebinar": 6543,
      "Ġstopped": 6544,
      "Ġdocuments": 6545,
      "Ġpretext": 6546,
      "ĠJournal": 6547,
      "'m": 6548,
      "ena": 6549,
      "Ġfilled": 6550,
      "asure": 6551,
      "Ġhall": 6552,
      "Ġprospect": 6553,
      "iagn": 6554,
      "ĠUA": 6555,
      "Ġexceed": 6556,
      "Ġsovere": 6557,
      "ĠThough": 6558,
      "Ġcountrymen": 6559,
      "Ġ37": 6560,
      "Ġefficient": 6561,
      "Ġende": 6562,
      "opular": 6563,
      "Ġmarked": 6564,
      "Ġthinking": 6565,
      "Ġscenari": 6566,
      "Ġemphasis": 6567,
      "ĠCanada": 6568,
      "Ġwitnessed": 6569,
      "FI": 6570,
      "reach": 6571,
      "Ġcub": 6572,
      "ĠMun": 6573,
      "Ġshock": 6574,
      "ustainable": 6575,
      "Ġcompens": 6576,
      "Ġinspect": 6577,
      "ĠText": 6578,
      "ĠMoS": 6579,
      "Ġmembership": 6580,
      "Ġvisiting": 6581,
      "Ġfears": 6582,
      "Ġreaching": 6583,
      "Ġeye": 6584,
      "ĠTelangana": 6585,
      "ĠSarath": 6586,
      "Ġimmigration": 6587,
      "Ġtree": 6588,
      "held": 6589,
      "ĠAward": 6590,
      "ĠRice": 6591,
      "Ġcomfort": 6592,
      "Ġintellectual": 6593,
      "Ġconsist": 6594,
      "commun": 6595,
      "Ġminutes": 6596,
      "Ġdraft": 6597,
      "Ġdependent": 6598,
      "ĠĠĠĠ": 6599,
      "Ġprofessionals": 6600,
      "ĠPhara": 6601,
      "95": 6602,
      "As": 6603,
      "Ġpict": 6604,
      "ĠTim": 6605,
      "rack": 6606,
      "Ġstones": 6607,
      "Ġheat": 6608,
      "Ġweight": 6609,
      "Ġincent": 6610,
      "Ġoutbreak": 6611,
      "Ġoverwhel": 6612,
      "Ġaccident": 6613,
      "Ġhanded": 6614,
      "Ġpoore": 6615,
      "Ġclaiming": 6616,
      "Independent": 6617,
      "Ġfavour": 6618,
      "Ġzone": 6619,
      "Ġcoordination": 6620,
      "cher": 6621,
      "oric": 6622,
      "Ġfresh": 6623,
      "Ġexcept": 6624,
      "Ġintend": 6625,
      "Ġprovoc": 6626,
      "issions": 6627,
      "Ġ48": 6628,
      "Ġglad": 6629,
      "Ġequality": 6630,
      "Ġprogressive": 6631,
      "Ġsister": 6632,
      "Ġconsiderable": 6633,
      "Ġtype": 6634,
      "Ġdignitaries": 6635,
      "Ġsatellite": 6636,
      "national": 6637,
      "Ġdance": 6638,
      "uter": 6639,
      "ĠGoyal": 6640,
      "ĠFederal": 6641,
      "Ġsuic": 6642,
      "Ġpolls": 6643,
      "Ġmode": 6644,
      "oja": 6645,
      "Ġsatisfaction": 6646,
      "Ġtributes": 6647,
      "ĠEnterprises": 6648,
      "Ġendeav": 6649,
      "Ġtack": 6650,
      "Ġsab": 6651,
      "iced": 6652,
      "Ġelement": 6653,
      "ĠBur": 6654,
      "Ġalthough": 6655,
      "ĠFac": 6656,
      "ĠFree": 6657,
      "ĠKan": 6658,
      "Ġconsol": 6659,
      "Ġmedium": 6660,
      "ronics": 6661,
      "ĠAgency": 6662,
      "Ġidentity": 6663,
      "Ġreplace": 6664,
      "Ġrespectively": 6665,
      "while": 6666,
      "RIC": 6667,
      "SL": 6668,
      "ooth": 6669,
      "Ġaffairs": 6670,
      "Ġcard": 6671,
      "Ġcited": 6672,
      "Ġfiscal": 6673,
      "ĠGovt": 6674,
      "ques": 6675,
      "stitu": 6676,
      "Ġbackward": 6677,
      "Ġdetention": 6678,
      "Ġtested": 6679,
      "ĠClass": 6680,
      "Ġmaintaining": 6681,
      "Ġwinning": 6682,
      "tml": 6683,
      "Ġeligible": 6684,
      "born": 6685,
      "iar": 6686,
      "nan": 6687,
      "Ġbes": 6688,
      "vert": 6689,
      "ĠFreedom": 6690,
      "ĠFederation": 6691,
      "Ġintention": 6692,
      "ĠUnivers": 6693,
      "Ġtimely": 6694,
      "Ġsubmitted": 6695,
      "Ġevac": 6696,
      "Ġengage": 6697,
      "Ġthanks": 6698,
      "Ġwonder": 6699,
      "ĠPharaoh": 6700,
      "45": 6701,
      "Ã¨": 6702,
      "Ġsevent": 6703,
      "Ġalloc": 6704,
      "ruits": 6705,
      "Ġresidents": 6706,
      "Ġoppressed": 6707,
      "Ġsuburb": 6708,
      "Ġsomeone": 6709,
      "Ġsignificantly": 6710,
      "Ġassociation": 6711,
      "Ġawarded": 6712,
      "ĠSanj": 6713,
      "90": 6714,
      "DS": 6715,
      "power": 6716,
      "Ġbott": 6717,
      "ĠTrip": 6718,
      "Ġretain": 6719,
      "olars": 6720,
      "Ġsurely": 6721,
      "ĠOthers": 6722,
      "Ġapprised": 6723,
      "ĠAbbas": 6724,
      "Ġuniversities": 6725,
      "Ġcustom": 6726,
      "ĠShiite": 6727,
      "serv": 6728,
      "Ġtact": 6729,
      "itably": 6730,
      "ĠGM": 6731,
      "ĠEase": 6732,
      "umn": 6733,
      "Ġclar": 6734,
      "aceutical": 6735,
      "venant": 6736,
      "armaceutical": 6737,
      "Ġsmart": 6738,
      "Ġaddresses": 6739,
      "Ġpledge": 6740,
      "free": 6741,
      "mosp": 6742,
      "Ġdim": 6743,
      "Ġenabl": 6744,
      "archy": 6745,
      "Ġtraditions": 6746,
      "ĠAdv": 6747,
      "ĠBhag": 6748,
      "Ġlaunching": 6749,
      "Ġmounting": 6750,
      "vation": 6751,
      "Ġtable": 6752,
      "itz": 6753,
      "ĠVal": 6754,
      "Ġroom": 6755,
      "Ġentering": 6756,
      "azine": 6757,
      "ĠIslands": 6758,
      "Ġplantation": 6759,
      "Ġconclusion": 6760,
      "feld": 6761,
      "aras": 6762,
      "Ġprove": 6763,
      "herry": 6764,
      "Ġcovenant": 6765,
      "Ġattitude": 6766,
      "Ġincreases": 6767,
      "Ġdistance": 6768,
      "Ġwherein": 6769,
      "Ġprint": 6770,
      "Ġmarried": 6771,
      "ĠJean": 6772,
      "ĠVijayak": 6773,
      "Ġblessed": 6774,
      "Ġnarrow": 6775,
      "ael": 6776,
      "atin": 6777,
      "Ġgain": 6778,
      "Ġstruct": 6779,
      "ĠDh": 6780,
      "Ġsup": 6781,
      "emen": 6782,
      "inda": 6783,
      "aik": 6784,
      "Ġyourself": 6785,
      "Ġ400": 6786,
      "Ġremote": 6787,
      "Ġvisits": 6788,
      "ikh": 6789,
      "ĠLeg": 6790,
      "Ġpeaceful": 6791,
      "Ġmighty": 6792,
      "Ġofferings": 6793,
      "ĠSimbu": 6794,
      "Ġlifted": 6795,
      "ĠStudents": 6796,
      "ĠBhutan": 6797,
      "Ġadmitted": 6798,
      "Ġcurrency": 6799,
      "mail": 6800,
      "ĠSathy": 6801,
      "Ġgap": 6802,
      "iring": 6803,
      "Ġstreet": 6804,
      "Ġnotified": 6805,
      "ĠOcean": 6806,
      "ordinary": 6807,
      "Ġremov": 6808,
      "Ġcorrect": 6809,
      "ĠManipur": 6810,
      "Ġstarting": 6811,
      "Ġcollection": 6812,
      "Ġreceiving": 6813,
      "Ġwrite": 6814,
      "ĠSpanish": 6815,
      "Ġtrees": 6816,
      "Ġdifficulties": 6817,
      "Ġappears": 6818,
      "ĠMinority": 6819,
      "Ġenemy": 6820,
      "ĠKalyan": 6821,
      "Ġchauvinist": 6822,
      "Ġrevenue": 6823,
      "Ġapparatus": 6824,
      "'re": 6825,
      "orial": 6826,
      "ading": 6827,
      "Ġintended": 6828,
      "Ġclot": 6829,
      "Ġproved": 6830,
      "Ġquant": 6831,
      "ĠDeep": 6832,
      "uresh": 6833,
      "Ġhopes": 6834,
      "Ġseriously": 6835,
      "ĠOfficers": 6836,
      "Ġdamage": 6837,
      "Ġdiscipl": 6838,
      "ĠIndonesia": 6839,
      "Ġpropaganda": 6840,
      "Ġtsunami": 6841,
      "ota": 6842,
      "Ġexempt": 6843,
      "Ġdiscri": 6844,
      "Ġgenerate": 6845,
      "ĠTechn": 6846,
      "Ġretire": 6847,
      "Ġsurpris": 6848,
      "Ġfraud": 6849,
      "Ġprincipal": 6850,
      "Ġregistration": 6851,
      "Ġfeatures": 6852,
      "ĠProtection": 6853,
      "Ġgratitude": 6854,
      "ping": 6855,
      "inating": 6856,
      "icted": 6857,
      "ĠAk": 6858,
      "ĠAction": 6859,
      "raid": 6860,
      "opol": 6861,
      "Ġpeas": 6862,
      "Ġrum": 6863,
      "Ġcommemor": 6864,
      "Ġ32": 6865,
      "Ġinvitation": 6866,
      "hips": 6867,
      "Ġtrained": 6868,
      "ĠTeh": 6869,
      "Ġmainly": 6870,
      "Ġviolent": 6871,
      "Ġheavily": 6872,
      "ĠOfficer": 6873,
      "Ġcategories": 6874,
      "EC": 6875,
      "heries": 6876,
      "Ġox": 6877,
      "ĠWell": 6878,
      "dule": 6879,
      "Ġremove": 6880,
      "Ġbases": 6881,
      "ĠPeoples": 6882,
      "Ġlinks": 6883,
      "Ġenvironmental": 6884,
      "ography": 6885,
      "ĠImplement": 6886,
      "ĠCDU": 6887,
      "Ġsamples": 6888,
      "pass": 6889,
      "Ġsack": 6890,
      "Ġfan": 6891,
      "ĠSard": 6892,
      "sters": 6893,
      "Ġstret": 6894,
      "ĠBah": 6895,
      "ĠWick": 6896,
      "ĠMinistries": 6897,
      "unch": 6898,
      "chedule": 6899,
      "Ġspect": 6900,
      "angers": 6901,
      "ĠIntelligence": 6902,
      "Ġdetained": 6903,
      "ĠAmbed": 6904,
      "Ġminor": 6905,
      "ĠBanks": 6906,
      "Ġregarded": 6907,
      "Ġappealed": 6908,
      "Ġidentify": 6909,
      "Ġtruly": 6910,
      "ĠTerrit": 6911,
      "ĠPhilist": 6912,
      "ĠExpress": 6913,
      "Ġreferred": 6914,
      "Ġinhabitants": 6915,
      "yang": 6916,
      "Ġpal": 6917,
      "ĠApart": 6918,
      "Ġdeployment": 6919,
      "Ġatmosp": 6920,
      "Ġsoft": 6921,
      "Ġprofound": 6922,
      "Ġmarriage": 6923,
      "Ġbreaking": 6924,
      "Ġeasily": 6925,
      "ylum": 6926,
      "ĠChemicals": 6927,
      "umsfeld": 6928,
      "ĠAIIMS": 6929,
      "Do": 6930,
      "eria": 6931,
      "Ġwing": 6932,
      "Ġcry": 6933,
      "ĠTar": 6934,
      "ĠSuresh": 6935,
      "olute": 6936,
      "agog": 6937,
      "Ġexped": 6938,
      "Ġnumerous": 6939,
      "Ġstrateg": 6940,
      "Ġformation": 6941,
      "Ġinteracted": 6942,
      "being": 6943,
      "Ġexpanded": 6944,
      "jun": 6945,
      "eries": 6946,
      "Ġrecession": 6947,
      "rai": 6948,
      "illa": 6949,
      "Ġproclaim": 6950,
      "ĠWhere": 6951,
      "emy": 6952,
      "Ġleaving": 6953,
      "Ġserving": 6954,
      "ĠMalays": 6955,
      "Ġsymp": 6956,
      "Ġteams": 6957,
      "Ġisolated": 6958,
      "Ġdisciples": 6959,
      "Ġbusy": 6960,
      "Ġafraid": 6961,
      "Ġvulnerable": 6962,
      "RICS": 6963,
      "DF": 6964,
      "lines": 6965,
      "load": 6966,
      "rÃ¶": 6967,
      "Ġinform": 6968,
      "ĠSign": 6969,
      "ĠCM": 6970,
      "ĠRumsfeld": 6971,
      "ĠSharma": 6972,
      "Ġclasses": 6973,
      "akhand": 6974,
      "Ġachievement": 6975,
      "Ġcompetitive": 6976,
      "hua": 6977,
      "Ġcondemned": 6978,
      "BT": 6979,
      "lined": 6980,
      "Ġsort": 6981,
      "Ġcul": 6982,
      "Ġmart": 6983,
      "Ġmarch": 6984,
      "Ġstra": 6985,
      "ĠNit": 6986,
      "ĠDam": 6987,
      "ĠThree": 6988,
      "Ġraising": 6989,
      "Ġsets": 6990,
      "Ġreporters": 6991,
      "Ġbelief": 6992,
      "Ġpursue": 6993,
      "Ġtribe": 6994,
      "Ġbrings": 6995,
      "ĠCEO": 6996,
      "Ġrescue": 6997,
      "Ġcore": 6998,
      "aria": 6999,
      "Ġfine": 7000,
      "ĠTill": 7001,
      "utch": 7002,
      "elve": 7003,
      "Ġconvention": 7004,
      "Ġcommod": 7005,
      "Ġspo": 7006,
      "ilee": 7007,
      "Ġsheet": 7008,
      "ĠSrik": 7009,
      "Ġcolle": 7010,
      "ĠInternet": 7011,
      "Ġinstall": 7012,
      "Ġgrains": 7013,
      "shtml": 7014,
      "Ġmaterials": 7015,
      "ĠHimachal": 7016,
      "Ġscenario": 7017,
      "wal": 7018,
      "ĠFDI": 7019,
      "Ġsole": 7020,
      "ĠStrategic": 7021,
      "Ġnewly": 7022,
      "ĠAngel": 7023,
      "Ġshowing": 7024,
      "ĠRaman": 7025,
      "Ġlessons": 7026,
      "ĠEngine": 7027,
      "Ġzones": 7028,
      "Ġdeparted": 7029,
      "Ġcategory": 7030,
      "ĠRenew": 7031,
      "Ġmassacre": 7032,
      "NER": 7033,
      "OR": 7034,
      "map": 7035,
      "Ġast": 7036,
      "ĠSenior": 7037,
      "ĠLib": 7038,
      "osystem": 7039,
      "ĠUSA": 7040,
      "Ġ42": 7041,
      "Ġdeclaration": 7042,
      "Ġrevised": 7043,
      "ferencing": 7044,
      "ĠResp": 7045,
      "lessly": 7046,
      "Ġ1998": 7047,
      "Ġintroduction": 7048,
      "ĠKorean": 7049,
      "ĠEntrepreneurs": 7050,
      "Ġsubsequent": 7051,
      "ĠSardar": 7052,
      "\".": 7053,
      "haps": 7054,
      "Ġlatter": 7055,
      "ĠPutin": 7056,
      "ĠCond": 7057,
      "Ġstress": 7058,
      "ĠBand": 7059,
      "aine": 7060,
      "Ġsuppress": 7061,
      "manirbhar": 7062,
      "Ġgenerated": 7063,
      "Ġmaintenance": 7064,
      "Ġbuildings": 7065,
      "Ġlocations": 7066,
      "ĠUttarakhand": 7067,
      "Ġexamination": 7068,
      "Ġnaval": 7069,
      "Ġtheatre": 7070,
      "ĠBackground": 7071,
      "Ġgods": 7072,
      "Ġdear": 7073,
      "Ġallied": 7074,
      "ĠIraqis": 7075,
      "Ġrecall": 7076,
      "Ġflights": 7077,
      "ĠAdvis": 7078,
      "ĠRamesh": 7079,
      "ĠPrinci": 7080,
      "Ġpurposes": 7081,
      "Ġsolidarity": 7082,
      "PC": 7083,
      "bar": 7084,
      "math": 7085,
      "run": 7086,
      "Ġspl": 7087,
      "Ġsound": 7088,
      "Ġhub": 7089,
      "Ġder": 7090,
      "ĠBRICS": 7091,
      "ander": 7092,
      "Ġgreatly": 7093,
      "Ġports": 7094,
      "ĠGoa": 7095,
      "Ġprivatisation": 7096,
      "Ġentitled": 7097,
      "uvenation": 7098,
      "ĠAmbedkar": 7099,
      "Ġwise": 7100,
      "Ġrendering": 7101,
      "ĠMG": 7102,
      "aded": 7103,
      "Ġasylum": 7104,
      "ĠDon": 7105,
      "Ġchance": 7106,
      "Ġran": 7107,
      "luding": 7108,
      "Ġhumanitarian": 7109,
      "ĠMedia": 7110,
      "Ġmaritime": 7111,
      "icipal": 7112,
      "ĠRichard": 7113,
      "Ġtestimony": 7114,
      "rers": 7115,
      "Ġconvers": 7116,
      "Ġcomed": 7117,
      "Ġworkforce": 7118,
      "Ġunited": 7119,
      "ĠReh": 7120,
      "Ġfactor": 7121,
      "Ġunemployed": 7122,
      "Ġranks": 7123,
      "Ġships": 7124,
      "Ġmagazine": 7125,
      "Ġelder": 7126,
      "Ġatmosphere": 7127,
      "aan": 7128,
      "ks": 7129,
      "Ġtear": 7130,
      "Ġfaction": 7131,
      "Ġrice": 7132,
      "ilitation": 7133,
      "Ġdifference": 7134,
      "Ġdeclare": 7135,
      "ĠAgricultural": 7136,
      "racted": 7137,
      "ĠAbraham": 7138,
      "Ġinstalled": 7139,
      "ĠBhavan": 7140,
      "Ġembra": 7141,
      "Ġeasier": 7142,
      "backed": 7143,
      "Ġtyp": 7144,
      "Ġuniversal": 7145,
      "Ġinstrument": 7146,
      "Ġiniquity": 7147,
      "Ġcad": 7148,
      "Ġpure": 7149,
      "Ġtot": 7150,
      "ĠMember": 7151,
      "ĠPark": 7152,
      "Ġalt": 7153,
      "ĠLaksh": 7154,
      "iforn": 7155,
      "aped": 7156,
      "Ġ2013": 7157,
      "ĠSoci": 7158,
      "Ġedition": 7159,
      "Ġdepri": 7160,
      "ĠAmb": 7161,
      "Ġobjectives": 7162,
      "Ġdivisions": 7163,
      "Ġharvest": 7164,
      "body": 7165,
      "rass": 7166,
      "ws": 7167,
      "zil": 7168,
      "itors": 7169,
      "Ġinput": 7170,
      "Ġdrop": 7171,
      "ĠTest": 7172,
      "ĠSection": 7173,
      "idhi": 7174,
      "ĠKe": 7175,
      "Ġupgrad": 7176,
      "efore": 7177,
      "ibly": 7178,
      "Ġpreced": 7179,
      "Ġprophet": 7180,
      "Ġprinces": 7181,
      "Ġconducting": 7182,
      "ĠPeace": 7183,
      "Ġconsumption": 7184,
      "Ġmercy": 7185,
      "Ġexploitation": 7186,
      "Ġconsultation": 7187,
      "Ġharmony": 7188,
      "democratic": 7189,
      "ĠTurkish": 7190,
      "Ġphilos": 7191,
      "Ġoption": 7192,
      "Ġlived": 7193,
      "Ġstrict": 7194,
      "iff": 7195,
      "Ġintent": 7196,
      "ĠChancellor": 7197,
      "anges": 7198,
      "Ġ55": 7199,
      "Ġsigns": 7200,
      "Ġimports": 7201,
      "Ġcourts": 7202,
      "Ġdrivers": 7203,
      "Ġtemporary": 7204,
      "Ġunderstood": 7205,
      "ĠDistribution": 7206,
      "Ġaccommod": 7207,
      "Ġinstitutional": 7208,
      "ĠCaliforn": 7209,
      "ĠLevites": 7210,
      "rea": 7211,
      "Ġallocation": 7212,
      "ocol": 7213,
      "Ġrhet": 7214,
      "ĠCenter": 7215,
      "Ġuseful": 7216,
      "ĠInstitutions": 7217,
      "Ġvirtual": 7218,
      "Ġfishermen": 7219,
      "Ġcertific": 7220,
      "Ġundersc": 7221,
      "An": 7222,
      "inery": 7223,
      "idate": 7224,
      "ĠPay": 7225,
      "Ġstamp": 7226,
      "ĠGram": 7227,
      "Ġvig": 7228,
      "Ġsaved": 7229,
      "Ġupd": 7230,
      "Ġending": 7231,
      "Ġmarks": 7232,
      "Ġpreparation": 7233,
      "Ġ1991": 7234,
      "onseka": 7235,
      "ĠJeevan": 7236,
      "Ġconstituted": 7237,
      "ĠGreece": 7238,
      "Ġvessels": 7239,
      "Ġinquiry": 7240,
      "ĠBroadcasting": 7241,
      "Ġmultiple": 7242,
      "Ġaccompanied": 7243,
      "ĠNitin": 7244,
      "SP": 7245,
      "Ġbid": 7246,
      "asse": 7247,
      "Ġlose": 7248,
      "ams": 7249,
      "cip": 7250,
      "Ġnotice": 7251,
      "Ġprovoked": 7252,
      "Ġquarant": 7253,
      "ĠPMO": 7254,
      "Ġputting": 7255,
      "Ġattempting": 7256,
      "ĠSmall": 7257,
      "Ġsuffer": 7258,
      "Ġdedication": 7259,
      "Ġdictators": 7260,
      "ĠFlor": 7261,
      "night": 7262,
      "Ġforget": 7263,
      "ĠPan": 7264,
      "ĠBureau": 7265,
      "pper": 7266,
      "ĠFonseka": 7267,
      "ĠLab": 7268,
      "Ġexception": 7269,
      "aja": 7270,
      "Ġcapabilities": 7271,
      "Ġaftermath": 7272,
      "Ġremind": 7273,
      "Ġscope": 7274,
      "Ġcourses": 7275,
      "useum": 7276,
      "Ġimplications": 7277,
      "Ġexistence": 7278,
      "ĠPrasad": 7279,
      "ĠFestival": 7280,
      "ked": 7281,
      "no": 7282,
      "under": 7283,
      "onic": 7284,
      "ĠSelf": 7285,
      "ĠCur": 7286,
      "ĠBan": 7287,
      "Ġally": 7288,
      "Ġsequ": 7289,
      "Ġadding": 7290,
      "Ġsubord": 7291,
      "ocks": 7292,
      "ĠRej": 7293,
      "Ġfee": 7294,
      "Ġdeputy": 7295,
      "Ġtargeted": 7296,
      "Ġlisten": 7297,
      "ĠPortug": 7298,
      "Ġreligion": 7299,
      "Ġsubsidy": 7300,
      "Ġindigenous": 7301,
      "Ġoverwhelming": 7302,
      "Ġsuicide": 7303,
      "ĠCalifornia": 7304,
      "ao": 7305,
      "government": 7306,
      "post": 7307,
      "isans": 7308,
      "ancy": 7309,
      "Ġdu": 7310,
      "rav": 7311,
      "ĠBala": 7312,
      "owered": 7313,
      "ĠEff": 7314,
      "ĠJait": 7315,
      "udh": 7316,
      "Ġcompos": 7317,
      "arked": 7318,
      "Ġactually": 7319,
      "Ġgoals": 7320,
      "Ġgrown": 7321,
      "Ġmultitude": 7322,
      "Ġdispute": 7323,
      "ĠPacific": 7324,
      "Ġpollution": 7325,
      "ĠBuddha": 7326,
      "Ġfrequ": 7327,
      "Ġinheritance": 7328,
      "Ġsch": 7329,
      "itt": 7330,
      "ĠRD": 7331,
      "Ġshif": 7332,
      "ĠAndaman": 7333,
      "ollah": 7334,
      "Ġestate": 7335,
      "Ġcorner": 7336,
      "Ġgenerally": 7337,
      "Ġprophe": 7338,
      "Ġstrongly": 7339,
      "Ġ250": 7340,
      "Ġinauguration": 7341,
      "Ġfalling": 7342,
      "Ġencouraging": 7343,
      "Ġcontracts": 7344,
      "Ġdetermination": 7345,
      "Ġisolation": 7346,
      "ĠSerb": 7347,
      "Ġconveyed": 7348,
      "Ġecosystem": 7349,
      "ĠKurdish": 7350,
      "ĠFlorida": 7351,
      "47": 7352,
      "AL": 7353,
      "IN": 7354,
      "Un": 7355,
      "Us": 7356,
      "rity": 7357,
      "Ġfate": 7358,
      "Ġdiagn": 7359,
      "ĠTem": 7360,
      "ĠAV": 7361,
      "ĠBach": 7362,
      "Ġatroc": 7363,
      "odi": 7364,
      "alli": 7365,
      "ĠKann": 7366,
      "Ġincidents": 7367,
      "Ġresource": 7368,
      "Ġregimes": 7369,
      "Ġrivals": 7370,
      "Ġstudies": 7371,
      "Ġwriting": 7372,
      "liber": 7373,
      "Ġfallen": 7374,
      "Ġsummer": 7375,
      "Ġhonor": 7376,
      "Ġgranted": 7377,
      "ĠVijayakanth": 7378,
      "03": 7379,
      "St": 7380,
      "Ġiron": 7381,
      "idity": 7382,
      "Ġlands": 7383,
      "ĠPur": 7384,
      "Ġgross": 7385,
      "eters": 7386,
      "ĠNar": 7387,
      "ĠDhar": 7388,
      "essions": 7389,
      "Ġsex": 7390,
      "ĠKel": 7391,
      "Ġenrich": 7392,
      "ĠVan": 7393,
      "Ġuns": 7394,
      "Ġunle": 7395,
      "elling": 7396,
      "Ġactively": 7397,
      "Ġnationalism": 7398,
      "Ġformally": 7399,
      "Ġsales": 7400,
      "Ġdepartments": 7401,
      "Ġbureaucrat": 7402,
      "Ġroute": 7403,
      "Ġflee": 7404,
      "ĠSudan": 7405,
      "rÃ¶der": 7406,
      "ĠRenewable": 7407,
      "Sh": 7408,
      "Ġsick": 7409,
      "alle": 7410,
      "Ġeve": 7411,
      "ortheast": 7412,
      "ĠOil": 7413,
      "Ġenvis": 7414,
      "Ġpromoted": 7415,
      "rafts": 7416,
      "ĠCompany": 7417,
      "Ġpursued": 7418,
      "Ġirrigation": 7419,
      "irmala": 7420,
      "Ġchannels": 7421,
      "ĠPromotion": 7422,
      "ĠTehran": 7423,
      "ingu": 7424,
      "Ġdy": 7425,
      "ĠSustainable": 7426,
      "ivals": 7427,
      "ĠKashi": 7428,
      "ifications": 7429,
      "Ġequity": 7430,
      "Ġcutting": 7431,
      "Ġspiritual": 7432,
      "adhaar": 7433,
      "Ġrighteousness": 7434,
      "ĠProcessing": 7435,
      "27": 7436,
      "Ġtap": 7437,
      "Ġmat": 7438,
      "Ġmurd": 7439,
      "ĠRules": 7440,
      "ĠJy": 7441,
      "vency": 7442,
      "Ġ2010": 7443,
      "Ġdirecting": 7444,
      "Ġcontinuous": 7445,
      "Ġreturns": 7446,
      "ĠMegh": 7447,
      "Ġ01": 7448,
      "ĠSchrÃ¶der": 7449,
      "Ġreflected": 7450,
      "Ġpassenger": 7451,
      "ĠAnnual": 7452,
      "Ġglobe": 7453,
      "Ġrobust": 7454,
      "ĠTripura": 7455,
      "Ġly": 7456,
      "Ġlad": 7457,
      "ĠNever": 7458,
      "Ġsending": 7459,
      "Ġapparent": 7460,
      "teen": 7461,
      "ificial": 7462,
      "Ġoblig": 7463,
      "Ġfactories": 7464,
      "ĠPhase": 7465,
      "Ġ1970": 7466,
      "ĠMuslims": 7467,
      "Ġremarkable": 7468,
      "Ġmandate": 7469,
      "ĠJoshua": 7470,
      "ĠSupport": 7471,
      "Ġsavings": 7472,
      "MC": 7473,
      "erest": 7474,
      "Ġthirty": 7475,
      "ĠMadu": 7476,
      "Ġyes": 7477,
      "Ġassembly": 7478,
      "ĠRashtra": 7479,
      "ĠNorthern": 7480,
      "Ġagents": 7481,
      "ĠShram": 7482,
      "Ġkid": 7483,
      "izes": 7484,
      "Ġ193": 7485,
      "Ġpreserv": 7486,
      "Ġsufficient": 7487,
      "ĠMaur": 7488,
      "Ġconsumers": 7489,
      "Ġtechnological": 7490,
      "Ġpenal": 7491,
      "Ġpoorest": 7492,
      "Ġenabling": 7493,
      "ĠTechnical": 7494,
      "ĠImplementation": 7495,
      "04": 7496,
      "Americ": 7497,
      "iety": 7498,
      "oram": 7499,
      "Ġborrow": 7500,
      "ĠIl": 7501,
      "otic": 7502,
      "ĠExt": 7503,
      "ĠKir": 7504,
      "Ġenforce": 7505,
      "ĠSecretaries": 7506,
      "Ġcolleges": 7507,
      "Ġjoining": 7508,
      "Ġresolved": 7509,
      "Ġabsolute": 7510,
      "Ġextraordinary": 7511,
      "ĠBenj": 7512,
      "ĠIntegrated": 7513,
      "Amendment": 7514,
      "orpor": 7515,
      "Ġfaster": 7516,
      "Ġble": 7517,
      "ĠSad": 7518,
      "ĠNirmala": 7519,
      "uded": 7520,
      "ĠKi": 7521,
      "pled": 7522,
      "Ġapply": 7523,
      "Ġworldwide": 7524,
      "Ġrac": 7525,
      "Ġjustified": 7526,
      "inking": 7527,
      "Ġconstant": 7528,
      "ĠSabka": 7529,
      "Ġsuspect": 7530,
      "ulses": 7531,
      "ĠISRO": 7532,
      "ĠBrazil": 7533,
      "Ġseparatist": 7534,
      "Ġinnoc": 7535,
      "99": 7536,
      "DR": 7537,
      "ET": 7538,
      "mal": 7539,
      "itect": 7540,
      "Ġpensions": 7541,
      "Ġtoll": 7542,
      "Ġrefe": 7543,
      "ĠPension": 7544,
      "ĠNay": 7545,
      "ĠJav": 7546,
      "Ġtherein": 7547,
      "obar": 7548,
      "Ġrid": 7549,
      "Ġtransactions": 7550,
      "Ġguest": 7551,
      "ĠPoland": 7552,
      "controlled": 7553,
      "Ġassistant": 7554,
      "Ġwaiting": 7555,
      "Ġglobally": 7556,
      "Ġwedd": 7557,
      "Ġdiversity": 7558,
      "ĠSA": 7559,
      "Ġep": 7560,
      "opal": 7561,
      "ĠGur": 7562,
      "ĠDet": 7563,
      "ĠEk": 7564,
      "Ġseat": 7565,
      "place": 7566,
      "Ġrat": 7567,
      "Ġprecise": 7568,
      "Ġevol": 7569,
      "Ġcrew": 7570,
      "Ġresulting": 7571,
      "Ġconsideration": 7572,
      "Ġplatforms": 7573,
      "Ġrisen": 7574,
      "CT": 7575,
      "Ġbeds": 7576,
      "rose": 7577,
      "ĠTreat": 7578,
      "ĠSou": 7579,
      "ĠAadhaar": 7580,
      "Ġbeat": 7581,
      "rian": 7582,
      "ĠPo": 7583,
      "Ġgri": 7584,
      "ĠFrank": 7585,
      "berg": 7586,
      "Ġoverth": 7587,
      "Ġtwelve": 7588,
      "Ġletters": 7589,
      "Ġconstantly": 7590,
      "Ġdomin": 7591,
      "Ġfriendship": 7592,
      "Ġsusp": 7593,
      "ĠSunni": 7594,
      "Ġfifty": 7595,
      "ĠMPs": 7596,
      "ĠDivision": 7597,
      "usterity": 7598,
      "ĠPhilistines": 7599,
      "mo": 7600,
      "Ġsem": 7601,
      "Ġdub": 7602,
      "ĠBefore": 7603,
      "Ġcoup": 7604,
      "Ġrational": 7605,
      "Ġcontrast": 7606,
      "Ġassert": 7607,
      "Ġrememb": 7608,
      "Ġblind": 7609,
      "Ġflow": 7610,
      "Ġopposing": 7611,
      "Ġhardly": 7612,
      "hamed": 7613,
      "Ġgrounds": 7614,
      "ÂĢÂ¦": 7615,
      "Ġtoilets": 7616,
      "Ġoverseas": 7617,
      "ĠJaitley": 7618,
      "EF": 7619,
      "bal": 7620,
      "met": 7621,
      "ĠMiz": 7622,
      "rak": 7623,
      "ĠPiy": 7624,
      "ĠBBC": 7625,
      "ĠGames": 7626,
      "Ġcommend": 7627,
      "ĠEmer": 7628,
      "Ġjail": 7629,
      "Ġoutstanding": 7630,
      "Ġourselves": 7631,
      "ibet": 7632,
      "Ġadministrative": 7633,
      "Ġtreated": 7634,
      "Ġconsumer": 7635,
      "ĠOrganization": 7636,
      "Ġreflects": 7637,
      "Ġfifth": 7638,
      "ĠINS": 7639,
      "ĠDhanush": 7640,
      "Ġmigrant": 7641,
      "ĠLocal": 7642,
      "Ġtaxpayers": 7643,
      "TO": 7644,
      "jan": 7645,
      "Ġtick": 7646,
      "Ġausterity": 7647,
      "remes": 7648,
      "Ġdil": 7649,
      "ĠMat": 7650,
      "ĠRoyal": 7651,
      "ĠNG": 7652,
      "nty": 7653,
      "Ġunrest": 7654,
      "Ġcompar": 7655,
      "Ġindication": 7656,
      "Ġcenter": 7657,
      "Ġlaunches": 7658,
      "Ġcongress": 7659,
      "Ġdebut": 7660,
      "Ġchemical": 7661,
      "Ġbombs": 7662,
      "Ġrecorded": 7663,
      "Ġfeature": 7664,
      "Ġdwelled": 7665,
      "Ġmagn": 7666,
      "Ġaudio": 7667,
      "Ġgirls": 7668,
      "Ġbankruptcy": 7669,
      "bath": 7670,
      "heb": 7671,
      "Ġaus": 7672,
      "Ġreference": 7673,
      "ĠPas": 7674,
      "ĠCredit": 7675,
      "aks": 7676,
      "ifies": 7677,
      "antra": 7678,
      "ĠKos": 7679,
      "Ġwarn": 7680,
      "Ġrelating": 7681,
      "Ġelectronic": 7682,
      "Ġslog": 7683,
      "Ġagreements": 7684,
      "Ġwestern": 7685,
      "ĠLadakh": 7686,
      "Ġcontradictions": 7687,
      "picious": 7688,
      "ĠRashtrapati": 7689,
      "Rs": 7690,
      "ox": 7691,
      "Ġarose": 7692,
      "Ġcattle": 7693,
      "ĠBS": 7694,
      "ĠNPA": 7695,
      "ĠKad": 7696,
      "Ġovert": 7697,
      "Ġnovel": 7698,
      "Ġorganic": 7699,
      "Ġexplain": 7700,
      "ĠReserve": 7701,
      "Ġestimates": 7702,
      "Ġfulfilled": 7703,
      "Ġdrinking": 7704,
      "ĠSteel": 7705,
      "ĠWhether": 7706,
      "'ve": 7707,
      "85": 7708,
      "Ġaug": 7709,
      "Ġsport": 7710,
      "inghe": 7711,
      "cel": 7712,
      "ĠBest": 7713,
      "ĠVand": 7714,
      "orms": 7715,
      "ashion": 7716,
      "Ġmyself": 7717,
      "Ġsheep": 7718,
      "ĠAtt": 7719,
      "Ġfacto": 7720,
      "Ġpreparations": 7721,
      "ĠDefense": 7722,
      "ĠSafety": 7723,
      "Ġlooks": 7724,
      "Ġappeals": 7725,
      "cribed": 7726,
      "ĠGeorgian": 7727,
      "Sivaji": 7728,
      "qvi": 7729,
      "Ġfit": 7730,
      "Ġbesides": 7731,
      "Ġduties": 7732,
      "olf": 7733,
      "Ġstance": 7734,
      "Ġanim": 7735,
      "ĠKoch": 7736,
      "Ġcoaches": 7737,
      "ĠCommunity": 7738,
      "Ġtrading": 7739,
      "arshan": 7740,
      "ĠExternal": 7741,
      "Ġstronger": 7742,
      "Ġhearts": 7743,
      "Ġunclean": 7744,
      "Ġrenewed": 7745,
      "ĠMerkel": 7746,
      "Ġlegitim": 7747,
      "ĠSrikanth": 7748,
      "Ġrhetoric": 7749,
      "Ġreferend": 7750,
      "uated": 7751,
      "Ġwine": 7752,
      "Ġpul": 7753,
      "Ġfill": 7754,
      "urved": 7755,
      "ĠRober": 7756,
      "ĠLPG": 7757,
      "soon": 7758,
      "Ġabuse": 7759,
      "ailand": 7760,
      "Ġspend": 7761,
      "ikk": 7762,
      "Ġpromise": 7763,
      "Ġmetro": 7764,
      "ĠSuper": 7765,
      "rafat": 7766,
      "Ġadopt": 7767,
      "Ġnavy": 7768,
      "ĠKrishna": 7769,
      "ĠBuddhist": 7770,
      "ĠRejuvenation": 7771,
      "dy": 7772,
      "asury": 7773,
      "ĠPud": 7774,
      "ĠClean": 7775,
      "olas": 7776,
      "utive": 7777,
      "ĠLSSP": 7778,
      "Ġsuitable": 7779,
      "ĠEph": 7780,
      "ĠVar": 7781,
      "Ġabol": 7782,
      "Ġjump": 7783,
      "athon": 7784,
      "Ġspot": 7785,
      "Ġ39": 7786,
      "Ġpercentage": 7787,
      "Ġcontinuation": 7788,
      "Ġdestabil": 7789,
      "Ġdominated": 7790,
      "ourable": 7791,
      "Ġlaying": 7792,
      "Ġreportedly": 7793,
      "Ġmissile": 7794,
      "Ġcoastal": 7795,
      "ĠPhilipp": 7796,
      "Ġmedicine": 7797,
      "Ġprophets": 7798,
      "ĠMadurai": 7799,
      "gri": 7800,
      "hya": 7801,
      "jee": 7802,
      "ĠSet": 7803,
      "ĠIG": 7804,
      "Ġreaff": 7805,
      "ĠAut": 7806,
      "ĠArafat": 7807,
      "change": 7808,
      "ĠRet": 7809,
      "ĠRather": 7810,
      "ĠKong": 7811,
      "social": 7812,
      "Ġcomponent": 7813,
      "ibrant": 7814,
      "Ġexposed": 7815,
      "tees": 7816,
      "Ġrelatively": 7817,
      "Ġ49": 7818,
      "Ġsmote": 7819,
      "Ġelites": 7820,
      "Ġfalls": 7821,
      "ĠDoing": 7822,
      "ĠNeither": 7823,
      "Ġblessings": 7824,
      "Ġexpectations": 7825,
      "Ġoriginal": 7826,
      "Ġgreeted": 7827,
      "Ġobtained": 7828,
      "ĠBenjamin": 7829,
      "remesinghe": 7830,
      "44": 7831,
      "IF": 7832,
      "Ġ...": 7833,
      "Ġwood": 7834,
      "ĠTibet": 7835,
      "ĠAP": 7836,
      "ĠCode": 7837,
      "Ġdece": 7838,
      "ĠDias": 7839,
      "ĠUj": 7840,
      "onsored": 7841,
      "ĠRecent": 7842,
      "ĠRaja": 7843,
      "Ġcontinuously": 7844,
      "Ġrub": 7845,
      "Ġpresidency": 7846,
      "Ġinaugural": 7847,
      "Ġdriving": 7848,
      "Ġconsidering": 7849,
      "Ġtelephone": 7850,
      "Ġbooks": 7851,
      "Ġorient": 7852,
      "Ġmilest": 7853,
      "Ġpetition": 7854,
      "Ġdefinitely": 7855,
      "HU": 7856,
      "ih": 7857,
      "kind": 7858,
      "wala": 7859,
      "Ġaw": 7860,
      "Ġfruits": 7861,
      "ĠRadha": 7862,
      "empl": 7863,
      "iful": 7864,
      "Ġchair": 7865,
      "Ġundermin": 7866,
      "pted": 7867,
      "Ġdisast": 7868,
      "Ġprevention": 7869,
      "angam": 7870,
      "yaan": 7871,
      "Ġinsist": 7872,
      "ĠJeeva": 7873,
      "Ġfulfil": 7874,
      "Ġinclusion": 7875,
      "Ġteaching": 7876,
      "ĠNaqvi": 7877,
      "Ġsurrounding": 7878,
      "Ġfamous": 7879,
      "sych": 7880,
      "Ġacknowledged": 7881,
      "ĠKosov": 7882,
      "NT": 7883,
      "No": 7884,
      "Ġbed": 7885,
      "ĠAp": 7886,
      "ĠMother": 7887,
      "Ġproof": 7888,
      "Ġpermission": 7889,
      "asek": 7890,
      "ĠIsland": 7891,
      "Ġdesp": 7892,
      "Ġthreatening": 7893,
      "Ġslow": 7894,
      "ridor": 7895,
      "Ġdivided": 7896,
      "marily": 7897,
      "Ġscreened": 7898,
      "Ġdismant": 7899,
      "www": 7900,
      "Ġultimately": 7901,
      "Ġkilometres": 7902,
      "Ġinevitably": 7903,
      "ĠAhmedabad": 7904,
      "Ġdrew": 7905,
      "ĠCr": 7906,
      "Ġstream": 7907,
      "ignty": 7908,
      "Ġaside": 7909,
      "ĠRo": 7910,
      "ĠRab": 7911,
      "Ġweather": 7912,
      "unate": 7913,
      "Ġcouple": 7914,
      "ĠChair": 7915,
      "Ġtalking": 7916,
      "Ġspeaks": 7917,
      "ĠPSG": 7918,
      "ĠConserv": 7919,
      "habilitation": 7920,
      "Ġdangerous": 7921,
      "ĠBhutto": 7922,
      "Ġcompensation": 7923,
      "alore": 7924,
      "inger": 7925,
      "ĠMusic": 7926,
      "ĠPO": 7927,
      "olvency": 7928,
      "ĠRav": 7929,
      "ighter": 7930,
      "ĠShiv": 7931,
      "Ġarbit": 7932,
      "Ġinterp": 7933,
      "ĠWhatever": 7934,
      "Ġobst": 7935,
      "Ġdomination": 7936,
      "Ġsmaller": 7937,
      "Ġdealing": 7938,
      "Ġbombings": 7939,
      "ĠProjects": 7940,
      "ĠPiyush": 7941,
      "gra": 7942,
      "ĠRem": 7943,
      "ĠHom": 7944,
      "ĠThailand": 7945,
      "Ġcompelled": 7946,
      "rible": 7947,
      "Ġ600": 7948,
      "ictory": 7949,
      "Ġsmooth": 7950,
      "Ġsocio": 7951,
      "Ġyoungsters": 7952,
      "Ġhostile": 7953,
      "Ġallowing": 7954,
      "Ġemphasised": 7955,
      "ĠAdditional": 7956,
      "Ġcounsel": 7957,
      "Ġengineering": 7958,
      "ĠGreek": 7959,
      "ĠBuilding": 7960,
      "ĠAdministration": 7961,
      "Ġdetainees": 7962,
      "Ġcasualties": 7963,
      "ĠEntrepreneurship": 7964,
      "pher": 7965,
      "rine": 7966,
      "isive": 7967,
      "ingent": 7968,
      "ĠCitiz": 7969,
      "apur": 7970,
      "ĠHezb": 7971,
      "Ġregularly": 7972,
      "ĠAgain": 7973,
      "Ġexplore": 7974,
      "Ġproductive": 7975,
      "ĠMedium": 7976,
      "Ġspreading": 7977,
      "PFA": 7978,
      "Ġelders": 7979,
      "ĠKelly": 7980,
      "IL": 7981,
      "gen": 7982,
      "Ġsake": 7983,
      "Ġfem": 7984,
      "ĠKab": 7985,
      "Ġimpover": 7986,
      "Ġartisans": 7987,
      "Ġheroes": 7988,
      "Ġmethod": 7989,
      "Ġwider": 7990,
      "ĠItalian": 7991,
      "ĠArunachal": 7992,
      "ĠNicobar": 7993,
      "ĠProducers": 7994,
      "Ġallocated": 7995,
      "Ġsplit": 7996,
      ".)": 7997,
      "uan": 7998,
      "Ġcold": 7999,
      "Ġbore": 8000,
      "Ġmist": 8001,
      "ĠCare": 8002,
      "oting": 8003,
      "ĠFY": 8004,
      "ĠFra": 8005,
      "ĠOs": 8006,
      "Ġkeen": 8007,
      "ĠStation": 8008,
      "Ġroots": 8009,
      "ĠMann": 8010,
      "Ġdelight": 8011,
      "Ġsimpl": 8012,
      "ĠSwami": 8013,
      "Ġcomplaints": 8014,
      "ivalent": 8015,
      "Ġsustained": 8016,
      "ĠVikas": 8017,
      "scale": 8018,
      "ĠSathyaraj": 8019,
      "ĠWickremesinghe": 8020,
      "kn": 8021,
      "hem": 8022,
      "ĠAmendment": 8023,
      "Ġnob": 8024,
      "Ġwhite": 8025,
      "ĠFe": 8026,
      "osure": 8027,
      "Ġpending": 8028,
      "agues": 8029,
      "Ġcomponents": 8030,
      "Ġpostp": 8031,
      "Ġmarketing": 8032,
      "Ġfestivals": 8033,
      "ĠElectronics": 8034,
      "Ġsacrifices": 8035,
      "ĠExcellency": 8036,
      "Ġabandoned": 8037,
      "Ġcubits": 8038,
      "07": 8039,
      "Ka": 8040,
      "Ġcum": 8041,
      "alia": 8042,
      "oul": 8043,
      "ĠMuk": 8044,
      "Ġheights": 8045,
      "ĠHall": 8046,
      "ĠHong": 8047,
      "Ġkits": 8048,
      "ĠReview": 8049,
      "Ġoccupied": 8050,
      "Ġcaste": 8051,
      "Ġscreening": 8052,
      "Ġbegat": 8053,
      "Ġtransferred": 8054,
      "ĠTomar": 8055,
      "Ġpurchase": 8056,
      "Ġbonds": 8057,
      "Ġvolunte": 8058,
      "Ġprobably": 8059,
      "Ġcompassion": 8060,
      "Ġsuburbs": 8061,
      "ĠHezbollah": 8062,
      "100": 8063,
      "bs": 8064,
      "elect": 8065,
      "nce": 8066,
      "ux": 8067,
      "iny": 8068,
      "Ġcried": 8069,
      "Ġdivers": 8070,
      "Ġgod": 8071,
      "Ġgains": 8072,
      "Ġworse": 8073,
      "ĠIniti": 8074,
      "ĠAbu": 8075,
      "comes": 8076,
      "Ġhappening": 8077,
      "ĠMahinda": 8078,
      "Ġveget": 8079,
      "Ġmountains": 8080,
      "ĠMemorial": 8081,
      "Ġrebu": 8082,
      "ĠElectric": 8083,
      "Ġlogistics": 8084,
      "ĠOpel": 8085,
      "Ġdiverse": 8086,
      "Ġpillars": 8087,
      "ĠLeaders": 8088,
      "Ġphilosoph": 8089,
      "HO": 8090,
      "SM": 8091,
      "gi": 8092,
      "yr": 8093,
      "Ġbin": 8094,
      "stream": 8095,
      "ĠHan": 8096,
      "ĠFis": 8097,
      "andal": 8098,
      "Ġ1000": 8099,
      "ĠEqu": 8100,
      "aces": 8101,
      "overy": 8102,
      "uba": 8103,
      "Ġregulation": 8104,
      "Ġdoors": 8105,
      "Ġscript": 8106,
      "Ġartist": 8107,
      "Ġ125": 8108,
      "Ġmountain": 8109,
      "ĠStalinism": 8110,
      "Ġsustain": 8111,
      "Ġexerc": 8112,
      "Ġsubsidies": 8113,
      "ĠKingdom": 8114,
      "Ġassassination": 8115,
      "Ġsovereignty": 8116,
      "had": 8117,
      "Ġid": 8118,
      "Ġsn": 8119,
      "orate": 8120,
      "Ġmit": 8121,
      "ĠMW": 8122,
      "igan": 8123,
      "ĠRath": 8124,
      "ĠLMT": 8125,
      "Ġexhibition": 8126,
      "aste": 8127,
      "rous": 8128,
      "Ġactual": 8129,
      "Ġinfection": 8130,
      "Ġvalued": 8131,
      "ĠCheney": 8132,
      "Ġdivision": 8133,
      "Ġclosure": 8134,
      "ĠEmploy": 8135,
      "Ġintensify": 8136,
      "Ġconfronting": 8137,
      "ĠAcademy": 8138,
      "ĠMalaysia": 8139,
      "col": 8140,
      "atra": 8141,
      "orough": 8142,
      "Ġmining": 8143,
      "Ġnomin": 8144,
      "raint": 8145,
      "ĠPune": 8146,
      "Ġstyle": 8147,
      "Ġconstitu": 8148,
      "ĠIndex": 8149,
      "ĠUPA": 8150,
      "ĠEPF": 8151,
      "Ġexclus": 8152,
      "ĠKisan": 8153,
      "Ġleaf": 8154,
      "Ġevident": 8155,
      "Ġportray": 8156,
      "anium": 8157,
      "ĠWorking": 8158,
      "ischer": 8159,
      "continent": 8160,
      "Ġinspired": 8161,
      "Ġdevastating": 8162,
      "ĠMichael": 8163,
      "GA": 8164,
      "lav": 8165,
      "Ġ/": 8166,
      "erring": 8167,
      "enary": 8168,
      "anies": 8169,
      "ananda": 8170,
      "Ġbought": 8171,
      "ĠTre": 8172,
      "ĠSwar": 8173,
      "ĠDue": 8174,
      "Ġpermitted": 8175,
      "Ġdemise": 8176,
      "Ġsubmit": 8177,
      "Ġtransformed": 8178,
      "Ġsites": 8179,
      "Ġpaying": 8180,
      "Ġbelieves": 8181,
      "Ġjudges": 8182,
      "Ġwheat": 8183,
      "Ġdeterior": 8184,
      "ĠCompanies": 8185,
      "Ġstarring": 8186,
      "Ġproceedings": 8187,
      "Ġdropped": 8188,
      "ĠMcC": 8189,
      "ĠSanjay": 8190,
      "ĠNevertheless": 8191,
      ":-": 8192,
      "CA": 8193,
      "NRE": 8194,
      "gments": 8195,
      "Ġcrack": 8196,
      "Ġdrast": 8197,
      "Ġreign": 8198,
      "Ġreward": 8199,
      "Ġnutrition": 8200,
      "ĠPPE": 8201,
      "ĠCWC": 8202,
      "ĠHig": 8203,
      "ĠDG": 8204,
      "heran": 8205,
      "Ġseem": 8206,
      "Ġ1930": 8207,
      "Ġdesol": 8208,
      "ospin": 8209,
      "Ġafflic": 8210,
      "Ġ1997": 8211,
      "Ġcycl": 8212,
      "Ġappreciation": 8213,
      "Ġamendments": 8214,
      "ĠFilms": 8215,
      "Ġchauvinism": 8216,
      "Ġcultiv": 8217,
      "65": 8218,
      "pa": 8219,
      "Ġtaught": 8220,
      "Ġtoler": 8221,
      "ĠSH": 8222,
      "ĠJospin": 8223,
      "ĠHere": 8224,
      "Ġunite": 8225,
      "Ġcontrolled": 8226,
      "Ġclin": 8227,
      "Ġquoted": 8228,
      "harif": 8229,
      "Ġfinancing": 8230,
      "Ġsettle": 8231,
      "Ġdidn": 8232,
      "ĠJanatha": 8233,
      "Ġ130": 8234,
      "Ġcommander": 8235,
      "Ġsalary": 8236,
      "Ġamounts": 8237,
      "Ġbloody": 8238,
      "ĠParliamentary": 8239,
      "ĠHaiti": 8240,
      "Ġcooperative": 8241,
      "ION": 8242,
      "Ġwedding": 8243,
      "ĠSouthern": 8244,
      "48": 8245,
      "Ġschedule": 8246,
      "Ġbare": 8247,
      "ourers": 8248,
      "ĠIAF": 8249,
      "Ġeager": 8250,
      "adhi": 8251,
      "ĠBrown": 8252,
      "aughter": 8253,
      "Ġexpanding": 8254,
      "Ġcapability": 8255,
      "rishi": 8256,
      "Ġrepublic": 8257,
      "ĠMani": 8258,
      "Ġheadquarters": 8259,
      "Ġ1995": 8260,
      "Ġemerge": 8261,
      "Ġmultilateral": 8262,
      "Ġmoves": 8263,
      "Ġnearby": 8264,
      "Ġtruck": 8265,
      "Ġpreparedness": 8266,
      "Ġargued": 8267,
      "Ġarrangement": 8268,
      "Ġmortg": 8269,
      "board": 8270,
      "Ġhalt": 8271,
      "Ġquarantine": 8272,
      "For": 8273,
      "IG": 8274,
      "person": 8275,
      "ĠX": 8276,
      "asions": 8277,
      "ĠTime": 8278,
      "ĠSP": 8279,
      "owell": 8280,
      "ĠLie": 8281,
      "Ġric": 8282,
      "ĠPresidents": 8283,
      "Ġsimple": 8284,
      "askar": 8285,
      "Ġmothers": 8286,
      "igarh": 8287,
      "ĠCeleb": 8288,
      "Ġdesperate": 8289,
      "incial": 8290,
      "Ġfixed": 8291,
      "ĠSand": 8292,
      "amuna": 8293,
      "Ġalive": 8294,
      "Ġhabit": 8295,
      "ĠHRD": 8296,
      "Ġvice": 8297,
      "ĠVir": 8298,
      "Ġdecent": 8299,
      "Ġtwice": 8300,
      "Ġrace": 8301,
      "ĠArch": 8302,
      "Ġdeclined": 8303,
      "ĠRepresent": 8304,
      "Ġportion": 8305,
      "Ġinstitute": 8306,
      "ĠOfficial": 8307,
      "Ġregulatory": 8308,
      "Ġboyc": 8309,
      "Ġbeaut": 8310,
      "ĠSLFP": 8311,
      "ĠMedicine": 8312,
      "ĠPrincipal": 8313,
      "DG": 8314,
      "book": 8315,
      "da": 8316,
      "di": 8317,
      "gl": 8318,
      "oining": 8319,
      "alaya": 8320,
      "Ġbillions": 8321,
      "ĠTake": 8322,
      "ĠSchemes": 8323,
      "ĠSne": 8324,
      "riors": 8325,
      "ĠNone": 8326,
      "Ġcontempt": 8327,
      "Ġark": 8328,
      "RDO": 8329,
      "itius": 8330,
      "Ġuranium": 8331,
      "Ġnecessity": 8332,
      "Ġnegative": 8333,
      "Ġinnovations": 8334,
      "Ġundertake": 8335,
      "Ġradio": 8336,
      "Ġexploit": 8337,
      "Ġargument": 8338,
      "Ġpilgri": 8339,
      "Ġscholars": 8340,
      "Ġinnocent": 8341,
      "Ġaugment": 8342,
      "iments": 8343,
      "ney": 8344,
      "Ġpick": 8345,
      "ĠTri": 8346,
      "ĠST": 8347,
      "idance": 8348,
      "Ġalign": 8349,
      "ĠLal": 8350,
      "ĠOpp": 8351,
      "ĠVideo": 8352,
      "Ġupcoming": 8353,
      "Ġmanaged": 8354,
      "Ġdiscont": 8355,
      "Ġrelation": 8356,
      "ĠAli": 8357,
      "ressional": 8358,
      "Ġmoral": 8359,
      "Ġeffects": 8360,
      "Ġescape": 8361,
      "Ġambitions": 8362,
      "ĠCountry": 8363,
      "Ġallegations": 8364,
      "Ġcompromise": 8365,
      "Ġreferendum": 8366,
      "98": 8367,
      "IV": 8368,
      "fare": 8369,
      "lights": 8370,
      "uz": 8371,
      "Ġfost": 8372,
      "Ġbag": 8373,
      "ĠRoman": 8374,
      "arted": 8375,
      "Ġsaving": 8376,
      "Ġperpet": 8377,
      "Ġperhaps": 8378,
      "ulty": 8379,
      "Ġleads": 8380,
      "Ġ47": 8381,
      "Ġfeast": 8382,
      "ĠLevel": 8383,
      "Ġequally": 8384,
      "ĠWithin": 8385,
      "Ġbright": 8386,
      "Ġcounterpart": 8387,
      "market": 8388,
      "ĠCPI": 8389,
      "Ġpledged": 8390,
      "Ġconfrontation": 8391,
      "ĠVeh": 8392,
      "ĠSociety": 8393,
      "Ġorientation": 8394,
      "LA": 8395,
      "lers": 8396,
      "ingly": 8397,
      "ĠSay": 8398,
      "ĠAS": 8399,
      "ĠAme": 8400,
      "ĠMot": 8401,
      "ĠPaine": 8402,
      "ether": 8403,
      "char": 8404,
      "Ġviz": 8405,
      "apuram": 8406,
      "Ġperfect": 8407,
      "Ġcontinent": 8408,
      "azar": 8409,
      "Ġstruck": 8410,
      "Ġequivalent": 8411,
      "Ġshortly": 8412,
      "Ġchallenging": 8413,
      "Ġhyp": 8414,
      "Ġtrouble": 8415,
      "Ġoccurred": 8416,
      "Ġdiscrimination": 8417,
      "East": 8418,
      "culation": 8419,
      "rc": 8420,
      "Ġbatt": 8421,
      "ĠSant": 8422,
      "riers": 8423,
      "Ġonto": 8424,
      "Ġexact": 8425,
      "portion": 8426,
      "ĠUSD": 8427,
      "Ġprimarily": 8428,
      "hawan": 8429,
      "Ġcenturies": 8430,
      "Ġdefended": 8431,
      "iasm": 8432,
      "Ġheroines": 8433,
      "Ġdoubling": 8434,
      "Ġbrave": 8435,
      "Ġelsewhere": 8436,
      "Ġpiece": 8437,
      "Ġdarkness": 8438,
      "ĠKosovo": 8439,
      "//": 8440,
      "31": 8441,
      "cap": 8442,
      "oes": 8443,
      "will": 8444,
      "asan": 8445,
      "Ġdated": 8446,
      "ĠMart": 8447,
      "ĠDrug": 8448,
      "antara": 8449,
      "ĠOl": 8450,
      "ĠKarth": 8451,
      "ĠChamber": 8452,
      "Ġrelatives": 8453,
      "Ġelabor": 8454,
      "Ġfoundations": 8455,
      "ĠCoronavirus": 8456,
      "Ġfunctions": 8457,
      "Ġresearc": 8458,
      "Ġfinding": 8459,
      "ĠPortal": 8460,
      "ĠAyurved": 8461,
      "Ġrecommended": 8462,
      "ĠDisaster": 8463,
      "Ġslew": 8464,
      "Ġprocedures": 8465,
      "ĠHamas": 8466,
      "Ġneighbouring": 8467,
      "Ġchoose": 8468,
      "ĠUniversities": 8469,
      "Ġconversation": 8470,
      "Ġdictatorship": 8471,
      "Ġ/>": 8472,
      "06": 8473,
      "://": 8474,
      "DC": 8475,
      "eev": 8476,
      "mans": 8477,
      "wah": 8478,
      "reli": 8479,
      "ĠPowell": 8480,
      "Ġstag": 8481,
      "Ġhect": 8482,
      "ĠEs": 8483,
      "Ġvo": 8484,
      "ĠJon": 8485,
      "ĠKendra": 8486,
      "enses": 8487,
      "Ġcancer": 8488,
      "Ġyourselves": 8489,
      "ekiah": 8490,
      "Ġdistin": 8491,
      "Ġdistingu": 8492,
      "Ġcomplaint": 8493,
      "party": 8494,
      "Ġrecognized": 8495,
      "Ġappearance": 8496,
      "Ġneighbor": 8497,
      "ĠSystems": 8498,
      "ĠCapital": 8499,
      "Ġexcellent": 8500,
      "Ġeuros": 8501,
      "ĠSrin": 8502,
      "ais": 8503,
      "Â§": 8504,
      "encing": 8505,
      "Ġwr": 8506,
      "Ġfishing": 8507,
      "Ġfashion": 8508,
      "Ġben": 8509,
      "Ġmun": 8510,
      "Ġdow": 8511,
      "ĠMilitary": 8512,
      "Ġforty": 8513,
      "raim": 8514,
      "ĠCross": 8515,
      "oles": 8516,
      "Ġstable": 8517,
      "orts": 8518,
      "ĠUMP": 8519,
      "Ġincorpor": 8520,
      "Ġmanage": 8521,
      "Ġundermine": 8522,
      "Ġcomprising": 8523,
      "Ġcommence": 8524,
      "Ġindirect": 8525,
      "ĠIsa": 8526,
      "Ġterrible": 8527,
      "Ġneedy": 8528,
      "ablo": 8529,
      "Ġexecution": 8530,
      "Ġroutine": 8531,
      "Ġenthusiasm": 8532,
      "Ġutterly": 8533,
      "Ġtotally": 8534,
      "ĠMauritius": 8535,
      "DT": 8536,
      "lation": 8537,
      "ont": 8538,
      "atories": 8539,
      "Ġcards": 8540,
      "img": 8541,
      "iger": 8542,
      "ĠHu": 8543,
      "Ġexh": 8544,
      "quest": 8545,
      "Ġfile": 8546,
      "Ġscore": 8547,
      "Ġmonthly": 8548,
      "ĠSwed": 8549,
      "Ġconnecting": 8550,
      "ĠRegul": 8551,
      "apping": 8552,
      "Ġmotion": 8553,
      "Ġwitnesses": 8554,
      "Ġpursuing": 8555,
      "Ġambassador": 8556,
      "Ġpriorities": 8557,
      "Ġextremist": 8558,
      "Ġangry": 8559,
      "Ġconsciousness": 8560,
      "ttp": 8561,
      "Ġhunger": 8562,
      "ĠEmergency": 8563,
      "\",": 8564,
      "mad": 8565,
      "Ġsrc": 8566,
      "asa": 8567,
      "Ġgrievances": 8568,
      "Ġupper": 8569,
      "ĠBad": 8570,
      "ĠGer": 8571,
      "Ġangel": 8572,
      "unk": 8573,
      "Ġ($": 8574,
      "udra": 8575,
      "Ġ2030": 8576,
      "Ġrivers": 8577,
      "Ġempt": 8578,
      "Ġ44": 8579,
      "Ġ46": 8580,
      "ucherry": 8581,
      "Ġbeneficial": 8582,
      "ĠMoab": 8583,
      "Ġsitting": 8584,
      "Ġpreserve": 8585,
      "class": 8586,
      "Ġexperienced": 8587,
      "ĠProduction": 8588,
      "ĠNicolas": 8589,
      "ĠOrdinance": 8590,
      "Ġcomedy": 8591,
      "Ġdynam": 8592,
      "MK": 8593,
      "SR": 8594,
      "iam": 8595,
      "Ġtong": 8596,
      "Ġthorough": 8597,
      "ĠPablo": 8598,
      "ĠUk": 8599,
      "Ġvine": 8600,
      "umber": 8601,
      "Ġresum": 8602,
      "Ġunif": 8603,
      "rics": 8604,
      "Ġambit": 8605,
      "Ġtraged": 8606,
      "Ġopposite": 8607,
      "hesh": 8608,
      "Ġdevices": 8609,
      "Ġhoped": 8610,
      "Ġcontributing": 8611,
      "Ġcyber": 8612,
      "Ġfeeling": 8613,
      "Ġadjoining": 8614,
      "Ġpieces": 8615,
      "ĠNayantara": 8616,
      "http": 8617,
      "rum": 8618,
      "Ġwww": 8619,
      "org": 8620,
      "ĠTrad": 8621,
      "ĠID": 8622,
      "Ġlest": 8623,
      "Ġstim": 8624,
      "Ġconferencing": 8625,
      "ema": 8626,
      "Ġshares": 8627,
      "Ġincom": 8628,
      "ĠVig": 8629,
      "ubilee": 8630,
      "Ġcomputer": 8631,
      "ĠArjun": 8632,
      "Ġcargo": 8633,
      "Ġgrave": 8634,
      "ieth": 8635,
      "Ġtribes": 8636,
      "Ġscreenplay": 8637,
      "Ġintensified": 8638,
      "ĠRadio": 8639,
      "ĠMobile": 8640,
      "Ġprecisely": 8641,
      "known": 8642,
      "SEP": 8643,
      "ae": 8644,
      "after": 8645,
      "attered": 8646,
      "room": 8647,
      "ads": 8648,
      "ĠFall": 8649,
      "ivelu": 8650,
      "Ġclub": 8651,
      "aved": 8652,
      "Ġaccus": 8653,
      "Ġreck": 8654,
      "Ġshel": 8655,
      "ĠLeague": 8656,
      "Ġyounger": 8657,
      "Ġemergence": 8658,
      "Ġcelebration": 8659,
      "ĠPlant": 8660,
      "Ġ1989": 8661,
      "Ġholistic": 8662,
      "Ġexchanges": 8663,
      "ĠVenk": 8664,
      "Ġoptions": 8665,
      "Ġignored": 8666,
      "ĠCycl": 8667,
      "ĠBelg": 8668,
      "Ġnomination": 8669,
      "Ġmarginal": 8670,
      "Ġcatastrop": 8671,
      "ashtriya": 8672,
      "Ġclothes": 8673,
      "ĠShramik": 8674,
      "ĠPuducherry": 8675,
      "ĠEphraim": 8676,
      "ĠAmeer": 8677,
      "37": 8678,
      "BA": 8679,
      "hak": 8680,
      "ero": 8681,
      "ĠScheduled": 8682,
      "Ġrede": 8683,
      "ĠMag": 8684,
      "Ġgang": 8685,
      "ĠBased": 8686,
      "ĠDar": 8687,
      "ĠFive": 8688,
      "ĠFischer": 8689,
      "ĠUTs": 8690,
      "ĠLatin": 8691,
      "ĠEle": 8692,
      "osal": 8693,
      "Ġselection": 8694,
      "ĠKend": 8695,
      "ĠThom": 8696,
      "ĠStone": 8697,
      "Ġrelax": 8698,
      "Ġconsp": 8699,
      "othing": 8700,
      "Ġcenters": 8701,
      "Ġartists": 8702,
      "Ġbox": 8703,
      "augur": 8704,
      "Ġantiwar": 8705,
      "Ġdisputes": 8706,
      "Ġcauses": 8707,
      "Ġcollected": 8708,
      "uvan": 8709,
      "2009": 8710,
      "Ġwalked": 8711,
      "ĠChildren": 8712,
      "Ġbelonging": 8713,
      "Ġassumed": 8714,
      "Ġmental": 8715,
      "Ġunveiled": 8716,
      "Ġbranches": 8717,
      "Ġsuddenly": 8718,
      "Ġarchitect": 8719,
      "ĠRobert": 8720,
      "09": 8721,
      "oam": 8722,
      "Ġcaught": 8723,
      "ĠSury": 8724,
      "ĠAri": 8725,
      "Ġnurs": 8726,
      "rap": 8727,
      "ĠPresent": 8728,
      "ĠHand": 8729,
      "ĠLuc": 8730,
      "ĠKay": 8731,
      "Ġintense": 8732,
      "ĠVin": 8733,
      "ogether": 8734,
      "Ġexpense": 8735,
      "Ġqueries": 8736,
      "armed": 8737,
      "Ġsurface": 8738,
      "Ġreturning": 8739,
      "Ġtourists": 8740,
      "Ġminds": 8741,
      "Ġnewspapers": 8742,
      "ĠJewish": 8743,
      "Ġprosecution": 8744,
      "Ġtroub": 8745,
      "Ġimagine": 8746,
      "67": 8747,
      "Com": 8748,
      "boo": 8749,
      "house": 8750,
      "uable": 8751,
      "vo": 8752,
      "ÃĤ": 8753,
      "ilty": 8754,
      "ĠTalk": 8755,
      "ĠSir": 8756,
      "Ġears": 8757,
      "utt": 8758,
      "Ġassemb": 8759,
      "ĠNA": 8760,
      "Ġsees": 8761,
      "ĠKV": 8762,
      "Ġenact": 8763,
      "Ġresident": 8764,
      "Ġasserted": 8765,
      "Ġcampus": 8766,
      "Ġadvice": 8767,
      "ields": 8768,
      "Ġcompleting": 8769,
      "Ġslain": 8770,
      "Ġtalked": 8771,
      "adhal": 8772,
      "Ġweapon": 8773,
      "Ġearthqu": 8774,
      "guard": 8775,
      "Ġregister": 8776,
      "Ġsupplied": 8777,
      "Ġdialogues": 8778,
      "ĠNader": 8779,
      "ĠTextiles": 8780,
      "Ġretirement": 8781,
      "ĠUjj": 8782,
      "Mar": 8783,
      "cri": 8784,
      "gue": 8785,
      "sed": 8786,
      "Ġaud": 8787,
      "Ġfired": 8788,
      "ĠMult": 8789,
      "Ġgained": 8790,
      "Ġweaken": 8791,
      "Ġexit": 8792,
      "Ġruth": 8793,
      "Ġworlds": 8794,
      "Ġpersonally": 8795,
      "Ġdestination": 8796,
      "Ġthreatens": 8797,
      "Ġexamples": 8798,
      "Ġcriticised": 8799,
      "Ġgovernor": 8800,
      "Ġdeliberately": 8801,
      "ĠHoly": 8802,
      "Ġlawyer": 8803,
      "ĠHigher": 8804,
      "ugg": 8805,
      "erb": 8806,
      "itch": 8807,
      "Ġdig": 8808,
      "Ġnaked": 8809,
      "Ġloved": 8810,
      "urgency": 8811,
      "etic": 8812,
      "ĠFact": 8813,
      "ĠJag": 8814,
      "Ġpertain": 8815,
      "ultane": 8816,
      "Ġusual": 8817,
      "Ġraw": 8818,
      "ĠReal": 8819,
      "ĠExchange": 8820,
      "They": 8821,
      "Ġwrites": 8822,
      "ĠWithout": 8823,
      "amboo": 8824,
      "Ġtemper": 8825,
      "Ġintegrity": 8826,
      "Ġfeaturing": 8827,
      "Ġtwentieth": 8828,
      "46": 8829,
      "57": 8830,
      "GS": 8831,
      "lag": 8832,
      "more": 8833,
      "erred": 8834,
      "Ġpsych": 8835,
      "Ġbreat": 8836,
      "Ġbull": 8837,
      "ĠPPP": 8838,
      "ĠEach": 8839,
      "peace": 8840,
      "Ġworkshop": 8841,
      "ĠVim": 8842,
      "Ġdispl": 8843,
      "active": 8844,
      "Ġarr": 8845,
      "Ġpregn": 8846,
      "Ġapproached": 8847,
      "oung": 8848,
      "iques": 8849,
      "Ġstatue": 8850,
      "ĠAssistance": 8851,
      "Ġlowest": 8852,
      "ĠBengaluru": 8853,
      "ĠTrains": 8854,
      "ĠKarun": 8855,
      "Ġ1960": 8856,
      "Ġmandatory": 8857,
      "Ġjournalist": 8858,
      "ruitment": 8859,
      "Ġanticip": 8860,
      "Ġsensitive": 8861,
      "Ġtribute": 8862,
      "ĠAbdul": 8863,
      "Ġtanks": 8864,
      "election": 8865,
      "ius": 8866,
      "inal": 8867,
      "ontain": 8868,
      "Ġsins": 8869,
      "Ġbrand": 8870,
      "Ġalien": 8871,
      "opathy": 8872,
      "Ġvide": 8873,
      "Ġunilateral": 8874,
      "ava": 8875,
      "Ġinterrog": 8876,
      "Ġeval": 8877,
      "Ġrevol": 8878,
      "Ġguidance": 8879,
      "Ġbrass": 8880,
      "Ġenterprise": 8881,
      "Ġprotecting": 8882,
      "Ġreplaced": 8883,
      "Ġpursuit": 8884,
      "ĠImpact": 8885,
      "ĠJacques": 8886,
      "Ġcondemn": 8887,
      "ĠArticle": 8888,
      "ĠProfessor": 8889,
      "Ġcamer": 8890,
      "rification": 8891,
      "ĠPortugal": 8892,
      "01": 8893,
      "kes": 8894,
      "Ġpark": 8895,
      "Ġpulses": 8896,
      "Ġshop": 8897,
      "Ġunless": 8898,
      "ĠUnit": 8899,
      "Ġpret": 8900,
      "ernity": 8901,
      "ushboo": 8902,
      "Ġherself": 8903,
      "Ġretired": 8904,
      "ĠExport": 8905,
      "Ġruns": 8906,
      "Ġtremend": 8907,
      "Ġcyn": 8908,
      "Ġstayed": 8909,
      "ĠReferring": 8910,
      "Ġhyd": 8911,
      "Ġmomentum": 8912,
      "ĠOpen": 8913,
      "Ġexcellence": 8914,
      "Ġdismissed": 8915,
      "Ġcolleagues": 8916,
      "Ġatrocities": 8917,
      "Ġauspicious": 8918,
      "ĠKochi": 8919,
      "reliant": 8920,
      "front": 8921,
      "enn": 8922,
      "Ġwa": 8923,
      "Ġtools": 8924,
      "lex": 8925,
      "istant": 8926,
      "ĠCirc": 8927,
      "ĠRate": 8928,
      "akrish": 8929,
      "ĠHundred": 8930,
      "ĠKu": 8931,
      "assy": 8932,
      "Ġmankind": 8933,
      "okh": 8934,
      "Ġreporting": 8935,
      "Ġsociet": 8936,
      "Ġvillagers": 8937,
      "Ġasking": 8938,
      "ĠRegist": 8939,
      "Ġideals": 8940,
      "ĠMadhavan": 8941,
      "adda": 8942,
      "Ġcaptured": 8943,
      "DoNER": 8944,
      "vised": 8945,
      "yad": 8946,
      "Â£": 8947,
      "ĠÃĤ": 8948,
      "inter": 8949,
      "aland": 8950,
      "icity": 8951,
      "ician": 8952,
      "Ġmicro": 8953,
      "ĠTony": 8954,
      "ĠCities": 8955,
      "Ġyoga": 8956,
      "odal": 8957,
      "ĠKrishi": 8958,
      "Ġfiling": 8959,
      "Ġ2011": 8960,
      "Ġends": 8961,
      "Ġguilty": 8962,
      "Ġfacilitating": 8963,
      "Ġvillain": 8964,
      "wara": 8965,
      "Ġwealthy": 8966,
      "ĠNetwork": 8967,
      "Ġtrip": 8968,
      "ĠSenator": 8969,
      "ÂĢÂĵ": 8970,
      "ĠVadivelu": 8971,
      "Ġfemale": 8972,
      "ĠFramework": 8973,
      "Ġphilosophy": 8974,
      "cen": 8975,
      "dis": 8976,
      "jp": 8977,
      "spe": 8978,
      "real": 8979,
      "Ġfish": 8980,
      "Ġthrow": 8981,
      "lease": 8982,
      "ĠTRI": 8983,
      "ĠAv": 8984,
      "ĠCey": 8985,
      "ayal": 8986,
      "ĠRashtriya": 8987,
      "ĠDani": 8988,
      "ĠDaily": 8989,
      "ĠJK": 8990,
      "izh": 8991,
      "Ġoutcomes": 8992,
      "ĠRajiv": 8993,
      "Ġpublication": 8994,
      "Ġpresentation": 8995,
      "Ġ800": 8996,
      "Ġdemonstrate": 8997,
      "ĠCommunications": 8998,
      "Ġskilled": 8999,
      "ĠApplic": 9000,
      "ĠBaat": 9001,
      "Ġrailways": 9002,
      "Ġstriking": 9003,
      "Ġcontainment": 9004,
      "Ġthrust": 9005,
      "Ġescalation": 9006,
      "ĠGoods": 9007,
      "American": 9008,
      "Ġremembered": 9009,
      "Ġmilestone": 9010,
      "BS": 9011,
      "PO": 9012,
      "iram": 9013,
      "lon": 9014,
      "law": 9015,
      "uit": 9016,
      "ĠCPM": 9017,
      "Ġstorm": 9018,
      "ĠLater": 9019,
      "Ġworship": 9020,
      "ĠKeep": 9021,
      "Ġchari": 9022,
      "Ġabund": 9023,
      "adekar": 9024,
      "Ġ58": 9025,
      "ointed": 9026,
      "Ġshoulder": 9027,
      "minals": 9028,
      "Ġcolumn": 9029,
      "icking": 9030,
      "Ġequipped": 9031,
      "ĠUNF": 9032,
      "clave": 9033,
      "Ġdemonstrators": 9034,
      "Ġsolve": 9035,
      "Ġjudicial": 9036,
      "Ġteacher": 9037,
      "Ġharass": 9038,
      "ujah": 9039,
      "akkam": 9040,
      "Ġshowcase": 9041,
      "ĠGarib": 9042,
      "Ġcommodities": 9043,
      "Ġoverthrow": 9044,
      "ĠSneha": 9045,
      "77": 9046,
      "92": 9047,
      "arin": 9048,
      "Ġfel": 9049,
      "ĠTai": 9050,
      "Ġlosing": 9051,
      "Ġhence": 9052,
      "ĠBrand": 9053,
      "antic": 9054,
      "Ġcontrary": 9055,
      "Ġ51": 9056,
      "Ġdefined": 9057,
      "ĠConstruction": 9058,
      "Ġpresently": 9059,
      "Ġoperated": 9060,
      "ĠExec": 9061,
      "Ġguer": 9062,
      "Ġplanet": 9063,
      "Ġaffili": 9064,
      "Ġairports": 9065,
      "Ġprotesters": 9066,
      "Ġkillings": 9067,
      "Ġrepresenting": 9068,
      "Ġprevented": 9069,
      "Ġpreventing": 9070,
      "aviour": 9071,
      "Ġwidth": 9072,
      "Ġrefugee": 9073,
      "Ġoptim": 9074,
      "ĠProduct": 9075,
      "Ġprocedure": 9076,
      "ĠBenefits": 9077,
      "Ġexpertise": 9078,
      "Ġresignation": 9079,
      "ĠEngineering": 9080,
      "Ġresearchers": 9081,
      "Ġcatastrophe": 9082,
      "jpg": 9083,
      "JVP": 9084,
      "Ms": 9085,
      "nect": 9086,
      "pin": 9087,
      "Ġwaged": 9088,
      "Ġcured": 9089,
      "Ġfier": 9090,
      "Ġmantra": 9091,
      "ĠTB": 9092,
      "ĠSession": 9093,
      "Ġreorgan": 9094,
      "ĠBose": 9095,
      "ĠNear": 9096,
      "ĠHence": 9097,
      "ĠOF": 9098,
      "ĠKand": 9099,
      "people": 9100,
      "Ġchamp": 9101,
      "ĠAsin": 9102,
      "Ġdemocrat": 9103,
      "Ġ43": 9104,
      "Ġ85": 9105,
      "orney": 9106,
      "ĠPeramuna": 9107,
      "ullah": 9108,
      "raja": 9109,
      "Ġsuspend": 9110,
[...]
